{"[PAD]":0,"[CLS]":1,"!":2,"\"":3,"#":4,"$":5,"%":6,"&":7,"'":8,"(":9,")":10,"*":11,"+":12,",":13,"-":14,".":15,"/":16,"0":17,"1":18,"2":19,"3":20,"4":21,"5":22,"6":23,"7":24,"8":25,"9":26,":":27,";":28,"<":29,"=":30,">":31,"?":32,"@":33,"A":34,"B":35,"C":36,"D":37,"E":38,"F":39,"G":40,"H":41,"I":42,"J":43,"K":44,"L":45,"M":46,"N":47,"O":48,"P":49,"Q":50,"R":51,"S":52,"T":53,"U":54,"V":55,"W":56,"X":57,"Y":58,"Z":59,"[":60,"\\":61,"]":62,"^":63,"_":64,"`":65,"a":66,"b":67,"c":68,"d":69,"e":70,"f":71,"g":72,"h":73,"i":74,"j":75,"k":76,"l":77,"m":78,"n":79,"o":80,"p":81,"q":82,"r":83,"s":84,"t":85,"u":86,"v":87,"w":88,"x":89,"y":90,"z":91,"{":92,"|":93,"}":94,"~":95,"¡":96,"¢":97,"£":98,"¤":99,"¥":100,"¦":101,"§":102,"¨":103,"©":104,"ª":105,"«":106,"¬":107,"®":108,"¯":109,"°":110,"±":111,"²":112,"³":113,"´":114,"µ":115,"¶":116,"·":117,"¸":118,"¹":119,"º":120,"»":121,"¼":122,"½":123,"¾":124,"¿":125,"À":126,"Á":127,"Â":128,"Ã":129,"Ä":130,"Å":131,"Æ":132,"Ç":133,"È":134,"É":135,"Ê":136,"Ë":137,"Ì":138,"Í":139,"Î":140,"Ï":141,"Ð":142,"Ñ":143,"Ò":144,"Ó":145,"Ô":146,"Õ":147,"Ö":148,"×":149,"Ø":150,"Ù":151,"Ú":152,"Û":153,"Ü":154,"Ý":155,"Þ":156,"ß":157,"à":158,"á":159,"â":160,"ã":161,"ä":162,"å":163,"æ":164,"ç":165,"è":166,"é":167,"ê":168,"ë":169,"ì":170,"í":171,"î":172,"ï":173,"ð":174,"ñ":175,"ò":176,"ó":177,"ô":178,"õ":179,"ö":180,"÷":181,"ø":182,"ù":183,"ú":184,"û":185,"ü":186,"ý":187,"þ":188,"ÿ":189,"Ā":190,"ā":191,"Ă":192,"ă":193,"Ą":194,"ą":195,"Ć":196,"ć":197,"Ĉ":198,"ĉ":199,"Ċ":200,"ċ":201,"Č":202,"č":203,"Ď":204,"ď":205,"Đ":206,"đ":207,"Ē":208,"ē":209,"Ĕ":210,"ĕ":211,"Ė":212,"ė":213,"Ę":214,"ę":215,"Ě":216,"ě":217,"Ĝ":218,"ĝ":219,"Ğ":220,"ğ":221,"Ġ":222,"ġ":223,"Ģ":224,"ģ":225,"Ĥ":226,"ĥ":227,"Ħ":228,"ħ":229,"Ĩ":230,"ĩ":231,"Ī":232,"ī":233,"Ĭ":234,"ĭ":235,"Į":236,"į":237,"İ":238,"ı":239,"Ĳ":240,"ĳ":241,"Ĵ":242,"ĵ":243,"Ķ":244,"ķ":245,"ĸ":246,"Ĺ":247,"ĺ":248,"Ļ":249,"ļ":250,"Ľ":251,"ľ":252,"Ŀ":253,"ŀ":254,"Ł":255,"ł":256,"Ń":257,"Ġt":258,"Ġa":259,"he":260,"Ġi":261,"Ġw":262,"Ġ.":263,"Ġs":264,"re":265,"Ġthe":266,"er":267,"Ġo":268,"nd":269,"in":270,"Ġf":271,"Ġc":272,"Ġb":273,"Ġm":274,"ha":275,"ou":276,"Ġand":277,"ĠĠ":278,"Ġp":279,"Ġto":280,"ed":281,"Ġd":282,"Ġn":283,"ing":284,"or":285,"en":286,"as":287,"on":288,"es":289,"Ġg":290,"ll":291,"Ġl":292,"it":293,"ot":294,"ic":295,"Ġha":296,"om":297,"ve":298,"at":299,"is":300,"Ġe":301,"an":302,"Ġis":303,"Ġin":304,"ar":305,"Ġwas":306,"le":307,"Ġon":308,"Ġof":309,"Ġre":310,"us":311,"ut":312,"Ġth":313,"ver":314,"Ġbe":315,"Ġwe":316,"Ġnot":317,"ly":318,"Ġit":319,"Ġy":320,"Ġh":321,"ac":322,"Ġ!":323,"Ġfor":324,"al":325,"Ġhe":326,"hat":327,"Ġmy":328,"ay":329,"oo":330,"Ġst":331,"ent":332,"Ġyou":333,"et":334,"ld":335,"id":336,"ow":337,"Ġthey":338,"Ġthat":339,"ion":340,"me":341,"all":342,"ri":343,"ith":344,"ur":345,"Ġwith":346,"gh":347,"Ġhave":348,"ĠĊ":349,"ir":350,"ro":351,"Ġme":352,"st":353,"ke":354,"Ġan":355,"Ġthis":356,"ice":357,"ce":358,"Ġu":359,"Ġne":360,"Ġare":361,"very":362,"Ġdo":363,"ould":364,"ad":365,"Ġas":366,"ood":367,"Ġat":368,"Ġone":369,"Ġbut":370,"Ġso":371,"ill":372,"Ġse":373,"Ġj":374,"ust":375,"ive":376,"Ġex":377,"Ġpl":378,"Ġhad":379,"pp":380,"ome":381,"se":382,"ter":383,"Ġ-":384,"Ġde":385,"Ġwh":386,"ct":387,"Ġor":388,"zer":389,"Ġti":390,"ore":391,"Ġal":392,"ble":393,"zero":394,"Ġzero":395,"ght":396,"ess":397,"ally":398,"ant":399,"th":400,"her":401,"Ġk":402,"Ġli":403,"one":404,"Ġr":405,"reat":406,"Ġfr":407,"Ġam":408,"Ġwere":409,"ch":410,"ff":411,"Ġcom":412,"Ġser":413,"est":414,"ace":415,"Ġtw":416,"ge":417,"Ġout":418,"Ġsa":419,"Ġvery":420,"ĠĠĠ":421,"Ġwould":422,"Ġwhe":423,"Ġgo":424,"ul":425,"Ġwor":426,"Ġshe":427,"qu":428,"ain":429,"ack":430,"Ġthere":431,"Ġtwo":432,"Ġca":433,"Ġsh":434,"ast":435,"Ġsu":436,"our":437,"il":438,"Ġall":439,"Ġlo":440,"Ġget":441,"Ġpro":442,"ers":443,"Ġup":444,"out":445,"red":446,"Ġserv":447,"Ġus":448,"ven":449,"Ġplace":450,"pe":451,"Ġwill":452,"ked":453,"Ġtime":454,"Ġab":455,"king":456,"Ġif":457,"Ġgreat":458,"Ġdid":459,"Ġtr":460,"han":461,"ation":462,"Ġwhen":463,"am":464,"Ġfrom":465,"per":466,"ree":467,"op":468,"Ġgood":469,"Ġservice":470,"res":471,"un":472,"ate":473,"Ġtheir":474,"end":475,"Ġv":476,"el":477,"Ġjust":478,"Ġback":479,"Ġno":480,"im":481,"nt":482,"Ġpr":483,"Ġch":484,"Ġlike":485,"Ġour":486,"ine":487,"Ġthem":488,"Ġta":489,"Ġany":490,"Ġcon":491,"Ġqu":492,"Ġco":493,"ment":494,"Ġfri":495,"ite":496,"Ġwhat":497,"Ġhere":498,"Ġle":499,"Ġabout":500,"ie":501,"so":502,"Ġfive":503,"ays":504,"art":505,"Ġfood":506,"Ġcomp":507,"ick":508,"ind":509,"Ġyour":510,"Ġma":511,"Ġoff":512,"ca":513,"Ġfe":514,"ist":515,"Ġbeen":516,"Ġsome":517,"rou":518,"com":519,"ks":520,"lo":521,"Ġher":522,"ous":523,"Ġkn":524,"ight":525,"Ġevery":526,"ra":527,"Ġcan":528,"Ġman":529,"Ġthree":530,"mp":531,"Ġthan":532,"Ġte":533,"Ġsta":534,"Ġloo":535,"ich":536,"Ġfriend":537,"Ġcall":538,"Ġtoo":539,"Ġmo":540,"ther":541,"ort":542,"use":543,"Ġover":544,"Ġag":545,"Ġord":546,"fter":547,"able":548,"Ġeven":549,"Ġsp":550,"Ġcar":551,"Ġafter":552,"Ġby":553,"Ġneed":554,"Ġother":555,"Ġknow":556,"int":557,"Ġche":558,"Ġonly":559,"ful":560,"Ġhas":561,"Ġwa":562,"ig":563,"Ġbeca":564,"ck":565,"Ġcould":566,"Ġun":567,"pt":568,"Ġbecause":569,"Ġsee":570,"Ġpo":571,"Ġwho":572,"Ġreally":573,"Ġwant":574,"Ġmore":575,"Ġwhich":576,"mend":577,"Ġdis":578,"Ġrecom":579,"Ġwork":580,"ars":581,"Ġalso":582,"ix":583,"Ġrecommend":584,"Ġapp":585,"ag":586,"iz":587,"ien":588,"Ġhow":589,"Ġen":590,"Ġpe":591,"ud":592,"Ġgot":593,"ved":594,"Ġstaff":595,"lp":596,"ity":597,"ide":598,"Ġcust":599,"Ġnever":600,"Ġhelp":601,"wn":602,"Ġdr":603,"Ġcustom":604,"ong":605,"Ġro":606,"Ġye":607,"Ġ:":608,"age":609,"Ġwait":610,"ways":611,"Ġcle":612,"ough":613,"Ġfour":614,"Ġexper":615,"ass":616,"act":617,"Ġcl":618,"and":619,"ail":620,"ci":621,"te":622,"Ġalways":623,"hing":624,"fe":625,"Ġwell":626,"mo":627,"Ġloc":628,"Ġad":629,"Ġhis":630,"Ġexperien":631,"ving":632,"Ġpre":633,"um":634,"uy":635,"ade":636,"irst":637,"itt":638,"Ġnew":639,"Ġmin":640,"Ġaw":641,"Ġnice":642,"Ġsaid":643,"igh":644,"own":645,"ress":646,"ure":647,"thing":648,"Ġfriendly":649,"Ġcha":650,"ty":651,"Ġdi":652,"Ġjo":653,"ĠĠĠĠ":654,"Ġwent":655,"Ġagain":656,"Ġthen":657,"ered":658,"Ġstore":659,"Ġbest":660,"Ġday":661,"Ġfirst":662,"Ġtold":663,"ard":664,"ople":665,"ions":666,"Ġpeople":667,"ious":668,"Ġsal":669,"Ġbus":670,"ue":671,"ab":672,"ings":673,"Ġgoing":674,"ond":675,"lf":676,"Ġmake":677,"ile":678,"Ġown":679,"az":680,"Ġtry":681,"Ġri":682,"Ġexperience":683,"av":684,"Ġclean":685,"Ġph":686,"Ġsc":687,"urn":688,"Ġspe":689,"ies":690,"other":691,"Ġmu":692,"Ġdel":693,"Ġmade":694,"Ġcustomer":695,"ffe":696,"oint":697,"Ġcame":698,"ft":699,"Ġac":700,"Ġlove":701,"Ġorder":702,"Ġnow":703,"Ġhigh":704,"ated":705,"Ġwee":706,"ices":707,"Ġhim":708,"ave":709,"ional":710,"Ġbet":711,"Ġcome":712,"ink":713,"Ġdef":714,"Ġmuch":715,"Ġsay":716,"ak":717,"os":718,"Ġfl":719,"fore":720,"Ġres":721,"Ġrest":722,"Ġdec":723,"hed":724,"Ġtake":725,"Ġhome":726,"pl":727,"Ġbr":728,"ater":729,"day":730,"Ġve":731,"to":732,"Ġbefore":733,"Ġway":734,"Ġhapp":735,"we":736,"ry":737,"ound":738,"ip":739,"Ġdefin":740,"iew":741,"Ġamaz":742,"itely":743,"Ġar":744,"Ġper":745,"ms":746,"ient":747,"ish":748,"Ġfind":749,"round":750,"Ġever":751,"Ġcalled":752,"Ġbo":753,"Ġdefinitely":754,"ting":755,"Ġprice":756,"Ġminut":757,"Ġmon":758,"Ġlocation":759,"Ġamazing":760,"Ġtook":761,"iness":762,"Ġhour":763,"Ġwal":764,"Ġright":765,"ittle":766,"Ġcou":767,"Ġext":768,"Ġasked":769,"Ġfeel":770,"Ġlittle":771,"erson":772,"Ġpart":773,"pen":774,"Ġke":775,"ber":776,"ance":777,"Ġsm":778,"rent":779,"xt":780,"Ġgive":781,"Ġyears":782,"view":783,"Ġcompan":784,"Ġdown":785,"ull":786,"ach":787,"ily":788,"Ġbetter":789,"Ġtri":790,"Ġdone":791,"Ġtast":792,"oth":793,"Ġlot":794,"Ġpa":795,"pect":796,"Ġanother":797,"Ġreview":798,"Ġsure":799,"fess":800,"Ġhair":801,"Ġperson":802,"Ġsix":803,"Ġstill":804,"Ġbusiness":805,"Ġcare":806,"ince":807,"Ġins":808,"Ġfew":809,"ep":810,"Ġjob":811,"Ġcont":812,"ady":813,"ason":814,"ually":815,"les":816,"Ġtim":817,"Ġguy":818,"Ġchar":819,"aur":820,"Ġaround":821,"Ġvis":822,"Ġpay":823,"Ġlong":824,"ool":825,"Ġsince":826,"Ġmost":827,"omet":828,"fessional":829,"Ġeverything":830,"aurant":831,"Ġnine":832,"Ġrestaurant":833,"med":834,"Ġinst":835,"Ġdoes":836,"ction":837,"Ġcompany":838,"Ġho":839,"led":840,"Ġsomet":841,"Ġdes":842,"here":843,"Ġminutes":844,"Ġfin":845,"Ġwhile":846,"ating":847,"Ġbl":848,"ont":849,"Ġlooking":850,"Ġinto":851,"Ġtimes":852,"Ġinc":853,"Ġshow":854,"gg":855,"Ġordered":856,"Ġshould":857,"Ġbeing":858,"Ġbre":859,"Ġatt":860,"Ġvisit":861,"ult":862,"Ġnext":863,"Ġbad":864,"ian":865,"hes":866,"Ġclo":867,"Ġlast":868,"Ġmonth":869,"ought":870,"kes":871,"Ġmany":872,"nder":873,"Ġact":874,"rough":875,"Ġchick":876,"Ġret":877,"ors":878,"Ġthrough":879,"air":880,"Ġeight":881,"Ġrece":882,"Ġref":883,"ple":884,"Ġfound":885,"ude":886,"ye":887,"Ġel":888,"Ġwanted":889,"Ġshop":890,"Ġexce":891,"Ġroom":892,"Ġchicken":893,"ning":894,"Ġwhere":895,"this":896,"Ġchan":897,"Ġhighly":898,"oney":899,"Ġcr":900,"Ġend":901,"Ġpret":902,"Ġseven":903,"Ġimp":904,"Ġstart":905,"Ġbar":906,"Ġgi":907,"Ġpat":908,"Ġhot":909,"ality":910,"Ġunder":911,"ase":912,"Ġrep":913,"Ġtell":914,"Ġarea":915,"ever":916,"are":917,"Ġprofessional":918,"ol":919,"Ġdeal":920,"be":921,"ointment":922,"Ġfam":923,"Ġsuper":924,"Ġreason":925,"ign":926,"Ġleft":927,"Ġsmall":928,"Ġdri":929,"Ġlook":930,"Ġple":931,"Ġthink":932,"self":933,"Ġnight":934,"ese":935,"Ġdiffe":936,"Ġbu":937,"Ġmoney":938,"if":939,"izz":940,"Ġsame":941,"Ġput":942,"Ġpretty":943,"Ġmanag":944,"Ġlet":945,"Ġcut":946,"Ġemp":947,"ger":948,"Ġsomething":949,"Ġwr":950,"Ġneeded":951,"Ġadd":952,"the":953,"Ġold":954,"Ġmay":955,"Ġpar":956,"Ġthese":957,"uct":958,"Ġopen":959,"Ġquick":960,"Ġappointment":961,"Ġent":962,"Ġpizz":963,"app":964,"oy":965,"Ġsha":966,"Ġuse":967,"Ġhand":968,"ount":969,"Ġelse":970,"Ġspeci":971,"Ġreg":972,"Ġoffice":973,"Ġprices":974,"ss":975,"Ġaway":976,"Ġmen":977,"Ġowner":978,"Ġhappy":979,"ame":980,"Ġquality":981,"ouse":982,"Ġphone":983,"Ġsl":984,"cha":985,"avor":986,"unch":987,"Ġreturn":988,"rible":989,"Ġthings":990,"Ġcomple":991,"ans":992,"cess":993,"ire":994,"pped":995,"Ġboth":996,"ided":997,"Ġkind":998,"Ġfamily":999,"Ġfres":1000,"Ġgl":1001,"Ġcheck":1002,"ap":1003,"ise":1004,"Ġhar":1005,"Ġproble":1006,"Ġhelpful":1007,"Ġpizza":1008,"fort":1009,"Ġtreat":1010,"Ġweek":1011,"Ġdifferent":1012,"Ġbig":1013,"ves":1014,"Ġmar":1015,"iss":1016,"Ġgave":1017,"Ġfresh":1018,"Ġla":1019,"Ġgu":1020,"ner":1021,"Ġfix":1022,"Ġiss":1023,"esome":1024,"Ġbuy":1025,"for":1026,"Ġbit":1027,"Ġtal":1028,"Ġgetting":1029,"ild":1030,"Ġcho":1031,"ash":1032,"Ġmanager":1033,"ert":1034,"Ġcons":1035,"icious":1036,"Ġnothing":1037,"Ġfo":1038,"Ġperfe":1039,"Ġpur":1040,"Ġused":1041,"Ġtried":1042,"Ġveg":1043,"Ġrec":1044,"Ġsur":1045,"Ġthough":1046,"Ġexpect":1047,"Ġanything":1048,"ary":1049,"Ġdays":1050,"sol":1051,"llent":1052,"Ġhouse":1053,"Ġyear":1054,"Ġgre":1055,"uck":1056,"Ġsat":1057,"Ġthank":1058,"Ġenough":1059,"Ġfree":1060,"up":1061,"Ġdisapp":1062,"ute":1063,"Ġsec":1064,"Ġawesome":1065,"uce":1066,"Ġwhy":1067,"Ġeat":1068,"Ġite":1069,"Ġdelicious":1070,"Ġanyone":1071,"Ġsho":1072,"Ġdog":1073,"aint":1074,"io":1075,"Ġthing":1076,"Ġav":1077,"joy":1078,"ne":1079,"reme":1080,"Ġbur":1081,"Ġperfect":1082,"Ġfront":1083,"Ġenjoy":1084,"Ġmenu":1085,"ub":1086,"ately":1087,"Ġable":1088,"ush":1089,"Ġsele":1090,"Ġhours":1091,"Ġeas":1092,"Ġsomeone":1093,"Ġrecei":1094,"iced":1095,"pon":1096,"ens":1097,"Ġcour":1098,"Ġemplo":1099,"arly":1100,"my":1101,"Ġrun":1102,"Ġcor":1103,"Ġhard":1104,"Ġworth":1105,"Ġfun":1106,"Ġeveryone":1107,"Ġask":1108,"Ġap":1109,"ged":1110,"Ġfull":1111,"Ġpic":1112,"Ġim":1113,"Ġopt":1114,"Ġrude":1115,"Ġwithout":1116,"Ġkid":1117,"less":1118,"Ġdin":1119,"Ġonce":1120,"Ġkeep":1121,"Ġlater":1122,"Ġste":1123,"Ġactually":1124,"Ġbas":1125,"Ġprod":1126,"Ġexcellent":1127,"ook":1128,"Ġspecial":1129,"Ġworking":1130,"Ġreal":1131,"where":1132,"ier":1133,"Ġextreme":1134,"Ġter":1135,"ably":1136,"Ġpurcha":1137,"Ġass":1138,"Ġok":1139,"Ġemploye":1140,"Ġstay":1141,"uc":1142,"ations":1143,"Ġfar":1144,"Ġhaving":1145,"onder":1146,"ren":1147,"Ġpick":1148,"Ġdisappoint":1149,"Ġplac":1150,"vers":1151,"Ġgr":1152,"Ġits":1153,"Ġstar":1154,"Ġhowever":1155,"Ġclass":1156,"solute":1157,"Ġsand":1158,"Ġexpl":1159,"Ġpast":1160,"ible":1161,"Ġtop":1162,"Ġrel":1163,"ord":1164,"Ġextremely":1165,"Ġpleas":1166,"Ġstars":1167,"Ġem":1168,"Ġthought":1169,"Ġswe":1170,"ical":1171,"Ġtoday":1172,"Ġwonder":1173,"Ġcoming":1174,"room":1175,"Ġset":1176,"Ġless":1177,"Ġsuch":1178,"ention":1179,"Ġknowled":1180,"Ġcompl":1181,"Ġquest":1182,"sed":1183,"ails":1184,"Ġcre":1185,"Ġhon":1186,"Ġsk":1187,"stand":1188,"Ġeach":1189,"Ġsupp":1190,"pr":1191,"ott":1192,"ues":1193,"Ġproblem":1194,"Ġcost":1195,"Ġside":1196,"Ġdoing":1197,"Ġwar":1198,"Ġsim":1199,"Ġcheese":1200,"Ġguys":1201,"uring":1202,"uff":1203,"Ġwater":1204,"ose":1205,"Ġsever":1206,"Ġpoint":1207,"Ġcra":1208,"Ġfriends":1209,"Ġes":1210,"Ġlooked":1211,"ia":1212,"Ġselection":1213,"ize":1214,"Ġabsolute":1215,"Ġsty":1216,"Ġmonths":1217,"Ġseveral":1218,"Ġcomplete":1219,"Ġunt":1220,"Ġsandw":1221,"Ġmat":1222,"Ġcoffe":1223,"bs":1224,"ced":1225,"Ġdecided":1226,"Ġcustomers":1227,"Ġcomm":1228,"Ġgir":1229,"Ġarri":1230,"Ġbel":1231,"ized":1232,"ied":1233,"Ġlar":1234,"Ġproduct":1235,"Ġprov":1236,"most":1237,"pping":1238,"Ġlunch":1239,"get":1240,"Ġmeal":1241,"ken":1242,"Ġdoor":1243,"Ġcoffee":1244,"Ġwo":1245,"Ġitems":1246,"Ġmed":1247,"Ġturn":1248,"Ġneeds":1249,"ces":1250,"dy":1251,"Ġuntil":1252,"Ġfel":1253,"Ġsign":1254,"Ġsauce":1255,"aut":1256,"Ġexplain":1257,"Ġwaiting":1258,"ular":1259,"astic":1260,"Ġlist":1261,"sw":1262,"Ġfast":1263,"Ġet":1264,"ward":1265,"Ġfelt":1266,"Ġsou":1267,"Ġknowledge":1268,"ps":1269,"Ġsalad":1270,"Ġest":1271,"ooked":1272,"ently":1273,"Ġfinally":1274,"Ġsecond":1275,"Ġhalf":1276,"Ġcouple":1277,"Ġansw":1278,"Ġhor":1279,"Ġpol":1280,"Ġtrying":1281,"band":1282,"Ġhus":1283,"ib":1284,"Ġbreak":1285,"Ġweeks":1286,"Ġreviews":1287,"Ġda":1288,"Ġdisc":1289,"Ġsit":1290,"Ġhonest":1291,"Ġcard":1292,"Ġalmost":1293,"Ġline":1294,"Ġsto":1295,"Ġdeli":1296,"Ġhusband":1297,"Ġsweet":1298,"Ġtable":1299,"Ġrepl":1300,"Ġduring":1301,"ial":1302,"Ġreceived":1303,"Ġgrou":1304,"Ġind":1305,"Ġhu":1306,"ition":1307,"inks":1308,"Ġbeaut":1309,"Ġnor":1310,"ork":1311,"Ġplaces":1312,"Ġty":1313,"Ġfavor":1314,"ised":1315,"Ġwrong":1316,"Ġwonderful":1317,"Ġkids":1318,"Ġwalked":1319,"ments":1320,"Ġspot":1321,"Ġinfor":1322,"Ġmeat":1323,"Ġpaid":1324,"ather":1325,"Ġgen":1326,"Ġdoct":1327,"Ġcol":1328,"ual":1329,"llow":1330,"Ġwalk":1331,"ative":1332,"Ġstarted":1333,"Ġacc":1334,"Ġdrive":1335,"rect":1336,"de":1337,"Ġwhole":1338,"Ġago":1339,"vent":1340,"Ġpatient":1341,"Ġextra":1342,"ates":1343,"Ġabsolutely":1344,"iet":1345,"Ġgirl":1346,"Ġnum":1347,"Ġtot":1348,"Ġvegas":1349,"side":1350,"Ġdent":1351,"Ġleave":1352,"Ġmass":1353,"Ġthanks":1354,"Ġprom":1355,"Ġquite":1356,"Ġoffer":1357,"Ġdisappointed":1358,"Ġrepair":1359,"Ġclose":1360,"ew":1361,"Ġeasy":1362,"Ġleast":1363,"Ġname":1364,"Ġtown":1365,"Ġsched":1366,"ressed":1367,"Ġbusy":1368,"Ġoverall":1369,"gin":1370,"cer":1371,"ons":1372,"Ġwi":1373,"Ġfill":1374,"Ġbat":1375,"Ġworst":1376,"bo":1377,"Ġwed":1378,"Ġprob":1379,"Ġthose":1380,"Ġstand":1381,"vious":1382,"Ġstuff":1383,"Ġtaste":1384,"Ġincl":1385,"ten":1386,"ically":1387,"ffic":1388,"Ġpie":1389,"ets":1390,"Ġexc":1391,"Ġlarge":1392,"Ġrequ":1393,"Ġpri":1394,"Ġpain":1395,"Ġpm":1396,"sive":1397,"Ġcomfort":1398,"iful":1399,"rand":1400,"ng":1401,"Ġprobably":1402,"Ġadv":1403,"Ġdrinks":1404,"Ġlady":1405,"Ġaut":1406,"ugh":1407,"Ġyes":1408,"Ġstop":1409,"Ġmor":1410,"Ġinside":1411,"Ġbill":1412,"Ġlife":1413,"Ġplay":1414,"ding":1415,"sp":1416,"Ġproper":1417,"em":1418,"Ġmaking":1419,"que":1420,"Ġcharge":1421,"hen":1422,"ead":1423,"ready":1424,"Ġunderstand":1425,"Ġbring":1426,"Ġalready":1427,"Ġmakes":1428,"Ġdrink":1429,"vel":1430,"Ġlive":1431,"Ġprocess":1432,"ru":1433,"Ġhappen":1434,"Ġinstead":1435,"Ġreasonable":1436,"Ġport":1437,"Ġmaybe":1438,"ired":1439,"way":1440,"cially":1441,"Ġrent":1442,"Ġtech":1443,"Ġusually":1444,"Ġsmo":1445,"Ġflo":1446,"ited":1447,"ef":1448,"no":1449,"Ġemployees":1450,"ross":1451,"und":1452,"antastic":1453,"Ġdro":1454,"line":1455,"Ġconf":1456,"Ġquestions":1457,"ared":1458,"great":1459,"Ġespe":1460,"Ġshort":1461,"ness":1462,"icy":1463,"Ġheal":1464,"Ġmiss":1465,"ither":1466,"Ġespecially":1467,"cked":1468,"og":1469,"Ġmess":1470,"Ġsalon":1471,"ted":1472,"Ġlight":1473,"Ġsurpr":1474,"ato":1475,"rap":1476,"Ġdet":1477,"Ġlocal":1478,"lled":1479,"Ġfair":1480,"Ġbeautiful":1481,"Ġhelped":1482,"mm":1483,"Ġhuge":1484,"ures":1485,"ory":1486,"Ġmust":1487,"Ġchange":1488,"Ġplan":1489,"Ġpack":1490,"Ġmus":1491,"Ġbought":1492,"Ġwom":1493,"Ġcur":1494,"Ġfact":1495,"Ġknowledgeable":1496,"ts":1497,"gan":1498,"Ġinstall":1499,"ract":1500,"Ġsandwich":1501,"Ġwife":1502,"Ġissue":1503,"Ġentire":1504,"Ġdinner":1505,"mosp":1506,"Ġcontact":1507,"Ġcream":1508,"Ġissues":1509,"Ġmem":1510,"Ġinter":1511,"Ġatmosp":1512,"Ġsales":1513,"Ġmyself":1514,"ents":1515,"Ġcash":1516,"ned":1517,"Ġfries":1518,"atch":1519,"Ġfollow":1520,"Ġfac":1521,"Ġatmosphere":1522,"Ġfantastic":1523,"ike":1524,"Ġread":1525,"Ġhorrible":1526,"Ġplus":1527,"Ġsaw":1528,"Ġhead":1529,"Ġseen":1530,"rought":1531,"Ġservices":1532,"Ġworked":1533,"Ġstre":1534,"Ġinclud":1535,"Ġchild":1536,"Ġloved":1537,"Ġfavorite":1538,"Ġwind":1539,"Ġvar":1540,"Ġcal":1541,"Ġsell":1542,"fast":1543,"ider":1544,"Ġpot":1545,"Ġstud":1546,"ility":1547,"Ġmet":1548,"Ġdry":1549,"Ġsch":1550,"Ġpass":1551,"Ġdoctor":1552,"Ġseemed":1553,"Ġbrought":1554,"ron":1555,"Ġoptions":1556,"Ġyet":1557,"Ġpres":1558,"Ġbelie":1559,"lle":1560,"Ġwithin":1561,"ote":1562,"Ġteam":1563,"Ġexact":1564,"Ġinte":1565,"cy":1566,"Ġsub":1567,"Ġcompletely":1568,"Ġarrived":1569,"Ġcool":1570,"ys":1571,"Ġbro":1572,"Ġoutside":1573,"Ġrice":1574,"Ġpool":1575,"Ġsy":1576,"Ġban":1577,"Ġstr":1578,"Ġson":1579,"Ġmom":1580,"Ġtaking":1581,"Ġlow":1582,"ughter":1583,"Ġmorning":1584,"nter":1585,"Ġbreakfast":1586,"Ġmoved":1587,"Ġcomfortable":1588,"Ġhotel":1589,"Ġlooks":1590,"Ġapart":1591,"iv":1592,"Ġlas":1593,"Ġgiven":1594,"Ġcommun":1595,"Ġlate":1596,"pensive":1597,"hip":1598,"not":1599,"Ġair":1600,"Ġkept":1601,"Ġeither":1602,"Ġparking":1603,"gr":1604,"Ġrecommended":1605,"Ġhealth":1606,"Ġavail":1607,"Ġdaughter":1608,"Ġquickly":1609,"urance":1610,"used":1611,"rest":1612,"its":1613,"Ġpoor":1614,"Ġmanage":1615,"row":1616,"Ġevent":1617,"Ġmassage":1618,"Ġmove":1619,"Ġsw":1620,"man":1621,"ove":1622,"ption":1623,"Ġgener":1624,"Ġflavor":1625,"ny":1626,"Ġdress":1627,"ump":1628,"Ġcontin":1629,"Ġwaited":1630,"Ġbread":1631,"Ġready":1632,"Ġnails":1633,"Ġroll":1634,"uly":1635,"Ġcheap":1636,"Ġcomes":1637,"Ġice":1638,"Ġgar":1639,"Ġinsurance":1640,"Ġflav":1641,"Ġetc":1642,"Ġtrain":1643,"bb":1644,"Ġrespon":1645,"Ġsoon":1646,"Ġwedding":1647,"Ġran":1648,"Ġwish":1649,"Ġdue":1650,"Ġcourse":1651,"Ġhope":1652,"Ġsent":1653,"itc":1654,"Ġfine":1655,"Ġended":1656,"Ġknew":1657,"Ġterrible":1658,"Ġcond":1659,"Ġshowed":1660,"Ġcent":1661,"log":1662,"Ġoh":1663,"Ġphot":1664,"ured":1665,"Ġschool":1666,"Ġbelieve":1667,"Ġwel":1668,"ling":1669,"Ġmention":1670,"Ġbed":1671,"Ġonline":1672,"Ġnumber":1673,"Ġseems":1674,"Ġburger":1675,"Ġsugg":1676,"sing":1677,"Ġart":1678,"Ġsuggest":1679,"Ġinform":1680,"Ġred":1681,"Ġcold":1682,"Ġdecent":1683,"Ġyel":1684,"Ġmind":1685,"Ġtaken":1686,"ket":1687,"Ġamount":1688,"ax":1689,"Ġob":1690,"cks":1691,"cc":1692,"Ġavailable":1693,"Ġcounter":1694,"ertain":1695,"Ġseem":1696,"Ġoffered":1697,"Ġclient":1698,"Ġsize":1699,"Ġyelp":1700,"Ġtasty":1701,"Ġtrust":1702,"Ġbox":1703,"Ġglass":1704,"Ġce":1705,"Ġmusic":1706,"Ġnear":1707,"ule":1708,"Ġpleasant":1709,"Ġgy":1710,"Ġrecently":1711,"Ġmight":1712,"ale":1713,"Ġval":1714,"Ġaccom":1715,"Ġsaying":1716,"nday":1717,"Ġbeer":1718,"Ġincred":1719,"Ġpict":1720,"Ġlots":1721,"ique":1722,"Ġguess":1723,"ug":1724,"Ġdep":1725,"medi":1726,"Ġfloor":1727,"mod":1728,"Ġresult":1729,"Ġdelivery":1730,"Ġgone":1731,"Ġdoll":1732,"Ġbeef":1733,"Ġinterest":1734,"Ġsoup":1735,"Ġregular":1736,"Ġfixed":1737,"Ġmanagement":1738,"Ġimpressed":1739,"Ġexpensive":1740,"sit":1741,"Ġcred":1742,"Ġwindow":1743,"Ġusing":1744,"Ġinv":1745,"Ġtalk":1746,"Ġneigh":1747,"ake":1748,"Ġappre":1749,"Ġpost":1750,"Ġbuild":1751,"lic":1752,"Ġneighb":1753,"Ġrequest":1754,"Ġplease":1755,"Ġimmedi":1756,"ns":1757,"Ġ+":1758,"Ġglad":1759,"Ġproducts":1760,"bles":1761,"hic":1762,"iter":1763,"Ġtrans":1764,"Ġbott":1765,"Ġdish":1766,"ines":1767,"ulous":1768,"isf":1769,"Ġposs":1770,"Ġbeh":1771,"Ġemail":1772,"itting":1773,"bers":1774,"Ġfit":1775,"Ġdam":1776,"Ġcleaning":1777,"ides":1778,"cept":1779,"Ġpurchase":1780,"Ġeye":1781,"ched":1782,"Ġspend":1783,"Ġtea":1784,"Ġscre":1785,"Ġstreet":1786,"Ġexactly":1787,"Ġtwice":1788,"Ġfried":1789,"though":1790,"aw":1791,"Ġparty":1792,"riend":1793,"Ġappreci":1794,"Ġfan":1795,"Ġanswer":1796,"Ġserver":1797,"Ġcolor":1798,"Ġfish":1799,"ully":1800,"ges":1801,"Ġed":1802,"Ġcharged":1803,"Ġspr":1804,"Ġtruly":1805,"erv":1806,"Ġexplained":1807,"yond":1808,"Ġrem":1809,"Ġori":1810,"Ġspo":1811,"Ġstyle":1812,"Ġwall":1813,"Ġcredit":1814,"Ġbeyond":1815,"Ġgroup":1816,"Ġconsider":1817,"Ġbehind":1818,"osed":1819,"Ġlack":1820,"Ġwaitress":1821,"ished":1822,"Ġegg":1823,"Ġide":1824,"Ġmid":1825,"Ġdentist":1826,"Ġowners":1827,"Ġothers":1828,"Ġavo":1829,"Ġalthough":1830,"Ġfrid":1831,"Ġmil":1832,"als":1833,"Ġgri":1834,"Ġserious":1835,"Ġimmediately":1836,"Ġlear":1837,"Ġear":1838,"Ġprep":1839,"ican":1840,"Ġsush":1841,"Ġdecor":1842,"Ġslow":1843,"ĠĠĊ":1844,"ah":1845,"fortun":1846,"Ġtac":1847,"Ġtasted":1848,"Ġbath":1849,"mon":1850,"Ġvehic":1851,"Ġgreet":1852,"Ġenjoyed":1853,"Ġgra":1854,"Ġlonger":1855,"Ġoften":1856,"Ġpriced":1857,"Ġsatur":1858,"Ġsushi":1859,"Ġwatch":1860,"Ġtakes":1861,"Ġlea":1862,"Ġstra":1863,"Ġrefund":1864,"Ġpho":1865,"Ġped":1866,"mber":1867,"Ġthin":1868,"ging":1869,"Ġwarm":1870,"Ġexp":1871,"Ġdou":1872,"Ġabove":1873,"ages":1874,"kend":1875,"ird":1876,"Ġdir":1877,"come":1878,"Ġwoman":1879,"iety":1880,"Ġweekend":1881,"Ġtrip":1882,"Ġint":1883,"Ġfut":1884,"Ġsn":1885,"Ġconcer":1886,"Ġearly":1887,"Ġclosed":1888,"co":1889,"Ġoil":1890,"Ġsatisf":1891,"Ġlou":1892,"Ġtables":1893,"Ġdesk":1894,"Ġrelax":1895,"ames":1896,"ween":1897,"Ġpurchased":1898,"ister":1899,"cri":1900,"Ġbrand":1901,"ence":1902,"Ġserved":1903,"Ġbetween":1904,"Ġdishes":1905,"col":1906,"Ġunfortun":1907,"Ġgets":1908,"Ġface":1909,"lish":1910,"Ġluck":1911,"ĠĠĠĠĠĠĠĠ":1912,"ats":1913,"Ġhands":1914,"Ġrather":1915,"Ġfuture":1916,"Ġchin":1917,"erg":1918,"Ġpull":1919,"Ġeng":1920,"Ġbag":1921,"Ġconven":1922,"Ġattit":1923,"ibly":1924,"Ġcup":1925,"Ġappro":1926,"Ġtom":1927,"ident":1928,"pro":1929,"ics":1930,"Ġgiving":1931,"cut":1932,"Ġcity":1933,"Ġlevel":1934,"list":1935,"Ġclot":1936,"Ġsays":1937,"Ġstopped":1938,"Ġkitc":1939,"ung":1940,"Ġkitchen":1941,"Ġspent":1942,"Ġchoo":1943,"ior":1944,"Ġreme":1945,"Ġmach":1946,"Ġacross":1947,"do":1948,"Ġforward":1949,"Ġpark":1950,"Ġtruck":1951,"Ġheard":1952,"Ġtyp":1953,"Ġnorm":1954,"Ġsol":1955,"Ġmeet":1956,"Ġpaying":1957,"Ġhold":1958,"Ġhear":1959,"Ġsaturday":1960,"Ġspeak":1961,"Ġcase":1962,"Ġcooked":1963,"Ġfil":1964,"Ġeating":1965,"Ġchip":1966,"Ġspace":1967,"ities":1968,"Ġdan":1969,"Ġmaint":1970,"Ġtou":1971,"Ġrid":1972,"na":1973,"Ġpersonal":1974,"Ġcook":1975,"Ġremo":1976,"Ġneg":1977,"Ġpract":1978,"olog":1979,"Ġliter":1980,"Ġturned":1981,"Ġmult":1982,"Ġsme":1983,"Ġschedul":1984,"Ġsimple":1985,"Ġaccommod":1986,"Ġprevious":1987,"Ġboy":1988,"Ġcorrect":1989,"Ġmain":1990,"antly":1991,"Ġminute":1992,"Ġcannot":1993,"Ġcertain":1994,"Ġmod":1995,"ls":1996,"ense":1997,"Ġsyst":1998,"Ġje":1999,"ender":2000,"ark":2001,"Ġdogs":2002,"Ġalong":2003,"Ġtotally":2004,"Ġaff":2005,"Ġdesign":2006,"verage":2007,"Ġorigin":2008,"Ġhappened":2009,"Ġnail":2010,"Ġworks":2011,"Ġequ":2012,"Ġattention":2013,"Ġword":2014,"zy":2015,"Ġimport":2016,"Ġshopping":2017,"ants":2018,"Ġsing":2019,"ician":2020,"Ġchocol":2021,"Ġsend":2022,"Ġwine":2023,"Ġfa":2024,"Ġassist":2025,"Ġsitu":2026,"Ġmist":2027,"ication":2028,"Ġtalking":2029,"Ġvariety":2030,"Ġcomplaint":2031,"Ġasking":2032,"Ġemployee":2033,"Ġtype":2034,"Ġwings":2035,"Ġreplace":2036,"owd":2037,"ery":2038,"Ġliterally":2039,"Ġyourself":2040,"je":2041,"Ġattitude":2042,"Ġproblems":2043,"Ġrefer":2044,"Ġmean":2045,"Ġtreated":2046,"fully":2047,"orough":2048,"Ġknows":2049,"itional":2050,"Ġexcept":2051,"Ġz":2052,"Ġallow":2053,"Ġdetail":2054,"Ġdon":2055,"Ġpet":2056,"Ġbow":2057,"Ġmix":2058,"Ġschedule":2059,"Ġocc":2060,"Ġokay":2061,"Ġbir":2062,"Ġcalls":2063,"ime":2064,"Ġele":2065,"gn":2066,"Ġanywhere":2067,"Ġups":2068,"coming":2069,"Ġrestaurants":2070,"Ġdess":2071,"Ġchoice":2072,"Ġchr":2073,"Ġann":2074,"Ġpan":2075,"rently":2076,"ex":2077,"Ġdessert":2078,"Ġnoticed":2079,"ange":2080,"Ġcance":2081,"Ġlisten":2082,"Ġunfortunately":2083,"Ġwalking":2084,"Ġtest":2085,"Ġgym":2086,"ills":2087,"ruct":2088,"Ġupd":2089,"Ġpicked":2090,"Ġcake":2091,"Ġchanged":2092,"Ġorgan":2093,"imes":2094,"Ġcreat":2095,"Ġspicy":2096,"Ġsor":2097,"ins":2098,"ience":2099,"Ġtechn":2100,"Ġwebs":2101,"Ġpork":2102,"entive":2103,"Ġopened":2104,"Ġfig":2105,"just":2106,"gether":2107,"Ġpaper":2108,"ined":2109,"Ġsystem":2110,"Ġbook":2111,"Ġtotal":2112,"Ġsteak":2113,"Ġliked":2114,"Ġju":2115,"Ġcontract":2116,"Ġfre":2117,"Ġtreatment":2118,"Ġmoving":2119,"Ġcount":2120,"Ġvehicle":2121,"Ġsitting":2122,"Ġstep":2123,"fficient":2124,"icure":2125,"dd":2126,"arch":2127,"rit":2128,"iple":2129,"Ġstores":2130,"Ġfeeling":2131,"enty":2132,"bur":2133,"hood":2134,"Ġgoes":2135,"Ġinformation":2136,"Ġapartment":2137,"Ġthorough":2138,"icing":2139,"Ġpartic":2140,"Ġcolle":2141,"Ġones":2142,"Ġpotato":2143,"Ġrunning":2144,"Ġupon":2145,"Ġmultiple":2146,"professional":2147,"Ġobvious":2148,"Ġsometimes":2149,"Ġchair":2150,"Ġwash":2151,"Ġdirty":2152,"Ġreplac":2153,"Ġfriday":2154,"Ġblack":2155,"Ġchoose":2156,"Ġsumm":2157,"Ġchocolate":2158,"Ġgreen":2159,"by":2160,"Ġbased":2161,"Ġafford":2162,"Ġyoung":2163,"Ġincluding":2164,"Ġbathroom":2165,"Ġtre":2166,"Ġcomplain":2167,"ters":2168,"Ġsituation":2169,"Ġchecked":2170,"Ġbri":2171,"Ġmic":2172,"Ġstri":2173,"Ġwebsite":2174,"friend":2175,"Ġwaste":2176,"Ġblo":2177,"Ġdate":2178,"Ġsupport":2179,"go":2180,"Ġwhite":2181,"ply":2182,"Ġtogether":2183,"ots":2184,"Ġresults":2185,"Ġprovided":2186,"pper":2187,"Ġidea":2188,"fer":2189,"Ġbuying":2190,"Ġtext":2191,"Ġavoid":2192,"ret":2193,"Ġproperty":2194,"Ġbuilding":2195,"Ġfurn":2196,"Ġsurprised":2197,"iting":2198,"Ġattentive":2199,"Ġunprofessional":2200,"Ġexpected":2201,"Ġpossible":2202,"Ġstate":2203,"Ġnon":2204,"att":2205,"Ġsorry":2206,"Ġpleased":2207,"Ġton":2208,"pet":2209,"Ġinstruct":2210,"Ġsad":2211,"Ġspoke":2212,"ject":2213,"Ġx":2214,"Ġaccount":2215,"Ġdirect":2216,"Ġsupposed":2217,"Ġcla":2218,"Ġskin":2219,"rant":2220,"Ġlost":2221,"Ġcenter":2222,"Ġbirth":2223,"Ġapolog":2224,"Ġbody":2225,"Ġclub":2226,"Ġpop":2227,"ĠĠĠĠĠ":2228,"Ġclear":2229,"umb":2230,"Ġchildren":2231,"body":2232,"Ġop":2233,"Ġsimply":2234,"Ġclasses":2235,"Ġexam":2236,"Ġbab":2237,"Ġbegin":2238,"Ġconsist":2239,"lves":2240,"Ġclearly":2241,"Ġstylist":2242,"Ġefficient":2243,"ored":2244,"Ġchinese":2245,"Ġremember":2246,"Ġprompt":2247,"ses":2248,"Ġgift":2249,"Ġconvenient":2250,"ey":2251,"Ġspecif":2252,"Ġpieces":2253,"Ġshri":2254,"Ġcompet":2255,"Ġitself":2256,"Ġmarket":2257,"Ġoption":2258,"Ġprior":2259,"Ġposit":2260,"Ġseason":2261,"Ġseriously":2262,"ivered":2263,"Ġleg":2264,"Ġpaint":2265,"Ġsave":2266,"Ġcalling":2267,"Ġveget":2268,"Ġtoron":2269,"ppy":2270,"Ġtoronto":2271,"Ġshrimp":2272,"let":2273,"Ġpictures":2274,"Ġdelivered":2275,"head":2276,"Ġyum":2277,"Ġplenty":2278,"Ġneighbor":2279,"rence":2280,"Ġcas":2281,"Ġsound":2282,"Ġten":2283,"Ġnood":2284,"Ġliving":2285,"ler":2286,"Ġpiece":2287,"Ġtan":2288,"Ġquestion":2289,"Ġdollars":2290,"Ġserve":2291,"Ġtrue":2292,"Ġnat":2293,"Ġattend":2294,"Ġdiscount":2295,"Ġhaircut":2296,"Ġcleaned":2297,"Ġgreeted":2298,"Ġworld":2299,"ium":2300,"Ġperfectly":2301,"Ġleaving":2302,"Ġcrowd":2303,"Ġvo":2304,"Ġboo":2305,"Ġhung":2306,"Ġteac":2307,"Ġer":2308,"Ġinf":2309,"Ġprovide":2310,"Ġconst":2311,"Ġhit":2312,"Ġtow":2313,"cking":2314,"Ġdist":2315,"Ġportions":2316,"Ġtouch":2317,"Ġappet":2318,"ma":2319,"Ġlocated":2320,"iculous":2321,"Ġhonestly":2322,"Ġappe":2323,"Ġordering":2324,"Ġsmooth":2325,"Ġseeing":2326,"Ġtip":2327,"Ġresponse":2328,"Ġplate":2329,"imate":2330,"Ġsingle":2331,"Ġbud":2332,"Ġstick":2333,"Ġwilling":2334,"els":2335,"Ġfee":2336,"Ġsmell":2337,"ict":2338,"ries":2339,"ada":2340,"gers":2341,"Ġclaim":2342,"Ġbuff":2343,"Ġmembers":2344,"br":2345,"Ġgroupon":2346,"Ġbart":2347,"Ġwarrant":2348,"Ġvalue":2349,"ented":2350,"Ġaverage":2351,"Ġsale":2352,"Ġgent":2353,"Ġfinished":2354,"Ġsunday":2355,"Ġreturned":2356,"Ġsummer":2357,"Ġanswered":2358,"li":2359,"wor":2360,"ency":2361,"Ġlaw":2362,"Ġitem":2363,"Ġevening":2364,"iches":2365,"Ġelsewhere":2366,"Ġhang":2367,"Ġmas":2368,"Ġyog":2369,"Ġbra":2370,"Ġhum":2371,"port":2372,"pond":2373,"Ġcris":2374,"Ġben":2375,"Ġphoen":2376,"Ġgame":2377,"Ġenc":2378,"Ġhop":2379,"Ġflow":2380,"Ġreception":2381,"Ġmis":2382,"Ġenv":2383,"Ġfore":2384,"Ġcontinue":2385,"orn":2386,"ware":2387,"arely":2388,"Ġbac":2389,"ming":2390,"Ġpositive":2391,"Ġstandard":2392,"Ġrooms":2393,"Ġphoenix":2394,"Ġnotice":2395,"Ġorders":2396,"Ġmatter":2397,"Ġcars":2398,"Ġappa":2399,"Ġexcited":2400,"Ġparts":2401,"Ġsandwiches":2402,"chan":2403,"izer":2404,"Ġreplaced":2405,"Ġconvers":2406,"Ġflavour":2407,"Ġunique":2408,"Ġvac":2409,"het":2410,"Ġimpro":2411,"Ġmall":2412,"Ġhelping":2413,"Ġfacility":2414,"Ġclients":2415,"Ġgirls":2416,"Ġbasically":2417,"Ġbroken":2418,"ison":2419,"Ġheart":2420,"Ġbirthday":2421,"Ġunless":2422,"Ġaccept":2423,"iture":2424,"Ġopin":2425,"Ġfro":2426,"Ġwrite":2427,"Ġunit":2428,"Ġwelcoming":2429,"ina":2430,"Ġfinish":2431,"Ġbank":2432,"Ġworse":2433,"Ġgentle":2434,"wards":2435,"Ġscheduled":2436,"zen":2437,"Ġrespect":2438,"Ġportion":2439,"Ġtv":2440,"Ġtelling":2441,"Ġgas":2442,"dle":2443,"Ġinformed":2444,"Ġtha":2445,"Ġawful":2446,"aking":2447,"Ġpricing":2448,"Ġincredibly":2449,"Ġrespond":2450,"Ġpress":2451,"Ġguest":2452,"Ġdiffic":2453,"Ġshoes":2454,"Ġtrave":2455,"Ġmins":2456,"Ġnegative":2457,"ued":2458,"Ġregard":2459,"Ġfurniture":2460,"mer":2461,"Ġcute":2462,"Ġtour":2463,"Ġdra":2464,"Ġchance":2465,"af":2466,"Ġscott":2467,"work":2468,"Ġfur":2469,"Ġcrisp":2470,"Ġing":2471,"Ġquote":2472,"Ġmother":2473,"eth":2474,"Ġtax":2475,"Ġdining":2476,"ists":2477,"Ġstraight":2478,"Ġsomewhere":2479,"standing":2480,"ph":2481,"pit":2482,"Ġpolite":2483,"Ġfab":2484,"Ġwin":2485,"Ġempty":2486,"Ġlad":2487,"sh":2488,"Ġcondition":2489,"Ġexperienced":2490,"Ġmachine":2491,"Ġinit":2492,"Ġdental":2493,"Ġroad":2494,"ator":2495,"Ġreturning":2496,"Ġdow":2497,"selves":2498,"irm":2499,"ches":2500,"ipment":2501,"Ġlim":2502,"ried":2503,"Ġclothes":2504,"Ġball":2505,"cial":2506,"Ġprepared":2507,"Ġdownt":2508,"Ġsatisfied":2509,"temp":2510,"Ġfoot":2511,"Ġreceive":2512,"aged":2513,"Ġstrong":2514,"gar":2515,"Ġmistake":2516,"Ġver":2517,"Ġclos":2518,"Ġaffordable":2519,"Ġforg":2520,"Ġwarranty":2521,"Ġappreciate":2522,"Ġsoft":2523,"Ġmail":2524,"Ġmex":2525,"Ġbb":2526,"Ġtherap":2527,"cing":2528,"Ġcat":2529,"Ġestab":2530,"ision":2531,"more":2532,"Ġchips":2533,"Ġinspect":2534,"Ġtacos":2535,"ux":2536,"Ġdowntown":2537,"Ġoccas":2538,"Ġrolls":2539,"oof":2540,"Ġmont":2541,"tern":2542,"ucks":2543,"Ġgotten":2544,"love":2545,"Ġenvir":2546,"Ġridiculous":2547,"Ġimportant":2548,"Ġba":2549,"Ġloud":2550,"what":2551,"ster":2552,"Ġappetizer":2553,"Ġafterno":2554,"Ġopinion":2555,"Ġid":2556,"Ġpair":2557,"Ġcoupon":2558,"Ġfilled":2559,"Ġque":2560,"teous":2561,"hent":2562,"Ġaddition":2563,"Ġobviously":2564,"Ġey":2565,"Ġrefused":2566,"Ġapparently":2567,"urt":2568,"Ġamb":2569,"ushed":2570,"Ġmac":2571,"Ġmainten":2572,"Ġenviron":2573,"Ġhig":2574,"Ġsmile":2575,"real":2576,"Ġtraining":2577,"Ġcharl":2578,"Ġsold":2579,"Ġoriginal":2580,"Ġaccess":2581,"Ġfall":2582,"Ġhos":2583,"ane":2584,"Ġvegg":2585,"Ġsafe":2586,"Ġvisiting":2587,"Ġgrand":2588,"Ġmechan":2589,"Ġmine":2590,"Ġmot":2591,"Ġdifficult":2592,"Ġanyway":2593,"Ġaccommodating":2594,"val":2595,"har":2596,"ino":2597,"Ġafternoon":2598,"Ġcourteous":2599,"Ġhost":2600,"Ġlab":2601,"sa":2602,"Ġahead":2603,"Ġquot":2604,"Ġwhatever":2605,"ield":2606,"Ġauto":2607,"hentic":2608,"ho":2609,"Ġbon":2610,"Ġneighborhood":2611,"Ġmaintenance":2612,"Ġchef":2613,"Ġwear":2614,"Ġnone":2615,"Ġthroughout":2616,"Ġadded":2617,"Ġenvironment":2618,"Ġnote":2619,"Ġequipment":2620,"cle":2621,"amed":2622,"Ġingred":2623,"ee":2624,"action":2625,"Ġshir":2626,"Ġphotos":2627,"Ġign":2628,"Ġingredient":2629,"uit":2630,"lt":2631,"Ġbaby":2632,"Ġrate":2633,"Ġspa":2634,"Ġboyfriend":2635,"Ġlived":2636,"Ġvisited":2637,"Ġladies":2638,"Ġbbq":2639,"Ġsle":2640,"aper":2641,"Ġmaj":2642,"rench":2643,"Ġreserv":2644,"Ġthai":2645,"Ġauthentic":2646,"Ġamer":2647,"Ġcrew":2648,"Ġtire":2649,"Ġhell":2650,"Ġbowl":2651,"Ġbacon":2652,"Ġmiddle":2653,"Ġbooked":2654,"Ġsamp":2655,"Ġchose":2656,"Ġview":2657,"Ġsort":2658,"par":2659,"Ġra":2660,"Ġseating":2661,"Ġincredible":2662,"Ġshi":2663,"Ġclin":2664,"Ġpatients":2665,"Ġthinking":2666,"ising":2667,"Ġthru":2668,"iance":2669,"unk":2670,"Ġlay":2671,"Ġcover":2672,"ying":2673,"Ġadm":2674,"went":2675,"Ġinstalled":2676,"dr":2677,"Ġcaring":2678,"read":2679,"bin":2680,"alley":2681,"Ġchrist":2682,"Ġoutstanding":2683,"Ġestablish":2684,"Ġcourt":2685,"Ġconsidering":2686,"Ġperfor":2687,"Ġcashier":2688,"Ġbutter":2689,"urs":2690,"Ġhy":2691,"Ġflavors":2692,"Ġmajor":2693,"Ġdesp":2694,"Ġvi":2695,"Ġstrip":2696,"ona":2697,"Ġfav":2698,"Ġcompanies":2699,"Ġcommunity":2700,"eded":2701,"Ġital":2702,"Ġburrit":2703,"Ġstudio":2704,"Ġteacher":2705,"Ġstor":2706,"Ġdealers":2707,"Ġfinding":2708,"ism":2709,"ially":2710,"Ġfrench":2711,"ower":2712,"ained":2713,"Ġate":2714,"Ġstation":2715,"Ġworkers":2716,"Ġdont":2717,"Ġvalley":2718,"Ġble":2719,"Ġpatio":2720,"uts":2721,"Ġadditional":2722,"ands":2723,"Ġexperiences":2724,"lly":2725,"Ġmou":2726,"Ġprint":2727,"Ġparent":2728,"Ġadvice":2729,"Ġdisg":2730,"Ġwow":2731,"iny":2732,"Ġur":2733,"Ġlol":2734,"Ġboard":2735,"Ġsurger":2736,"Ġconversation":2737,"Ġmad":2738,"Ġbrown":2739,"Ġrepairs":2740,"Ġquiet":2741,"ached":2742,"Ġsess":2743,"Ġglasses":2744,"Ġbal":2745,"Ġshops":2746,"ustr":2747,"Ġimag":2748,"Ġtalked":2749,"Ġstated":2750,"Ġgel":2751,"gram":2752,"cre":2753,"Ġitalian":2754,"Ġattemp":2755,"Ġimpress":2756,"Ġrock":2757,"Ġstory":2758,"Ġtechnician":2759,"Ġpulled":2760,"vered":2761,"Ġgro":2762,"Ġpractice":2763,"terday":2764,"Ġdriver":2765,"Ġnic":2766,"Ġhospit":2767,"ppings":2768,"Ġmonday":2769,"Ġfran":2770,"Ġstayed":2771,"Ġingredients":2772,"ton":2773,"Ġincluded":2774,"itch":2775,"ang":2776,"Ġhealthy":2777,"Ġmentioned":2778,"Ġdeep":2779,"Ġjoh":2780,"Ġbother":2781,"Ġlovely":2782,"Ġreceipt":2783,"Ġdrop":2784,"ath":2785,"dale":2786,"ney":2787,"den":2788,"Ġpub":2789,"Ġcontacted":2790,"Ġtick":2791,"Ġmouth":2792,"Ġdriving":2793,"Ġdisgust":2794,"Ġwomen":2795,"Ġproject":2796,"lex":2797,"Ġbottom":2798,"Ġdespite":2799,"ern":2800,"Ġappointments":2801,"they":2802,"Ġgeneral":2803,"acy":2804,"Ġmexican":2805,"ball":2806,"Ġmc":2807,"Ġwaiter":2808,"Ġyesterday":2809,"Ġcovered":2810,"Ġphys":2811,"ified":2812,"Ġtoppings":2813,"vert":2814,"Ġprescri":2815,"Ġrental":2816,"Ġfurther":2817,"Ġgroom":2818,"Ġfail":2819,"Ġbike":2820,"Ġdeliver":2821,"Ġtomato":2822,"pend":2823,"Ġcarpet":2824,"Ġwest":2825,"Ġprogram":2826,"ric":2827,"otte":2828,"Ġwax":2829,"Ġlocations":2830,"Ġsurprise":2831,"ili":2832,"amb":2833,"Ġcomplim":2834,"Ġopp":2835,"Ġfrustr":2836,"Ġscr":2837,"Ġbite":2838,"Ġmedical":2839,"acks":2840,"Ġsense":2841,"Ġasso":2842,"Ġcertainly":2843,"Ġsqu":2844,"Ġcu":2845,"cted":2846,"Ġteeth":2847,"Ġgem":2848,"Ġcheaper":2849,"Ġflat":2850,"Ġanymore":2851,"Ġpour":2852,"Ġdark":2853,"time":2854,"Ġsurgery":2855,"Ġassoci":2856,"Ġburgers":2857,"Ġcrazy":2858,"Ġworkout":2859,"Ġproced":2860,"Ġslight":2861,"hel":2862,"Ġcharlotte":2863,"Ġnatur":2864,"Ġvan":2865,"Ġupdate":2866,"Ġmatt":2867,"Ġdeser":2868,"Ġarr":2869,"Ġrating":2870,"Ġari":2871,"Ġsour":2872,"Ġcarry":2873,"ific":2874,"reed":2875,"Ġexpectations":2876,"Ġproperly":2877,"Ġsun":2878,"Ġsearch":2879,"ones":2880,"ights":2881,"Ġmissing":2882,"Ġaddress":2883,"Ġmontreal":2884,"ta":2885,"Ġven":2886,"Ġcomput":2887,"Ġproce":2888,"Ġpayment":2889,"Ġfrequ":2890,"over":2891,"Ġfollowing":2892,"Ġactual":2893,"Ġparticular":2894,"ularly":2895,"Ġmark":2896,"Ġdouble":2897,"Ġclinic":2898,"Ġchecking":2899,"ita":2900,"uss":2901,"Ġnoodles":2902,"Ġnormal":2903,"Ġannoy":2904,"ana":2905,"hor":2906,"Ġanim":2907,"Ġdealership":2908,"Ġcause":2909,"Ġfire":2910,"Ġyummy":2911,"Ġdoctors":2912,"Ġge":2913,"Ġring":2914,"Ġbarely":2915,"Ġestablishment":2916,"Ġforget":2917,"Ġhate":2918,"Ġsport":2919,"Ġchoices":2920,"Ġtrad":2921,"ilar":2922,"Ġpedicure":2923,"ites":2924,"Ġdropped":2925,"Ġreading":2926,"Ġagree":2927,"Ġbatter":2928,"Ġeasily":2929,"Ġfol":2930,"Ġaz":2931,"Ġvet":2932,"Ġpasta":2933,"Ġrepe":2934,"Ġcrust":2935,"Ġknown":2936,"key":2937,"Ġupset":2938,"Ġagreed":2939,"Ġtires":2940,"Ġmessage":2941,"Ġrese":2942,"Ġforgot":2943,"Ġfairly":2944,"Ġoper":2945,"Ġshows":2946,"lier":2947,"Ġscreen":2948,"Ġelect":2949,"Ġpackage":2950,"Ġmember":2951,"Ġbland":2952,"Ġform":2953,"Ġcrispy":2954,"Ġforever":2955,"Ġstock":2956,"Ġbartender":2957,"Ġsister":2958,"Ġgrocer":2959,"Ġnotch":2960,"Ġbun":2961,"Ġdisappointing":2962,"Ġeggs":2963,"sdale":2964,"Ġcomplex":2965,"Ġsite":2966,"Ġgrab":2967,"best":2968,"Ġmanner":2969,"Ġdifference":2970,"Ġnorth":2971,"Ġjew":2972,"Ġpicture":2973,"Ġhigher":2974,"Ġsouth":2975,"Ġles":2976,"Ġshot":2977,"Ġbeat":2978,"Ġgrilled":2979,"Ġgives":2980,"Ġreport":2981,"Ġclosing":2982,"Ġolder":2983,"Ġmer":2984,"Ġreferred":2985,"Ġremind":2986,"ises":2987,"por":2988,"Ġcompared":2989,"Ġinteresting":2990,"Ġmeals":2991,"Ġmeans":2992,"ains":2993,"Ġvoice":2994,"Ġscottsdale":2995,"Ġpersonally":2996,"Ġbasic":2997,"Ġprefer":2998,"Ġgames":2999,"Ġdepart":3000,"Ġbak":3001,"had":3002,"Ġfeet":3003,"Ġfilling":3004,"Ġmoment":3005,"Ġthous":3006,"Ġcommunication":3007,"urity":3008,"Ġshare":3009,"Ġestimate":3010,"Ġdrove":3011,"Ġplaced":3012,"Ġchat":3013,"Ġplaying":3014,"Ġstarb":3015,"Ġbuffet":3016,"Ġtun":3017,"thy":3018,"Ġrecord":3019,"Ġpacked":3020,"Ġreasonably":3021,"ik":3022,"Ġalone":3023,"Ġdamage":3024,"Ġlat":3025,"ndy":3026,"Ġir":3027,"Ġtatt":3028,"Ġdiag":3029,"Ġpressure":3030,"ley":3031,"Ġeyes":3032,"Ġinterested":3033,"Ġsection":3034,"icated":3035,"llen":3036,"Ġfault":3037,"Ġfrozen":3038,"Ġariz":3039,"Ġregister":3040,"Ġhid":3041,"Ġlearn":3042,"Ġtattoo":3043,"Ġpromised":3044,"Ġheat":3045,"uine":3046,"Ġsecurity":3047,"Ġrelaxing":3048,"priced":3049,"Ġareas":3050,"Ġcafe":3051,"oooo":3052,"Ġpepper":3053,"Ġseated":3054,"Ġpriv":3055,"Ġgarage":3056,"Ġjohn":3057,"Ġsick":3058,"Ġself":3059,"Ġarizona":3060,"Ġunl":3061,"Ġwants":3062,"ze":3063,"Ġstarbucks":3064,"itive":3065,"Ġstress":3066,"ds":3067,"con":3068,"Ġpolicy":3069,"Ġfolks":3070,"Ġbunch":3071,"Ġcorner":3072,"Ġmush":3073,"Ġgarlic":3074,"Ġmike":3075,"Ġtaco":3076,"Ġmostly":3077,"ica":3078,"Ġpresent":3079,"Ġnur":3080,"Ġdepos":3081,"Ġoffers":3082,"erk":3083,"Ġblue":3084,"Ġcontro":3085,"Ġjack":3086,"illa":3087,"Ġcock":3088,"ows":3089,"Ġadjust":3090,"Ġkey":3091,"Ġhesit":3092,"Ġpump":3093,"Ġadvert":3094,"ille":3095,"Ġjoint":3096,"Ġtor":3097,"Ġpersonable":3098,"Ġpush":3099,"Ġowned":3100,"wise":3101,"Ġcoo":3102,"che":3103,"bby":3104,"land":3105,"Ġtrou":3106,"Ġfavour":3107,"Ġburrito":3108,"Ġdescri":3109,"Ġdoors":3110,"rew":3111,"Ġrealized":3112,"Ġmilk":3113,"Ġtypical":3114,"Ġparents":3115,"Ġant":3116,"Ġden":3117,"ering":3118,"Ġshut":3119,"Ġchairs":3120,"Ġpitt":3121,"Ġintern":3122,"Ġjoke":3123,"Ġloves":3124,"Ġchain":3125,"nam":3126,"Ġpu":3127,"ature":3128,"Ġsigned":3129,"zz":3130,"Ġwindows":3131,"Ġlimited":3132,"Ġweird":3133,"lling":3134,"Ġthird":3135,"Ġconcerns":3136,"Ġnormally":3137,"ctions":3138,"Ġwelcome":3139,"Ġseat":3140,"Ġune":3141,"Ġoverpriced":3142,"gs":3143,"Ġpricey":3144,"Ġgenuine":3145,"Ġcares":3146,"Ġguests":3147,"Ġrequested":3148,"Ġjewel":3149,"Ġpen":3150,"Ġexpecting":3151,"Ġwood":3152,"made":3153,"Ġcompleted":3154,"Ġgod":3155,"Ġflowers":3156,"Ġeff":3157,"Ġspecials":3158,"Ġbudget":3159,"Ġtemp":3160,"Ġwhether":3161,"Ġpotatoes":3162,"Ġknowing":3163,"orge":3164,"Ġbase":3165,"Ġimprove":3166,"Ġnearly":3167,"harm":3168,"Ġrush":3169,"Ġappreciated":3170,"Ġmr":3171,"Ġthick":3172,"Ġotherwise":3173,"Ġtoast":3174,"Ġdaily":3175,"Ġquoted":3176,"Ġbeans":3177,"oss":3178,"ara":3179,"ume":3180,"bt":3181,"Ġamerican":3182,"cessary":3183,"Ġscam":3184,"Ġmag":3185,"Ġthemselves":3186,"Ġpharm":3187,"mb":3188,"Ġdollar":3189,"Ġreceptionist":3190,"sbur":3191,"arian":3192,"Ġcomputer":3193,"outine":3194,"Ġputting":3195,"rif":3196,"Ġtues":3197,"Ġens":3198,"Ġairport":3199,"Ġorganized":3200,"Ġcosts":3201,"Ġfabulous":3202,"ini":3203,"berry":3204,"Ġhungry":3205,"Ġcorn":3206,"ograp":3207,"Ġfacial":3208,"Ġserving":3209,"Ġsimilar":3210,"iding":3211,"Ġcorpor":3212,"Ġlucky":3213,"ution":3214,"Ġtastes":3215,"Ġskills":3216,"Ġbroke":3217,"Ġfoc":3218,"Ġindian":3219,"Ġdisgusting":3220,"Ġload":3221,"Ġpittsbur":3222,"Ġfinal":3223,"mas":3224,"Ġlearned":3225,"Ġcop":3226,"Ġvisits":3227,"Ġdump":3228,"Ġextens":3229,"Ġbottle":3230,"ify":3231,"Ġbell":3232,"ergy":3233,"Ġru":3234,"Ġgenerous":3235,"comfort":3236,"Ġlower":3237,"Ġmodern":3238,"Ġstanding":3239,"iling":3240,"Ġspring":3241,"illed":3242,"la":3243,"nes":3244,"Ġsmaller":3245,"Ġbucks":3246,"Ġfunny":3247,"Ġpolish":3248,"Ġthrow":3249,"Ġtiny":3250,"Ġreservation":3251,"Ġhospital":3252,"aks":3253,"Ġspecific":3254,"Ġbeware":3255,"Ġ=":3256,"Ġsalmon":3257,"Ġbecome":3258,"Ġhidden":3259,"Ġimagine":3260,"Ġdeposit":3261,"Ġservers":3262,"Ġpittsburgh":3263,"Ġhappier":3264,"Ġfruit":3265,"Ġallowed":3266,"Ġtonight":3267,"Ġusual":3268,"now":3269,"Ġgrow":3270,"Ġsleep":3271,"Ġdance":3272,"cakes":3273,"Ġconsult":3274,"Ġfigure":3275,"asy":3276,"Ġlease":3277,"amp":3278,"Ġnatural":3279,"Ġphoto":3280,"Ġambiance":3281,"Ġsepar":3282,"Ġpad":3283,"Ġdecision":3284,"Ġrange":3285,"Ġblood":3286,"don":3287,"Ġdepartment":3288,"Ġcomplaints":3289,"Ġpleasure":3290,"Ġmatch":3291,"Ġstudents":3292,"Ġride":3293,"Ġeffort":3294,"fet":3295,"Ġfeels":3296,"cu":3297,"Ġjud":3298,"Ġsaus":3299,"Ġstuck":3300,"izes":3301,"ivid":3302,"Ġmiles":3303,"Ġrd":3304,"Ġcomment":3305,"Ġhandle":3306,"Ġeaten":3307,"Ġshape":3308,"Ġarrive":3309,"Ġenglish":3310,"hile":3311,"Ġresol":3312,"Ġdealing":3313,"Ġremoved":3314,"Ġmechanic":3315,"Ġtender":3316,"Ġtend":3317,"Ġtem":3318,"Ġgold":3319,"Ġearlier":3320,"first":3321,"vis":3322,"Ġcards":3323,"Ġprofessionalism":3324,"Ġnearby":3325,"Ġroof":3326,"izing":3327,"Ġyoga":3328,"Ġbou":3329,"Ġindivid":3330,"Ġjuice":3331,"Ġslightly":3332,"Ġconfirm":3333,"Ġasian":3334,"Ġfigured":3335,"Ġexpert":3336,"Ġground":3337,"Ġscrew":3338,"Ġlines":3339,"Ġfees":3340,"Ġtur":3341,"Ġsuggested":3342,"Ġbeers":3343,"ppers":3344,"rooms":3345,"Ġvibe":3346,"ught":3347,"Ġsuc":3348,"Ġmel":3349,"Ġsaved":3350,"Ġtap":3351,"Ġtravel":3352,"ffect":3353,"Ġsalt":3354,"Ġregret":3355,"gress":3356,"Ġdu":3357,"Ġcurry":3358,"Ġdead":3359,"Ġcontrol":3360,"Ġmedium":3361,"Ġmov":3362,"Ġut":3363,"Ġfitness":3364,"Ġsides":3365,"haps":3366,"min":3367,"ables":3368,"Ġsolid":3369,"Ġcancel":3370,"Ġchallen":3371,"Ġcharges":3372,"yal":3373,"Ġyard":3374,"Ġexceptional":3375,"Ġmanicure":3376,"Ġchanges":3377,"Ġminim":3378,"Ġcir":3379,"Ġbi":3380,"Ġneedless":3381,"Ġarg":3382,"ĠĠĠĠĠĠĠĠĠĠĠĠĠĠĠĠ":3383,"care":3384,"Ġopening":3385,"Ġbeginning":3386,"ky":3387,"Ġvide":3388,"using":3389,"Ġvia":3390,"Ġrand":3391,"Ġsalsa":3392,"Ġexchan":3393,"Ġgrocery":3394,"Ġprote":3395,"Ġbaked":3396,"Ġstraw":3397,"Ġcorporate":3398,"aming":3399,"Ġtells":3400,"da":3401,"iable":3402,"Ġeverywhere":3403,"Ġeduc":3404,"Ġcockt":3405,"Ġreplacement":3406,"Ġrushed":3407,"Ġvarious":3408,"ories":3409,"Ġhoping":3410,"Ġeast":3411,"airs":3412,"Ġheav":3413,"exce":3414,"Ġdie":3415,"Ġbes":3416,"Ġsil":3417,"Ġcrack":3418,"Ġhire":3419,"Ġang":3420,"Ġwat":3421,"Ġmixed":3422,"veland":3423,"Ġnd":3424,"Ġthurs":3425,"gary":3426,"Ġconc":3427,"Ġstaying":3428,"rs":3429,"vin":3430,"Ġperhaps":3431,"Ġinterior":3432,"Ġartist":3433,"tle":3434,"Ġcleveland":3435,"Ġfile":3436,"Ġpaperwork":3437,"Ġprocedure":3438,"ury":3439,"Ġrepres":3440,"Ġlikely":3441,"Ġfat":3442,"afood":3443,"Ġpower":3444,"inger":3445,"Ġwriting":3446,"Ġburn":3447,"Ġev":3448,"Ġdidnt":3449,"Ġchur":3450,"Ġplates":3451,"Ġwide":3452,"fr":3453,"Ġaccident":3454,"pri":3455,"Ġseafood":3456,"Ġshower":3457,"Ġclothing":3458,"Ġwords":3459,"Ġspl":3460,"Ġmeeting":3461,"Ġselling":3462,"Ġdesert":3463,"Ġveggies":3464,"excellent":3465,"ado":3466,"Ġphotograp":3467,"Ġfeed":3468,"Ġcraft":3469,"Ġtimely":3470,"Ġwhenever":3471,"Ġmissed":3472,"Ġsession":3473,"erous":3474,"Ġult":3475,"Ġfavourite":3476,"Ġcountry":3477,"Ġdiagn":3478,"ential":3479,"bed":3480,"iocre":3481,"Ġdispl":3482,"Ġtuesday":3483,"Ġrare":3484,"Ġpassed":3485,"Ġcart":3486,"Ġdeals":3487,"Ġnicely":3488,"Ġmart":3489,"Ġtons":3490,"Ġcrowded":3491,"ission":3492,"Ġpedi":3493,"Ġwalls":3494,"nowled":3495,"Ġevents":3496,"ka":3497,"Ġwra":3498,"Ġcamp":3499,"Ġsports":3500,"Ġlead":3501,"Ġunderst":3502,"Ġhur":3503,"Ġtrash":3504,"aster":3505,"Ġemerg":3506,"Ġunderstanding":3507,"Ġshame":3508,"gest":3509,"Ġround":3510,"Ġgoo":3511,"Ġmill":3512,"Ġnumerous":3513,"uses":3514,"lla":3515,"Ġproceeded":3516,"Ġspots":3517,"itted":3518,"Ġspac":3519,"Ġhired":3520,"oring":3521,"Ġdoubt":3522,"Ġwrap":3523,"Ġvenue":3524,"Ġcant":3525,"back":3526,"Ġseats":3527,"Ġcombo":3528,"Ġtasting":3529,"Ġonion":3530,"Ġcontinued":3531,"Ġuncomfort":3532,"Ġlemon":3533,"Ġconstantly":3534,"Ġresearch":3535,"aring":3536,"Ġgentleman":3537,"Ġindividual":3538,"Ġtra":3539,"Ġblow":3540,"Ġrot":3541,"rees":3542,"ring":3543,"Ġack":3544,"Ġmile":3545,"Ġexpress":3546,"after":3547,"Ġlic":3548,"ives":3549,"Ġgirlf":3550,"Ġmediocre":3551,"Ġbegan":3552,"Ġrespons":3553,"Ġsalads":3554,"Ġlett":3555,"Ġgirlfriend":3556,"Ġrealize":3557,"cake":3558,"Ġupgr":3559,"bit":3560,"ids":3561,"Ġdetails":3562,"Ġvol":3563,"Ġlu":3564,"Ġdepend":3565,"Ġbeha":3566,"Ġfoods":3567,"Ġinspection":3568,"good":3569,"eless":3570,"brow":3571,"Ġnobody":3572,"Ġgrill":3573,"cher":3574,"gth":3575,"stairs":3576,"Ġexist":3577,"Ġfollowed":3578,"Ġagent":3579,"oli":3580,"Ġsan":3581,"Ġacknowled":3582,"Ġchir":3583,"reek":3584,"Ġhighl":3585,"Ġhol":3586,"Ġyeah":3587,"Ġbright":3588,"Ġinitial":3589,"Ġeyebrow":3590,"ror":3591,"ral":3592,"Ġlettuce":3593,"Ġsauc":3594,"Ġcalif":3595,"Ġgross":3596,"Ġcross":3597,"right":3598,"Ġsocial":3599,"Ġbooks":3600,"Ġuns":3601,"Ġmattress":3602,"aches":3603,"Ġswitch":3604,"Ġenergy":3605,"Ġstorage":3606,"ilt":3607,"Ġdressing":3608,"Ġuncomfortable":3609,"Ġtill":3610,"Ġodd":3611,"overed":3612,"itten":3613,"Ġsausage":3614,"Ġthri":3615,"ipped":3616,"Ġhole":3617,"Ġbage":3618,"ops":3619,"Ġagainst":3620,"Ġtraditional":3621,"Ġcaliforn":3622,"idence":3623,"Ġadult":3624,"Ġspray":3625,"Ġhomemade":3626,"Ġlen":3627,"Ġemails":3628,"Ġfancy":3629,"Ġsmoke":3630,"Ġham":3631,"Ġcraving":3632,"Ġwatching":3633,"Ġaware":3634,"Ġconne":3635,"Ġmachines":3636,"Ġapple":3637,"Ġbattery":3638,"worst":3639,"Ġindust":3640,"Ġvegetarian":3641,"house":3642,"Ġdad":3643,"Ġnights":3644,"Ġdecide":3645,"Ġexcuse":3646,"Ġbelow":3647,"Ġfly":3648,"Ġfully":3649,"Ġhall":3650,"Ġbrunch":3651,"une":3652,"Ġgreasy":3653,"aired":3654,"war":3655,"bel":3656,"azing":3657,"Ġperio":3658,"Ġvers":3659,"Ġroast":3660,"bert":3661,"Ġcalifornia":3662,"Ġfell":3663,"Ġtrouble":3664,"vy":3665,"Ġmir":3666,"Ġpromptly":3667,"Ġhimself":3668,"Ġreliable":3669,"Ġplanning":3670,"Ġteachers":3671,"Ġdav":3672,"iring":3673,"Ġbigger":3674,"Ġage":3675,"rod":3676,"Ġweight":3677,"ggy":3678,"Ġease":3679,"Ġcrap":3680,"Ġcalgary":3681,"Ġsubway":3682,"Ġthousand":3683,"ational":3684,"Ġwednes":3685,"Ġarrange":3686,"Ġprivate":3687,"Ġprescription":3688,"Ġhist":3689,"ground":3690,"Ġrub":3691,"Ġencour":3692,"Ġoutdo":3693,"rib":3694,"Ġbecame":3695,"Ġbakery":3696,"Ġbrew":3697,"Ġlights":3698,"Ġemergency":3699,"Ġbooth":3700,"Ġholid":3701,"gable":3702,"Ġ;":3703,"Ġjewelry":3704,"Ġvacation":3705,"Ġshell":3706,"Ġrecent":3707,"Ġkinda":3708,"Ġplain":3709,"Ġave":3710,"Ġfash":3711,"Ġcurrent":3712,"Ġdev":3713,"Ġinvol":3714,"Ġsugar":3715,"Ġsalty":3716,"Ġstarting":3717,"Ġthursday":3718,"omen":3719,"Ġbot":3720,"aging":3721,"Ġworry":3722,"Ġneck":3723,"Ġrepaired":3724,"Ġmembership":3725,"Ġinstallation":3726,"Ġtowards":3727,"Ġplastic":3728,"ners":3729,"Ġbrother":3730,"Ġrip":3731,"Ġkore":3732,"fit":3733,"Ġking":3734,"Ġribs":3735,"Ġchristmas":3736,"Ġyork":3737,"Ġrefres":3738,"Ġremove":3739,"Ġdre":3740,"Ġwanting":3741,"Ġgrate":3742,"Ġinfo":3743,"Ġspeed":3744,"Ġpassion":3745,"Ġchic":3746,"Ġcig":3747,"Ġrad":3748,"Ġlock":3749,"Ġcozy":3750,"Ġentertain":3751,"Ġposted":3752,"Ġinvest":3753,"ai":3754,"how":3755,"ened":3756,"Ġsucks":3757,"Ġsus":3758,"ended":3759,"Ġapartments":3760,"Ġcrab":3761,"Ġconcerned":3762,"Ġknowledgable":3763,"Ġsens":3764,"Ġtooth":3765,"Ġbran":3766,"Ġoriginally":3767,"Ġcuts":3768,"mar":3769,"hol":3770,"Ġeffect":3771,"Ġworker":3772,"tered":3773,"Ġdealt":3774,"Ġflavorful":3775,"Ġspin":3776,"asty":3777,"Ġsuccess":3778,"mand":3779,"came":3780,"Ġfashion":3781,"bar":3782,"donal":3783,"Ġkeeping":3784,"Ġplat":3785,"pa":3786,"Ġnerv":3787,"nov":3788,"hy":3789,"Ġtrack":3790,"Ġvend":3791,"Ġvegetables":3792,"ilities":3793,"Ġappt":3794,"Ġspending":3795,"Ġrepresent":3796,"Ġchris":3797,"Ġjam":3798,"Ġrich":3799,"Ġunlike":3800,"Ġgrateful":3801,"Ġregarding":3802,"Ġnervous":3803,"Ġtips":3804,"Ġassistant":3805,"akes":3806,"Ġmater":3807,"Ġcloser":3808,"Ġpal":3809,"ole":3810,"Ġmount":3811,"arant":3812,"Ġenter":3813,"Ġspecifically":3814,"whel":3815,"ruction":3816,"Ġhopefully":3817,"Ġded":3818,"Ġcap":3819,"amazing":3820,"Ġpas":3821,"Ġentr":3822,"Ġresponded":3823,"Ġassured":3824,"anese":3825,"Ġchirop":3826,"Ġstood":3827,"Ġrecommendation":3828,"Ġoccasion":3829,"Ġinternet":3830,"Ġorange":3831,"Ġshirts":3832,"Ġlamb":3833,"Ġpharmacy":3834,"Ġcookies":3835,"horrible":3836,"ibility":3837,"Ġvegan":3838,"Ġbarber":3839,"Ġexplaining":3840,"Ġdisplay":3841,"Ġlie":3842,"Ġbusinesses":3843,"Ġgenerally":3844,"Ġmeas":3845,"Ġtreats":3846,"Ġappl":3847,"Ġturns":3848,"Ġdelight":3849,"Ġram":3850,"Ġtrim":3851,"was":3852,"Ġtrail":3853,"Ġlarger":3854,"Ġchurch":3855,"Ġinj":3856,"Ġonions":3857,"Ġchiropract":3858,"Ġmini":3859,"Ġmcdonal":3860,"hered":3861,"Ġlob":3862,"Ġinstructors":3863,"Ġcry":3864,"Ġsuit":3865,"Ġfloors":3866,"Ġchill":3867,"Ġcommunic":3868,"Ġcow":3869,"Ġexchange":3870,"Ġincom":3871,"Ġdamaged":3872,"Ġbringing":3873,"Ġjen":3874,"Ġshowing":3875,"Ġsetting":3876,"Ġcert":3877,"Ġfal":3878,"Ġwaff":3879,"Ġbenef":3880,"Ġrelaxed":3881,"Ġsca":3882,"Ġensure":3883,"Ġkick":3884,"Ġboxes":3885,"ortun":3886,"Ġperiod":3887,"Ġsizes":3888,"Ġrequired":3889,"aves":3890,"Ġprem":3891,"Ġspeaking":3892,"Ġsuggestions":3893,"Ġopportun":3894,"Ġyogurt":3895,"Ġfort":3896,"Ġignored":3897,"antage":3898,"Ġtypes":3899,"Ġheavy":3900,"Ġwinter":3901,"Ġeventually":3902,"Ġtar":3903,"Ġjap":3904,"Ġwednesday":3905,"Ġaud":3906,"Ġinformative":3907,"Ġhandled":3908,"Ġris":3909,"Ġsauces":3910,"orgeous":3911,"Ġcutting":3912,"Ġstudent":3913,"Ġinde":3914,"Ġclassic":3915,"iqu":3916,"Ġmadison":3917,"Ġaltern":3918,"Ġpublic":3919,"Ġland":3920,"Ġperform":3921,"Ġtail":3922,"Ġwont":3923,"char":3924,"Ġjan":3925,"Ġrandom":3926,"Ġshocked":3927,"Ġcareful":3928,"Ġperfection":3929,"Ġguarant":3930,"Ġautom":3931,"Ġjoe":3932,"iest":3933,"Ġadvance":3934,"Ġconsistently":3935,"Ġdiscovered":3936,"Ġsized":3937,"ville":3938,"Ġtight":3939,"mart":3940,"omb":3941,"Ġbob":3942,"Ġmanaged":3943,"Ġchanging":3944,"Ġinex":3945,"Ġpatr":3946,"Ġlashes":3947,"Ġfailed":3948,"Ġaf":3949,"Ġflight":3950,"iled":3951,"Ġnecessary":3952,"Ġlistened":3953,"henomen":3954,"yan":3955,"Ġshirt":3956,"Ġcolour":3957,"Ġkorean":3958,"Ġinitially":3959,"assion":3960,"these":3961,"Ġgorgeous":3962,"Ġrain":3963,"Ġpizzas":3964,"Ġna":3965,"Ġcell":3966,"Ġpossibly":3967,"erm":3968,"Ġoutdoor":3969,"Ġpurchasing":3970,"ivers":3971,"su":3972,"Ġtreatments":3973,"Ġconcern":3974,"Ġleak":3975,"Ġkim":3976,"Ġtough":3977,"cket":3978,"Ġoccasions":3979,"Ġhip":3980,"Ġadvantage":3981,"Ġengine":3982,"wood":3983,"Ġgard":3984,"Ġinsist":3985,"Ġlaugh":3986,"Ġcooking":3987,"Ġfinan":3988,"Ġappetizers":3989,"Ġill":3990,"henomenal":3991,"Ġtree":3992,"Ġnamed":3993,"cooked":3994,"unt":3995,"Ġmedic":3996,"Ġband":3997,"Ġhappens":3998,"au":3999,"board":4000,"Ġbags":4001,"ĠĠĠĠĠĠ":4002,"belie":4003,"Ġcro":4004,"ishing":4005,"Ġtile":4006,"Ġnasty":4007,"Ġseparate":4008,"Ġanyways":4009,"Ġconfir":4010,"Ġpoorly":4011,"nge":4012,"Ġdisappointment":4013,"onna":4014,"Ġpets":4015,"Ġhanded":4016,"Ġcontain":4017,"Ġrough":4018,"days":4019,"Ġdim":4020,"Ġtherapy":4021,"ased":4022,"ability":4023,"Ġcompassion":4024,"Ġretail":4025,"Ġange":4026,"Ġvideo":4027,"ker":4028,"met":4029,"Ġcorrectly":4030,"ams":4031,"Ġdirectly":4032,"Ġdraw":4033,"Ġincon":4034,"Ġwritten":4035,"Ġshared":4036,"Ġinstructor":4037,"Ġtoile":4038,"aki":4039,"Ġactiv":4040,"Ġcommon":4041,"ifi":4042,"Ġkeeps":4043,"Ġcabin":4044,"Ġlounge":4045,"Ġphenomenal":4046,"Ġcompliment":4047,"Ġdonuts":4048,"od":4049,"Ġhom":4050,"Ġjump":4051,"Ġcompar":4052,"Ġloan":4053,"Ġcharging":4054,"Ġbiggest":4055,"Ġdesserts":4056,"bage":4057,"Ġcolors":4058,"uced":4059,"Ġrac":4060,"Ġhi":4061,"Ġmaterial":4062,"hh":4063,"liness":4064,"Ġcatch":4065,"Ġnoodle":4066,"Ġmaster":4067,"Ġterms":4068,"aff":4069,"Ġcanada":4070,"Ġexample":4071,"wow":4072,"Ġtalented":4073,"Ġlobby":4074,"Ġinqu":4075,"Ġcollege":4076,"Ġconsistent":4077,"orrow":4078,"Ġcompetitive":4079,"Ġtickets":4080,"Ġpros":4081,"Ġske":4082,"Ġnurse":4083,"Ġshit":4084,"Ġanswers":4085,"Ġplumb":4086,"oop":4087,"oni":4088,"Ġregularly":4089,"Ġdj":4090,"Ġdough":4091,"Ġmob":4092,"Ġmakeup":4093,"ties":4094,"Ġdeg":4095,"orable":4096,"Ġbout":4097,"Ġdig":4098,"Ġcurrently":4099,"Ġpoints":4100,"Ġfather":4101,"Ġresched":4102,"Ġcakes":4103,"aa":4104,"Ġgoog":4105,"Ġcrunch":4106,"Ġintrod":4107,"Ġpicking":4108,"Ġmeant":4109,"ala":4110,"Ġoffering":4111,"phone":4112,"Ġbars":4113,"Ġfem":4114,"Ġflex":4115,"Ġfirm":4116,"Ġgolf":4117,"Ġrecommendations":4118,"Ġchew":4119,"Ġfu":4120,"Ġsurprising":4121,"Ġtherapist":4122,"Ġseasoned":4123,"lies":4124,"Ġnoise":4125,"ago":4126,"Ġess":4127,"cent":4128,"Ġpants":4129,"Ġny":4130,"Ġgarbage":4131,"food":4132,"Ġproduce":4133,"Ġsomewhat":4134,"Ġphysical":4135,"Ġlobster":4136,"Ġinconven":4137,"Ġplumbing":4138,"Ġjim":4139,"book":4140,"Ġslice":4141,"Ġdeserve":4142,"Ġhoney":4143,"Ġframe":4144,"Ġcreative":4145,"Ġsample":4146,"hetic":4147,"nel":4148,"Ġstup":4149,"Ġeveryday":4150,"Ġveggie":4151,"esy":4152,"Ġpin":4153,"Ġhass":4154,"men":4155,"Ġpleasantly":4156,"Ġconcept":4157,"Ġfrequent":4158,"Ġtired":4159,"Ġremod":4160,"Ġresponsive":4161,"Ġtort":4162,"Ġmovie":4163,"awesome":4164,"Ġscen":4165,"Ġtransfer":4166,"Ġgall":4167,"Ġcombin":4168,"Ġincompet":4169,"Ġfield":4170,"ization":4171,"Ġhistory":4172,"Ġbranch":4173,"idents":4174,"Ġpreviously":4175,"Ġloyal":4176,"Ġaccommodate":4177,"Ġindustry":4178,"Ġaccord":4179,"Ġanimals":4180,"Ġau":4181,"Ġlaz":4182,"Ġwifi":4183,"Ġincor":4184,"Ġpotential":4185,"Ġpicky":4186,"Ġneighbors":4187,"Ġrenov":4188,"gged":4189,"Ġgoods":4190,"Ġstupid":4191,"nde":4192,"Ġrelie":4193,"Ġthoroughly":4194,"Ġbrid":4195,"imately":4196,"Ġlands":4197,"Ġapologized":4198,"Ġcamer":4199,"Ġassum":4200,"rific":4201,"Ġcancelled":4202,"Ġbrow":4203,"Ġdresses":4204,"aded":4205,"Ġreasons":4206,"usion":4207,"Ġwasted":4208,"Ġlose":4209,"Ġliqu":4210,"Ġbathrooms":4211,"believ":4212,"Ġreach":4213,"Ġkno":4214,"Ġdavid":4215,"Ġdamn":4216,"enders":4217,"Ġdisp":4218,"Ġenjoyable":4219,"atic":4220,"Ġtexture":4221,"Ġassociate":4222,"Ġattor":4223,"Ġmonthly":4224,"Ġemailed":4225,"Ġthrew":4226,"Ġoct":4227,"Ġadvised":4228,"Ġhurt":4229,"Ġruns":4230,"Ġluckily":4231,"Ġremodel":4232,"erc":4233,"Ġsoggy":4234,"Ġlisted":4235,"umber":4236,"Ġticket":4237,"Ġtraffic":4238,"Ġleaves":4239,"hael":4240,"ank":4241,"Ġrelative":4242,"Ġhanging":4243,"ras":4244,"Ġcoll":4245,"Ġconfident":4246,"Ġeyebrows":4247,"Ġinvolved":4248,"etch":4249,"Ġdiscuss":4250,"Ġlandsca":4251,"Ġstates":4252,"Ġmango":4253,"Ġlaund":4254,"Ġrings":4255,"Ġdealer":4256,"Ġopportunity":4257,"Ġfrank":4258,"when":4259,"Ġmessages":4260,"Ġweather":4261,"Ġcasual":4262,"Ġtub":4263,"Ġruined":4264,"Ġmodel":4265,"well":4266,"Ġhill":4267,"ively":4268,"Ġchili":4269,"Ġbum":4270,"Ġappear":4271,"inary":4272,"Ġhelps":4273,"Ġfry":4274,"Ġmes":4275,"ok":4276,"Ġpier":4277,"Ġincre":4278,"absolute":4279,"Ġbesides":4280,"Ġkill":4281,"Ġroot":4282,"Ġprofess":4283,"Ġlacking":4284,"Ġshoot":4285,"Ġai":4286,"Ġmax":4287,"rass":4288,"Ġannoying":4289,"Ġpointed":4290,"Ġbreat":4291,"Ġmood":4292,"Ġshipping":4293,"Ġgreek":4294,"Ġslices":4295,"respect":4296,"Ġjapanese":4297,"Ġsam":4298,"Ġpoutine":4299,"Ġeasier":4300,"Ġneat":4301,"Ġdocu":4302,"Ġbedroom":4303,"nding":4304,"Ġdust":4305,"Ġexerc":4306,"Ġrates":4307,"Ġanytime":4308,"Ġparticularly":4309,"Ġesp":4310,"Ġcomplained":4311,"Ġestate":4312,"Ġbooking":4313,"Ġwrote":4314,"Ġconvenience":4315,"Ġgonna":4316,"Ġhello":4317,"Ġken":4318,"Ġjobs":4319,"Ġapology":4320,"Ġmeats":4321,"Ġlighting":4322,"Ġrefreshing":4323,"erve":4324,"Ġminor":4325,"Ġweekends":4326,"Ġcleaner":4327,"Ġbalance":4328,"Ġcirc":4329,"Ġstone":4330,"Ġjuly":4331,"Ġspice":4332,"Ġol":4333,"Ġdisrespect":4334,"ining":4335,"Ġbonus":4336,"Ġattempt":4337,"bing":4338,"Ġunable":4339,"Ġcalm":4340,"Ġplayed":4341,"Ġimpression":4342,"Ġlearning":4343,"Ġtuna":4344,"Ġspacious":4345,"Ġgenuinely":4346,"Ġqual":4347,"Ġflor":4348,"Ġfemale":4349,"Ġhund":4350,"Ġways":4351,"Ġlake":4352,"Ġaug":4353,"Ġdistance":4354,"Ġlift":4355,"Ġunbeliev":4356,"Ġsoooo":4357,"Ġcand":4358,"Ġhundred":4359,"Ġweekly":4360,"Ġanimal":4361,"Ġmani":4362,"Ġwheel":4363,"ari":4364,"Ġsuff":4365,"Ġburnt":4366,"Ġonto":4367,"Ġcaused":4368,"Ġstuffed":4369,"Ġglut":4370,"Ġsquare":4371,"Ġdemand":4372,"Ġcele":4373,"Ġsaving":4374,"Ġamong":4375,"friendly":4376,"Ġcared":4377,"Ġcuis":4378,"Ġtro":4379,"aining":4380,"Ġorganic":4381,"Ġstrange":4382,"Ġhey":4383,"Ġdetailed":4384,"Ġoverly":4385,"night":4386,"Ġvehicles":4387,"Ġaccording":4388,"Ġcher":4389,"Ġdest":4390,"new":4391,"ushing":4392,"Ġrepeat":4393,"terrible":4394,"ette":4395,"Ġblock":4396,"Ġwatched":4397,"Ġjerk":4398,"Ġmessed":4399,"Ġalco":4400,"Ġsoda":4401,"Ġsigns":4402,"Ġoverwhel":4403,"Ġherself":4404,"Ġpest":4405,"illy":4406,"Ġshots":4407,"Ġimposs":4408,"Ġlength":4409,"Ġsmart":4410,"Ġscheduling":4411,"rupt":4412,"Ġcelebr":4413,"Ġbehav":4414,"Ġalter":4415,"anda":4416,"issa":4417,"Ġdece":4418,"rist":4419,"tes":4420,"Ġpersonality":4421,"Ġrented":4422,"Ġwelcom":4423,"oor":4424,"ping":4425,"Ġeth":4426,"Ġprovides":4427,"Ġimportantly":4428,"Ġalcohol":4429,"Ġheld":4430,"Ġpeace":4431,"Ġtoilet":4432,"Ġtart":4433,"Ġsav":4434,"Ġturkey":4435,"Ġmoist":4436,"Ġraw":4437,"Ġhassle":4438,"iles":4439,"Ġuses":4440,"Ġmal":4441,"Ġlaid":4442,"Ġpresentation":4443,"Ġsupplies":4444,"Ġconfirmed":4445,"Ġaside":4446,"Ġlives":4447,"ples":4448,"Ġbone":4449,"Ġembar":4450,"Ġpage":4451,"Ġhearing":4452,"nice":4453,"Ġalex":4454,"Ġtomorrow":4455,"Ġexception":4456,"Ġassistance":4457,"Ġmotor":4458,"Ġom":4459,"Ġsteve":4460,"Ġrepeated":4461,"place":4462,"Ġtypically":4463,"Ġhyg":4464,"Ġentrance":4465,"Ġcater":4466,"nds":4467,"Ġrob":4468,"Ġgarden":4469,"Ġimpossible":4470,"Ġimpressive":4471,"Ġmanagers":4472,"Ġhostess":4473,"pes":4474,"Ġsalons":4475,"Ġreplied":4476,"Ġmassages":4477,"Ġconfused":4478,"chi":4479,"Ġbilling":4480,"Ġannoyed":4481,"Ġdip":4482,"Ġproviding":4483,"Ġpopular":4484,"ios":4485,"Ġcomb":4486,"Ġstarts":4487,"Ġsadly":4488,"Ġbartenders":4489,"absolutely":4490,"Ġpainting":4491,"nda":4492,"ination":4493,"Ġbull":4494,"Ġglo":4495,"Ġpride":4496,"Ġbuilt":4497,"Ġlazy":4498,"Ġiced":4499,"Ġbul":4500,"Ġsalesman":4501,"Ġsurround":4502,"Ġsounds":4503,"Ġneither":4504,"Ġupdated":4505,"Ġnames":4506,"Ġneighbour":4507,"Ġpolice":4508,"Ġholiday":4509,"Ġcanad":4510,"Ġhook":4511,"Ġshoe":4512,"Ġexe":4513,"Ġjuicy":4514,"Ġvent":4515,"Ġboys":4516,"itas":4517,"Ġcy":4518,"Ġconsultation":4519,"Ġpink":4520,"anced":4521,"Ġinclude":4522,"Ġnap":4523,"Ġpound":4524,"Ġlit":4525,"organ":4526,"Ġva":4527,"uum":4528,"Ġps":4529,"Ġsnacks":4530,"fu":4531,"Ġspect":4532,"isa":4533,"Ġcompliments":4534,"Ġexplan":4535,"Ġcookie":4536,"Ġsong":4537,"Ġmichael":4538,"Ġrarely":4539,"Ġjer":4540,"Ġsafet":4541,"Ġviet":4542,"Ġfocus":4543,"ances":4544,"Ġarm":4545,"Ġtrained":4546,"really":4547,"Ġbean":4548,"ril":4549,"Ġaccur":4550,"Ġgoogle":4551,"mission":4552,"Ġripped":4553,"Ġrat":4554,"Ġtakeout":4555,"Ġpatrons":4556,"Ġunac":4557,"Ġbeds":4558,"Ġattended":4559,"Ġstating":4560,"Ġrefill":4561,"Ġpuppy":4562,"Ġfed":4563,"Ġsafety":4564,"alled":4565,"Ġhub":4566,"Ġhardly":4567,"inking":4568,"any":4569,"Ġrealt":4570,"Ġgluten":4571,"Ġfixing":4572,"Ġsymp":4573,"ager":4574,"Ġdozen":4575,"tw":4576,"Ġprofession":4577,"Ġcandy":4578,"Ġdirt":4579,"Ġdave":4580,"Ġsplit":4581,"Ġavoc":4582,"Ġregardless":4583,"Ġletting":4584,"Ġfarm":4585,"Ġbroth":4586,"iot":4587,"Ġletter":4588,"Ġanswering":4589,"Ġattorney":4590,"Ġearth":4591,"ades":4592,"Ġdrug":4593,"Ġfridge":4594,"Ġthreat":4595,"Ġfool":4596,"Ġmovers":4597,"Ġcupcakes":4598,"Ġsearching":4599,"Ġlatte":4600,"Ġvacuum":4601,"Ġcuisine":4602,"unct":4603,"Ġchicago":4604,"Ġmobile":4605,"ilies":4606,"Ġrequests":4607,"ony":4608,"Ġsuppose":4609,"Ġlabor":4610,"Ġthats":4611,"Ġupstairs":4612,"Ġwelcomed":4613,"ading":4614,"Ġgyro":4615,"Ġsamples":4616,"Ġhesitate":4617,"lls":4618,"Ġgate":4619,"Ġshady":4620,"Ġadmit":4621,"Ġjune":4622,"Ġchamp":4623,"Ġwearing":4624,"Ġworried":4625,"Ġunderstood":4626,"Ġpregn":4627,"priate":4628,"Ġblown":4629,"Ġgiant":4630,"bbed":4631,"Ġfight":4632,"Ġpean":4633,"Ġcanadian":4634,"velop":4635,"Ġhygien":4636,"Ġsomehow":4637,"Ġobs":4638,"Ġembarrass":4639,"Ġgrass":4640,"Ġcomments":4641,"Ġpromot":4642,"aven":4643,"Ġdire":4644,"Ġdom":4645,"Ġcoat":4646,"ference":4647,"front":4648,"bble":4649,"Ġlied":4650,"Ġqueen":4651,"Ġdiscus":4652,"Ġsnack":4653,"Ġourselves":4654,"umbled":4655,"Ġcleaners":4656,"Ġil":4657,"Ġjudge":4658,"Ġpita":4659,"ils":4660,"Ġselections":4661,"Ġpaul":4662,"Ġrequire":4663,"Ġsmelled":4664,"Ġfrustrated":4665,"cca":4666,"onest":4667,"Ġbeauty":4668,"Ġafterwards":4669,"Ġswim":4670,"ob":4671,"Ġms":4672,"Ġimm":4673,"Ġray":4674,"Ġkinds":4675,"Ġreceiving":4676,"Ġterm":4677,"Ġunits":4678,"mare":4679,"ki":4680,"Ġawhile":4681,"Ġcrown":4682,"Ġsessions":4683,"Ġfrequently":4684,"Ġprogress":4685,"Ġtransaction":4686,"rely":4687,"Ġblast":4688,"Ġinviting":4689,"Ġsmoked":4690,"Ġceiling":4691,"eds":4692,"Ġtofu":4693,"Ġentrees":4694,"Ġincorrect":4695,"Ġbothered":4696,"kward":4697,"Ġcocon":4698,"Ġnut":4699,"Ġstom":4700,"nce":4701,"Ġbottles":4702,"Ġhuman":4703,"Ġencount":4704,"Ġencountered":4705,"anna":4706,"Ġpeppers":4707,"Ġcreamy":4708,"ceptable":4709,"Ġapproach":4710,"Ġconstruction":4711,"Ġwalmart":4712,"Ġheaven":4713,"Ġhonor":4714,"Ġpastries":4715,"Ġreput":4716,"Ġvoicem":4717,"Ġdream":4718,"Ġcoconut":4719,"Ġwet":4720,"Ġcarp":4721,"Ġlang":4722,"Ġfing":4723,"Ġnightmare":4724,"Ġfeat":4725,"uth":4726,"Ġflu":4727,"Ġapril":4728,"Ġmaintained":4729,"Ġreply":4730,"Ġthankful":4731,"ifully":4732,"Ġcreate":4733,"Ġinexpensive":4734,"Ġtools":4735,"Ġclerk":4736,"Ġnach":4737,"ded":4738,"Ġoven":4739,"Ġresidents":4740,"uf":4741,"Ġspan":4742,"iques":4743,"Ġfamilies":4744,"Ġawkward":4745,"Ġpushy":4746,"Ġcaught":4747,"Ġneeding":4748,"Ġinteract":4749,"Ġappeared":4750,"Ġprin":4751,"burger":4752,"Ġideas":4753,"Ġstrongly":4754,"oke":4755,"Ġduck":4756,"Ġfrustrating":4757,"Ġunacceptable":4758,"Ġranch":4759,"Ġflavours":4760,"Ġramen":4761,"Ġrelatively":4762,"Ġbis":4763,"ague":4764,"Ġtomatoes":4765,"Ġhomes":4766,"Ġtenants":4767,"Ġfake":4768,"Ġlaser":4769,"Ġsmells":4770,"Ġforth":4771,"Ġtag":4772,"Ġpocket":4773,"Ġlocked":4774,"Ġkeys":4775,"orm":4776,"lli":4777,"Ġjason":4778,"Ġsque":4779,"Ġpi":4780,"Ġsignific":4781,"Ġcompare":4782,"Ġapologize":4783,"Ġarrival":4784,"organized":4785,"Ġtempe":4786,"fl":4787,"Ġgravy":4788,"Ġtemper":4789,"Ġdelay":4790,"Ġmedication":4791,"warma":4792,"kin":4793,"cious":4794,"Ġsnow":4795,"Ġthrilled":4796,"Ġboutique":4797,"Ġnews":4798,"Ġbeautifully":4799,"Ġpartner":4800,"Ġanx":4801,"lin":4802,"Ġstair":4803,"Ġdar":4804,"Ġintegr":4805,"Ġphotographer":4806,"Ġash":4807,"Ġleather":4808,"Ġmale":4809,"Ġplanned":4810,"Ġlaundry":4811,"Ġtodd":4812,"Ġsuperb":4813,"Ġstocked":4814,"Ġmort":4815,"Ġchand":4816,"yer":4817,"hest":4818,"Ġloose":4819,"Ġpainted":4820,"Ġseconds":4821,"yle":4822,"Ġtank":4823,"Ġmushrooms":4824,"Ġhous":4825,"Ġballs":4826,"Ġhurry":4827,"Ġnicer":4828,"Ġavocado":4829,"Ġsuck":4830,"Ġapplic":4831,"Ġterrific":4832,"Ġrear":4833,"Ġdiet":4834,"Ġstyles":4835,"Ġdryer":4836,"Ġinsisted":4837,"ped":4838,"Ġpiss":4839,"icks":4840,"fa":4841,"Ġsar":4842,"Ġlux":4843,"Ġdiv":4844,"Ġmicrow":4845,"Ġguac":4846,"Ġcoupons":4847,"Ġminimum":4848,"aza":4849,"Ġmistakes":4850,"Ġment":4851,"Ġparties":4852,"Ġclaimed":4853,"Ġtit":4854,"resso":4855,"Ġconsum":4856,"Ġcombination":4857,"sto":4858,"Ġbasis":4859,"Ġaugust":4860,"Ġyelling":4861,"Ġiron":4862,"Ġdevelop":4863,"Ġphones":4864,"every":4865,"Ġregul":4866,"Ġlesson":4867,"Ġcomplimentary":4868,"Ġvint":4869,"ening":4870,"Ġsubst":4871,"Ġdive":4872,"Ġentree":4873,"Ġhighlights":4874,"Ġlegs":4875,"Ġneighbourhood":4876,"Ġsupervis":4877,"Ġmarch":4878,"mes":4879,"ancy":4880,"Ġdiam":4881,"Ġtrees":4882,"Ġsmoothie":4883,"Ġforced":4884,"Ġstat":4885,"Ġplans":4886,"Ġstrawberry":4887,"Ġangry":4888,"Ġgal":4889,"Ġblonde":4890,"Ġvietnam":4891,"ram":4892,"Ġfilthy":4893,"iliar":4894,"Ġincompetent":4895,"happy":4896,"Ġlens":4897,"iders":4898,"Ġconfidence":4899,"ura":4900,"Ġsubs":4901,"itary":4902,"Ġmary":4903,"Ġfreshly":4904,"getic":4905,"Ġsmoking":4906,"Ġsolution":4907,"Ġcollection":4908,"Ġdried":4909,"Ġnet":4910,"Ġvou":4911,"Ġbrands":4912,"Ġstandards":4913,"Ġcocktail":4914,"Ġlangu":4915,"Ġsept":4916,"Ġaccessories":4917,"Ġflexible":4918,"Ġalright":4919,"asing":4920,"Ġsilver":4921,"while":4922,"Ġtone":4923,"Ġgoodness":4924,"Ġcouch":4925,"Ġdesper":4926,"Ġvision":4927,"ival":4928,"umbs":4929,"aly":4930,"nger":4931,"Ġestim":4932,"Ġcondes":4933,"Ġtowels":4934,"raid":4935,"mond":4936,"Ġwashed":4937,"Ġcocktails":4938,"Ġjeff":4939,"Ġvanilla":4940,"Ġpup":4941,"Ġloss":4942,"Ġcode":4943,"Ġsurprisingly":4944,"Ġfavorites":4945,"Ġtex":4946,"Ġrecords":4947,"Ġwashing":4948,"Ġprof":4949,"Ġdrinking":4950,"Ġwasher":4951,"ogn":4952,"Ġtaxes":4953,"imi":4954,"Ġafraid":4955,"rie":4956,"Ġvintage":4957,"lings":4958,"rugg":4959,"Ġbc":4960,"Ġpatience":4961,"amel":4962,"Ġspread":4963,"Ġmargar":4964,"Ġcasino":4965,"Ġability":4966,"gy":4967,"erved":4968,"Ġboot":4969,"Ġmcdonald":4970,"there":4971,"Ġtint":4972,"Ġsoo":4973,"Ġextensive":4974,"Ġrelations":4975,"Ġfest":4976,"iers":4977,"icures":4978,"Ġmold":4979,"Ġreservations":4980,"Ġgun":4981,"Ġassociates":4982,"Ġexplanation":4983,"Ġroutine":4984,"Ġasks":4985,"Ġbelong":4986,"Ġreached":4987,"Ġfra":4988,"been":4989,"Ġbasket":4990,"gre":4991,"Ġome":4992,"Ġperformed":4993,"Ġsteal":4994,"Ġcowork":4995,"Ġspectac":4996,"Ġwise":4997,"Ġstrugg":4998,"Ġsum":4999,"itched":5000,"Ġelectr":5001,"Ġtheater":5002,"Ġframes":5003,"Ġdiner":5004,"Ġtam":5005,"Ġshan":5006,"Ġdebit":5007,"ards":5008,"oud":5009,"Ġrose":5010,"Ġversion":5011,"Ġpurp":5012,"Ġelev":5013,"ires":5014,"Ġbomb":5015,"Ġplant":5016,"Ġrib":5017,"Ġship":5018,"Ġbagel":5019,"cending":5020,"box":5021,"Ġurg":5022,"Ġpromise":5023,"Ġdaughters":5024,"Ġcats":5025,"chand":5026,"Ġgrooming":5027,"Ġoffic":5028,"Ġdiamond":5029,"Ġfacilities":5030,"Ġclosest":5031,"Ġteen":5032,"fect":5033,"Ġbris":5034,"Ġbugs":5035,"Ġive":5036,"Ġspecialty":5037,"Ġupgrade":5038,"Ġtarget":5039,"lect":5040,"ously":5041,"Ġentered":5042,"Ġwarning":5043,"Ġadvise":5044,"Ġrefuse":5045,"Ġresponsibility":5046,"icked":5047,"Ġstage":5048,"Ġsecret":5049,"Ġwild":5050,"Ġpers":5051,"Ġplaza":5052,"Ġrack":5053,"Ġtrade":5054,"Ġcos":5055,"Ġjoy":5056,"Ġsending":5057,"Ġcreated":5058,"Ġinstructions":5059,"Ġstomach":5060,"Ġdut":5061,"ache":5062,"Ġwis":5063,"Ġbless":5064,"Ġprofessionals":5065,"Ġrecogn":5066,"Ġchipot":5067,"uing":5068,"Ġlegal":5069,"Ġcollect":5070,"Ġcomplaining":5071,"Ġq":5072,"Ġbubble":5073,"Ġcondescending":5074,"Ġshoulder":5075,"Ġcrappy":5076,"Ġgifts":5077,"Ġmeasure":5078,"Ġcaramel":5079,"Ġresort":5080,"Ġselect":5081,"Ġassume":5082,"Ġdeserves":5083,"Ġmerchand":5084,"Ġpenny":5085,"Ġpickup":5086,"Ġbehavior":5087,"Ġpos":5088,"Ġadvertised":5089,"Ġlanguage":5090,"itions":5091,"Ġskill":5092,"Ġartists":5093,"mary":5094,"Ġdine":5095,"Ġstale":5096,"ordered":5097,"Ġfortun":5098,"Ġly":5099,"Ġdiss":5100,"Ġtoys":5101,"Ġscar":5102,"Ġwrapped":5103,"Ġacknowledge":5104,"Ġhaw":5105,"Ġlikes":5106,"igning":5107,"Ġhappening":5108,"Ġincludes":5109,"Ġmais":5110,"loc":5111,"Ġbrian":5112,"gant":5113,"atives":5114,"Ġbay":5115,"Ġlicense":5116,"Ġfingers":5117,"Ġsett":5118,"Ġgroups":5119,"ham":5120,"Ġreschedule":5121,"Ġblind":5122,"Ġbackground":5123,"Ġinvent":5124,"Ġyellow":5125,"Ġmagic":5126,"Ġamazed":5127,"Ġstopping":5128,"Ġapprox":5129,"Ġspinach":5130,"Ġchipotle":5131,"Ġblend":5132,"Ġrealtor":5133,"ston":5134,"Ġrow":5135,"Ġcab":5136,"Ġbills":5137,"Ġroasted":5138,"Ġespresso":5139,"Ġques":5140,"Ġunhappy":5141,"Ġbuyer":5142,"Ġrom":5143,"imp":5144,"Ġrudely":5145,"Ġmi":5146,"Ġlibr":5147,"Ġamen":5148,"Ġrele":5149,"Ġskip":5150,"Ġstret":5151,"cue":5152,"Ġseve":5153,"rict":5154,"alo":5155,"ris":5156,"Ġextensions":5157,"outs":5158,"Ġshellac":5159,"uary":5160,"Ġflooring":5161,"Ġcontractor":5162,"Ġident":5163,"Ġattract":5164,"Ġpancakes":5165,"oured":5166,"Ġmayo":5167,"Ġguarantee":5168,"mi":5169,"Ġsink":5170,"Ġpine":5171,"Ġclue":5172,"Ġdrivers":5173,"Ġcups":5174,"Ġwaxing":5175,"iment":5176,"Ġgreens":5177,"Ġaggress":5178,"beat":5179,"Ġexpertise":5180,"Ġadding":5181,"Ġrelated":5182,"Ġlessons":5183,"Ġconv":5184,"Ġunw":5185,"Ġlevels":5186,"Ġveter":5187,"Ġcrit":5188,"Ġremoval":5189,"Ġstylists":5190,"Ġspir":5191,"Ġcleanliness":5192,"ribly":5193,"Ġvietnamese":5194,"Ġfount":5195,"Ġpresented":5196,"Ġcopy":5197,"Ġboss":5198,"itty":5199,"Ġloving":5200,"aret":5201,"shield":5202,"Ġvill":5203,"Ġsen":5204,"Ġpill":5205,"Ġends":5206,"Ġfacebook":5207,"Ġpainful":5208,"Ġspectacular":5209,"Ġapply":5210,"Ġflag":5211,"worthy":5212,"Ġrespectful":5213,"rious":5214,"Ġshift":5215,"ules":5216,"Ġshortly":5217,"Ġpap":5218,"Ġsupervisor":5219,"Ġwindshield":5220,"Ġmiche":5221,"sters":5222,"Ġmeatball":5223,"Ġvict":5224,"Ġbrisket":5225,"Ġenjoying":5226,"Ġscared":5227,"you":5228,"Ġpure":5229,"Ġbreast":5230,"Ġpepperoni":5231,"Ġslo":5232,"Ġric":5233,"Ġshawarma":5234,"Ġbanana":5235,"Ġunne":5236,"Ġbuck":5237,"Ġdepending":5238,"kins":5239,"Ġrud":5240,"Ġplatter":5241,"Ġaction":5242,"hus":5243,"ignment":5244,"Ġcin":5245,"Ġhrs":5246,"Ġopted":5247,"Ġtony":5248,"Ġnumbers":5249,"Ġclaims":5250,"Ġwaffle":5251,"Ġrisk":5252,"riger":5253,"Ġrocks":5254,"logy":5255,"Ġmerchandise":5256,"sey":5257,"Ġallerg":5258,"Ġdecorated":5259,"Ġinjury":5260,"Ġyounger":5261,"mans":5262,"Ġshar":5263,"Ġexter":5264,"Ġbrows":5265,"Ġvoicemail":5266,"Ġpath":5267,"Ġthankfully":5268,"Ġanybody":5269,"Ġblame":5270,"Ġrefriger":5271,"Ġbarbers":5272,"Ġacted":5273,"pleas":5274,"Ġnicest":5275,"wal":5276,"Ġinfe":5277,"Ġreminded":5278,"Ġirrit":5279,"iff":5280,"Ġwit":5281,"Ġfle":5282,"ama":5283,"Ġambience":5284,"Ġaccurate":5285,"fy":5286,"Ġputs":5287,"Ġmushroom":5288,"ips":5289,"Ġalternative":5290,"Ġinsp":5291,"law":5292,"Ġquar":5293,"Ġfranch":5294,"Ġintegrity":5295,"Ġnick":5296,"Ġpremium":5297,"Ġnachos":5298,"Ġhooked":5299,"Ġcarr":5300,"Ġchem":5301,"Ġhend":5302,"Ġaspect":5303,"Ġlapt":5304,"ora":5305,"verse":5306,"Ġskilled":5307,"Ġprime":5308,"Ġloaded":5309,"Ġholes":5310,"Ġadults":5311,"Ġunbelievable":5312,"Ġfinger":5313,"Ġlistens":5314,"Ġresident":5315,"Ġexceeded":5316,"Ġbites":5317,"Ġcarpets":5318,"Ġmesa":5319,"Ġcaes":5320,"Ġwing":5321,"Ġlistening":5322,"entially":5323,"Ġscratch":5324,"ervice":5325,"iy":5326,"Ġiphone":5327,"otten":5328,"Ġtas":5329,"ata":5330,"dden":5331,"Ġdirection":5332,"yed":5333,"Ġnope":5334,"ufact":5335,"jo":5336,"Ġber":5337,"Ġmenus":5338,"Ġpeanut":5339,"Ġtopped":5340,"Ġattending":5341,"yard":5342,"Ġholding":5343,"Ġmuff":5344,"Ġqui":5345,"Ġcalam":5346,"Ġplants":5347,"Ġsi":5348,"Ġmanufact":5349,"mbered":5350,"mus":5351,"Ġpractices":5352,"Ġguide":5353,"Ġdancing":5354,"Ġsudden":5355,"Ġrecommending":5356,"Ġfeb":5357,"nn":5358,"Ġtrainer":5359,"Ġimproved":5360,"Ġlisa":5361,"Ġrelationship":5362,"husi":5363,"Ġhun":5364,"Ġdecl":5365,"pan":5366,"Ġbtw":5367,"Ġsash":5368,"Ġremembered":5369,"Ġcompassionate":5370,"inated":5371,"Ġund":5372,"Ġabs":5373,"Ġmotiv":5374,"Ġmedicine":5375,"Ġchewy":5376,"corn":5377,"Ġhaha":5378,"Ġled":5379,"Ġsupply":5380,"Ġproof":5381,"Ġwhatso":5382,"Ġchandler":5383,"Ġheater":5384,"Ġattached":5385,"Ġminimal":5386,"Ġpackages":5387,"Ġmountain":5388,"Ġquant":5389,"Ġserves":5390,"idered":5391,"Ġsteps":5392,"Ġsounded":5393,"Ġdescribe":5394,"Ġbikes":5395,"Ġbenefit":5396,"cl":5397,"Ġinn":5398,"Ġformer":5399,"Ġwhatsoever":5400,"Ġrev":5401,"Ġfeedback":5402,"Ġmild":5403,"Ġgrad":5404,"Ġimprovement":5405,"car":5406,"fin":5407,"anted":5408,"Ġger":5409,"atisf":5410,"Ġrenew":5411,"Ġtruth":5412,"Ġrolled":5413,"Ġvendors":5414,"Ġcult":5415,"Ġsets":5416,"Ġtoy":5417,"Ġalot":5418,"Ġfare":5419,"ooks":5420,"Ġcabinets":5421,"Ġweb":5422,"Ġsoy":5423,"Ġvir":5424,"Ġfamiliar":5425,"Ġelectric":5426,"ration":5427,"Ġattempted":5428,"Ġdumplings":5429,"stopped":5430,"ti":5431,"Ġjess":5432,"Ġboots":5433,"Ġreplacing":5434,"olo":5435,"Ġswitched":5436,"Ġbuffalo":5437,"ban":5438,"off":5439,"Ġaccepted":5440,"Ġamenities":5441,"Ġreci":5442,"Ġstains":5443,"Ġdepot":5444,"Ġasap":5445,"zel":5446,"Ġearned":5447,"ope":5448,"Ġgrowing":5449,"Ġbagels":5450,"Ġthread":5451,"Ġerror":5452,"ga":5453,"Ġconditioning":5454,"ptical":5455,"Ġdaycare":5456,"Ġcondo":5457,"Ġfian":5458,"Ġthr":5459,"Ġlegit":5460,"Ġcalamari":5461,"aching":5462,"Ġprepare":5463,"Ġkevin":5464,"Ġkidding":5465,"Ġrenting":5466,"Ġsex":5467,"Ġprofessionally":5468,"rup":5469,"Ġnoon":5470,"Ġwarned":5471,"Ġsashimi":5472,"hill":5473,"ucked":5474,"Ġlayout":5475,"Ġquotes":5476,"Ġprocedures":5477,"Ġapplication":5478,"got":5479,"Ġeverybody":5480,"Ġomelet":5481,"Ġsquee":5482,"Ġcents":5483,"Ġjul":5484,"Ġhr":5485,"Ġgotta":5486,"Ġcommer":5487,"Ġcentre":5488,"Ġtasteless":5489,"Ġenthusi":5490,"Ġdesigned":5491,"Ġbrakes":5492,"aces":5493,"Ġperman":5494,"Ġsatisfaction":5495,"Ġfru":5496,"Ġunre":5497,"lor":5498,"Ġthumbs":5499,"Ġsew":5500,"Ġwhom":5501,"Ġreviewer":5502,"Ġfaster":5503,"Ġginger":5504,"Ġtherefore":5505,"Ġcroiss":5506,"Ġfianc":5507,"Ġcompetent":5508,"Ġlin":5509,"Ġcapt":5510,"Ġjeans":5511,"Ġacceptable":5512,"Ġcontainer":5513,"Ġvoucher":5514,"Ġdude":5515,"roll":5516,"arily":5517,"Ġtrustworthy":5518,"Ġthousands":5519,"Ġsea":5520,"igned":5521,"Ġengage":5522,"Ġrepresentative":5523,"Ġinconvenience":5524,"eral":5525,"utions":5526,"Ġprotect":5527,"Ġinch":5528,"Ġcamera":5529,"manship":5530,"Ġproperties":5531,"Ġappropriate":5532,"Ġlibrary":5533,"Ġshout":5534,"quet":5535,"Ġresolve":5536,"Ġais":5537,"Ġwalks":5538,"Ġownership":5539,"tf":5540,"Ġcomfy":5541,"ators":5542,"Ġtrusted":5543,"Ġfi":5544,"Ġmetro":5545,"itor":5546,"Ġyelled":5547,"Ġpor":5548,"Ġesca":5549,"Ġpushed":5550,"Ġkar":5551,"Ġmeaning":5552,"Ġfitting":5553,"Ġrelief":5554,"Ġpatron":5555,"son":5556,"Ġmechanics":5557,"Ġexecut":5558,"Ġbutt":5559,"Ġavec":5560,"Ġunhe":5561,"Ġsout":5562,"Ġcarne":5563,"Ġcourtesy":5564,"Ġcate":5565,"Ġsoap":5566,"Ġscall":5567,"Ġwes":5568,"Ġtrainers":5569,"Ġgear":5570,"Ġflaw":5571,"Ġconsidered":5572,"Ġfabric":5573,"Ġtheat":5574,"Ġnav":5575,"Ġexcuses":5576,"Ġresolved":5577,"west":5578,"rier":5579,"Ġstressful":5580,"Ġrules":5581,"Ġappears":5582,"llo":5583,"cale":5584,"Ġsoups":5585,"Ġleaking":5586,"Ġscrewed":5587,"Ġhubby":5588,"Ġhenderson":5589,"Ġorth":5590,"Ġtrips":5591,"osis":5592,"Ġtransmission":5593,"Ġbbb":5594,"rom":5595,"Ġtests":5596,"Ġjames":5597,"Ġpurchases":5598,"Ġheads":5599,"Ġbowls":5600,"Ġpassionate":5601,"Ġtemperature":5602,"Ġpurpose":5603,"Ġprevent":5604,"Ġcrunchy":5605,"Ġjanuary":5606,"Ġunivers":5607,"Ġcentral":5608,"athy":5609,"Ġencourage":5610,"Ġdisrespectful":5611,"Ġreb":5612,"Ġdeterm":5613,"Ġseasoning":5614,"Ġrays":5615,"Ġchees":5616,"Ġchallenging":5617,"Ġlaptop":5618,"Ġoz":5619,"Ġshamp":5620,"Ġauthor":5621,"Ġgum":5622,"Ġhummus":5623,"vs":5624,"Ġfiled":5625,"ober":5626,"Ġbarist":5627,"Ġfinancial":5628,"Ġgrabbed":5629,"Ġadvertise":5630,"Ġvillage":5631,"Ġfans":5632,"Ġhotels":5633,"Ġshampoo":5634,"Ġintroduced":5635,"Ġbridal":5636,"gi":5637,"lder":5638,"Ġohio":5639,"Ġtraveling":5640,"Ġeffective":5641,"Ġscene":5642,"Ġoctober":5643,"Ġorganization":5644,"Ġjunk":5645,"Ġoverchar":5646,"Ġagency":5647,"Ġtransport":5648,"Ġprojects":5649,"hop":5650,"have":5651,"Ġbreath":5652,"Ġcoord":5653,"Ġpainless":5654,"icking":5655,"Ġoffices":5656,"Ġassess":5657,"Ġtvs":5658,"Ġseal":5659,"Ġpopcorn":5660,"Ġfund":5661,"Ġryan":5662,"Ġcracked":5663,"Ġya":5664,"Ġovercooked":5665,"nie":5666,"Ġsubm":5667,"Ġfalling":5668,"Ġoppos":5669,"Ġbelly":5670,"Ġware":5671,"iances":5672,"gage":5673,"Ġdoc":5674,"Ġphysician":5675,"Ġsigning":5676,"Ġdism":5677,"Ġchallenge":5678,"Ġfired":5679,"Ġeur":5680,"Ġmicro":5681,"Ġinventory":5682,"Ġgelato":5683,"Ġstumbled":5684,"udes":5685,"Ġedge":5686,"lets":5687,"geon":5688,"Ġheaded":5689,"Ġwon":5690,"Ġpil":5691,"amped":5692,"Ġentertainment":5693,"Ġregulars":5694,"pret":5695,"Ġvib":5696,"Ġassumed":5697,"Ġbird":5698,"Ġbackyard":5699,"Ġbuns":5700,"Ġhopes":5701,"Ġworn":5702,"arched":5703,"Ġequally":5704,"iel":5705,"Ġcri":5706,"Ġcigaret":5707,"service":5708,"Ġdecember":5709,"Ġlocks":5710,"Ġcharac":5711,"Ġcarol":5712,"Ġbrings":5713,"super":5714,"Ġcausing":5715,"Ġsyrup":5716,"Ġshown":5717,"Ġcostum":5718,"Ġhash":5719,"Ġimpe":5720,"Ġhills":5721,"Ġomg":5722,"Ġsons":5723,"Ġappliances":5724,"Ġfountain":5725,"Ġeverytime":5726,"person":5727,"Ġpatty":5728,"Ġunfortunate":5729,"Ġalterations":5730,"los":5731,"Ġfilter":5732,"Ġjour":5733,"iously":5734,"old":5735,"Ġunc":5736,"Ġincons":5737,"Ġpeel":5738,"Ġvegetable":5739,"Ġgil":5740,"Ġrout":5741,"Ġinsane":5742,"Ġregist":5743,"Ġsweat":5744,"Ġhighlight":5745,"Ġfalse":5746,"Ġincident":5747,"Ġstren":5748,"unks":5749,"Ġbadly":5750,"Ġsignature":5751,"Ġhood":5752,"Ġasada":5753,"Ġmainly":5754,"Ġwasting":5755,"Ġteach":5756,"Ġshake":5757,"Ġlaug":5758,"Ġdressed":5759,"Ġinvo":5760,"stal":5761,"Ġapproached":5762,"Ġposition":5763,"Ġchoosing":5764,"Ġteaching":5765,"Ġcheesecake":5766,"Ġbust":5767,"Ġtopping":5768,"Ġteas":5769,"Ġunlo":5770,"Ġuneven":5771,"Ġdrunk":5772,"Ġscore":5773,"Ġstatus":5774,"Ġfellow":5775,"Ġtechs":5776,"staff":5777,"Ġlocally":5778,"Ġcompens":5779,"Ġprinted":5780,"Ġfraud":5781,"Ġprovider":5782,"owder":5783,"Ġhat":5784,"Ġchecks":5785,"Ġbump":5786,"Ġparked":5787,"Ġspanish":5788,"oria":5789,"Ġcommunicate":5790,"tom":5791,"Ġnowhere":5792,"Ġignore":5793,"Ġactivities":5794,"Ġunnecessary":5795,"Ġfear":5796,"Ġmacar":5797,"Ġach":5798,"ptions":5799,"Ġtechnicians":5800,"Ġstairs":5801,"Ġdil":5802,"Ġgreatest":5803,"amole":5804,"Ġgran":5805,"Ġsticks":5806,"Ġfocused":5807,"Ġnous":5808,"Ġscrat":5809,"Ġdiagnosed":5810,"Ġsont":5811,"Ġrefills":5812,"Ġsooner":5813,"Ġwaitresses":5814,"Ġoccur":5815,"Ġwitness":5816,"illas":5817,"Ġserviced":5818,"Ġoy":5819,"Ġweak":5820,"Ġspices":5821,"Ġcurt":5822,"Ġmeh":5823,"Ġhonesty":5824,"ronic":5825,"Ġcampus":5826,"Ġacry":5827,"Ġarrangement":5828,"Ġdedicated":5829,"nic":5830,"Ġdeb":5831,"Ġlee":5832,"Ġscan":5833,"Ġcheapest":5834,"Ġlif":5835,"apped":5836,"Ġmeds":5837,"Ġconfirmation":5838,"Ġresponsible":5839,"Ġmichelle":5840,"gon":5841,"Ġdonut":5842,"Ġliquor":5843,"Ġarrangements":5844,"Ġimpecca":5845,"Ġep":5846,"Ġtait":5847,"ugs":5848,"Ġmillion":5849,"Ġguacamole":5850,"Ġacrylic":5851,"Ġdownside":5852,"Ġbelt":5853,"uction":5854,"Ġstepped":5855,"Ġdiscussed":5856,"Ġhawai":5857,"Ġtout":5858,"Ġfiance":5859,"Ġtowel":5860,"hern":5861,"Ġassort":5862,"Ġaddressed":5863,"Ġentering":5864,"Ġpissed":5865,"Ġreferral":5866,"Ġow":5867,"ilian":5868,"Ġbrocc":5869,"Ġshipped":5870,"Ġasse":5871,"Ġcru":5872,"ification":5873,"Ġdirector":5874,"Ġjenn":5875,"Ġpip":5876,"Ġdans":5877,"Ġscreens":5878,"Ġlying":5879,"Ġperformance":5880,"Ġchemical":5881,"Ġtall":5882,"des":5883,"Ġchiropractor":5884,"Ġsteam":5885,"Ġgolden":5886,"Ġfranchise":5887,"Ġappeal":5888,"Ġviol":5889,"Ġyrs":5890,"Ġcaf":5891,"Ġindepend":5892,"Ġdownstairs":5893,"Ġlasted":5894,"Ġopposite":5895,"Ġages":5896,"Ġcheckout":5897,"Ġmetal":5898,"Ġamerica":5899,"zing":5900,"Ġbs":5901,"hold":5902,"Ġolive":5903,"overy":5904,"Ġgrade":5905,"ĠĠĠĠĠĠĠĠĠĠĠĠĠĠĠĠĠĠĠĠĠĠĠĠĠĠĠĠĠĠĠĠ":5906,"Ġwip":5907,"Ġreviewers":5908,"Ġesc":5909,"Ġeyel":5910,"Ġmicrowave":5911,"Ġvip":5912,"Ġfalaf":5913,"Ġvs":5914,"ww":5915,"Ġcertific":5916,"Ġreass":5917,"Ġmetho":5918,"Ġapplied":5919,"Ġexterior":5920,"iyaki":5921,"Ġwtf":5922,"Ġpam":5923,"Ġmaterials":5924,"Ġunfriendly":5925,"Ġoriented":5926,"Ġconveniently":5927,"Ġupper":5928,"Ġcous":5929,"Ġgroomer":5930,"Ġjosh":5931,"Ġdishonest":5932,"Ġhundreds":5933,"Ġcub":5934,"Ġthus":5935,"Ġsomebody":5936,"Ġpayments":5937,"Ġskeptical":5938,"Ġlash":5939,"Ġstations":5940,"Ġah":5941,"arm":5942,"Ġspecialist":5943,"Ġhighest":5944,"Ġcompetition":5945,"Ġnev":5946,"Ġsmoothly":5947,"Ġchatting":5948,"Ġnuts":5949,"Ġtele":5950,"Ġsmoothies":5951,"Ġsky":5952,"Ġaggressive":5953,"vd":5954,"rid":5955,"Ġmuse":5956,"Ġbraz":5957,"Ġwines":5958,"Ġhiring":5959,"Ġgoat":5960,"Ġupscale":5961,"Ġraised":5962,"ele":5963,"Ġoutlet":5964,"Ġrobert":5965,"Ġsmiles":5966,"Ġprimary":5967,"Ġcashiers":5968,"field":5969,"Ġdrain":5970,"ox":5971,"Ġtaught":5972,"always":5973,"onda":5974,"than":5975,"ĠĠĠĠĠĠĠ":5976,"azz":5977,"Ġdentists":5978,"Ġsticky":5979,"Ġtrick":5980,"Ġproud":5981,"ulty":5982,"Ġtops":5983,"ember":5984,"aked":5985,"Ġcoach":5986,"Ġtenant":5987,"ologetic":5988,"Ġbroccoli":5989,"nis":5990,"oti":5991,"Ġhappily":5992,"Ġcarefully":5993,"Ġoutra":5994,"pected":5995,"Ġpolitely":5996,"Ġdesigner":5997,"Ġconstant":5998,"Ġseptember":5999,"lass":6000,"asp":6001,"gging":6002,"Ġstands":6003,"Ġcheer":6004,"Ġburritos":6005,"Ġcinnam":6006,"Ġkat":6007,"Ġcam":6008,"Ġou":6009,"Ġheck":6010,"Ġdisappe":6011,"Ġsuggestion":6012,"Ġmelted":6013,"Ġdocument":6014,"Ġsprink":6015,"Ġsensitive":6016,"yy":6017,"Ġcuc":6018,"Ġmassive":6019,"mony":6020,"Ġexercise":6021,"Ġrick":6022,"Ġpriority":6023,"Ġlawyer":6024,"Ġrepeatedly":6025,"entious":6026,"Ġupfront":6027,"Ġlawn":6028,"Ġindeed":6029,"Ġpineapp":6030,"Ġnaan":6031,"Ġtrucks":6032,"Ġvous":6033,"Ġcere":6034,"Ġshuttle":6035,"Ġchina":6036,"Ġwaffles":6037,"Ġapproved":6038,"Ġpit":6039,"Ġflavourful":6040,"Ġmajority":6041,"Ġduty":6042,"Ġcinnamon":6043,"Ġos":6044,"Ġjala":6045,"Ġcav":6046,"plant":6047,"Ġsetup":6048,"Ġsells":6049,"Ġdistrict":6050,"Ġcore":6051,"orary":6052,"Ġconvin":6053,"uffy":6054,"Ġflower":6055,"Ġlatest":6056,"Ġhouses":6057,"pleasant":6058,"Ġarriving":6059,"Ġultimately":6060,"Ġlandscaping":6061,"Ġcatering":6062,"adas":6063,"Ġguit":6064,"Ġmustard":6065,"Ġbrake":6066,"Ġoverl":6067,"Ġjacket":6068,"Ġelectrical":6069,"Ġresto":6070,"Ġsmiling":6071,"Ġwallet":6072,"Ġdumb":6073,"Ġwasnt":6074,"antic":6075,"Ġoperation":6076,"Ġmars":6077,"ifer":6078,"Ġmanufacture":6079,"Ġnevada":6080,"Ġunus":6081,"Ġdelightful":6082,"Ġapt":6083,"Ġboat":6084,"oc":6085,"eding":6086,"Ġurgent":6087,"ndays":6088,"Ġlocals":6089,"Ġsuperior":6090,"Ġsteamed":6091,"Ġplumber":6092,"order":6093,"Ġsoul":6094,"Ġhint":6095,"Ġron":6096,"Ġspark":6097,"Ġlaughing":6098,"Ġtechno":6099,"Ġadmin":6100,"Ġbeach":6101,"Ġcomparable":6102,"Ġvine":6103,"Ġsouthern":6104,"can":6105,"erie":6106,"Ġisland":6107,"Ġsuite":6108,"Ġinstantly":6109,"Ġsecure":6110,"Ġhealing":6111,"Ġdescribed":6112,"Ġdegrees":6113,"Ġlets":6114,"Ġpools":6115,"Ġmarried":6116,"Ġinfl":6117,"Ġacknowledged":6118,"Ġsno":6119,"Ġgrease":6120,"Ġdenied":6121,"Ġeducation":6122,"Ġpassing":6123,"ek":6124,"Ġrestroom":6125,"Ġamazingly":6126,"Ġdesired":6127,"Ġindoor":6128,"Ġtanning":6129,"Ġcaesar":6130,"Ġbrides":6131,"Ġmuseum":6132,"ais":6133,"Ġbent":6134,"Ġboring":6135,"llar":6136,"Ġmortgage":6137,"ws":6138,"Ġclock":6139,"Ġtermin":6140,"Ġsketch":6141,"Ġjuices":6142,"mont":6143,"Ġkara":6144,"Ġadvent":6145,"Ġblocks":6146,"hib":6147,"oh":6148,"Ġrust":6149,"Ġbasement":6150,"Ġtitle":6151,"Ġmint":6152,"Ġadop":6153,"atory":6154,"Ġshred":6155,"Ġnurses":6156,"tion":6157,"Ġrated":6158,"Ġlos":6159,"Ġscoop":6160,"iche":6161,"Ġsuns":6162,"Ġcontinues":6163,"Ġstories":6164,"Ġsuits":6165,"Ġtries":6166,"bal":6167,"Ġstun":6168,"Ġreserved":6169,"Ġeater":6170,"Ġnov":6171,"Ġade":6172,"Ġheading":6173,"town":6174,"Ġcontacts":6175,"Ġpregnant":6176,"lend":6177,"Ġfactory":6178,"Ġsight":6179,"Ġnu":6180,"Ġsliced":6181,"Ġgreeting":6182,"Ġassisted":6183,"Ġmashed":6184,"Ġagreement":6185,"istic":6186,"Ġdipping":6187,"Ġcontractors":6188,"Ġhygienist":6189,"Ġunpleasant":6190,"Ġinsult":6191,"Ġsurf":6192,"Ġses":6193,"Ġseam":6194,"Ġgoals":6195,"Ġcommit":6196,"Ġworkouts":6197,"Ġjoin":6198,"Ġscrub":6199,"Ġstretch":6200,"Ġtiss":6201,"Ġeager":6202,"Ġnove":6203,"icate":6204,"Ġgreatly":6205,"Ġrubber":6206,"Ġoverwhelming":6207,"Ġpineapple":6208,"Ġbrus":6209,"Ġeric":6210,"asm":6211,"ste":6212,"Ġteriyaki":6213,"Ġtrailer":6214,"Ġshelves":6215,"Ġsalesperson":6216,"Ġimpeccable":6217,"Ġhaircuts":6218,"Ġcoverage":6219,"Ġcomparison":6220,"Ġdegree":6221,"Ġip":6222,"Ġsin":6223,"acle":6224,"Ġcanal":6225,"Ġhandling":6226,"Ġmessy":6227,"Ġrefrigerator":6228,"ulting":6229,"Ġmarked":6230,"Ġmand":6231,"Ġthrown":6232,"Ġquantity":6233,"bon":6234,"Ġlosing":6235,"ait":6236,"Ġgrac":6237,"Ġwondering":6238,"Ġadorable":6239,"Ġadmitted":6240,"Ġgilbert":6241,"Ġsole":6242,"Ġescape":6243,"del":6244,"Ġdownhill":6245,"Ġuniversity":6246,"bow":6247,"Ġclim":6248,"Ġriver":6249,"Ġarts":6250,"fish":6251,"aine":6252,"Ġarms":6253,"Ġnegoti":6254,"Ġcoles":6255,"Ġcancer":6256,"Ġextended":6257,"Ġblew":6258,"Ġconnect":6259,"Ġay":6260,"Ġguard":6261,"Ġdesigns":6262,"Ġblah":6263,"Ġdropping":6264,"Ġfaces":6265,"Ġpreferred":6266,"Ġgloves":6267,"Ġdeclined":6268,"loved":6269,"Ġtrop":6270,"Ġcloset":6271,"Ġradio":6272,"Ġstudy":6273,"Ġnature":6274,"Ġchop":6275,"Ġentirely":6276,"Ġtechnique":6277,"Ġmovies":6278,"Ġrv":6279,"izon":6280,"Ġprec":6281,"Ġfinishing":6282,"cles":6283,"Ġphil":6284,"Ġcardio":6285,"Ġnovember":6286,"Ġlam":6287,"berries":6288,"Ġunex":6289,"Ġcutic":6290,"Ġclubs":6291,"Ġwarehouse":6292,"Ġlaughed":6293,"Ġoutrage":6294,"Ġhel":6295,"Ġreturns":6296,"Ġtil":6297,"Ġwhoever":6298,"Ġkelly":6299,"Ġburned":6300,"light":6301,"Ġinches":6302,"Ġunf":6303,"Ġcraig":6304,"Ġdesperate":6305,"Ġcoleslaw":6306,"Ġclassy":6307,"Ġdiscover":6308,"Ġtoasted":6309,"lie":6310,"eness":6311,"Ġanth":6312,"Ġpics":6313,"Ġhookah":6314,"Ġcit":6315,"Ġelder":6316,"Ġashley":6317,"Ġstain":6318,"usive":6319,"Ġactive":6320,"Ġintimate":6321,"Ġlimit":6322,"Ġpairs":6323,"Ġwestern":6324,"Ġcontacting":6325,"Ġfalafel":6326,"Ġtoes":6327,"Ġgrown":6328,"Ġofferings":6329,"Ġcertified":6330,"Ġgour":6331,"Ġhut":6332,"unte":6333,"mmm":6334,"Ġexpired":6335,"Ġanxiety":6336,"Ġoli":6337,"Ġpra":6338,"Ġfuel":6339,"Ġwanna":6340,"Ġlime":6341,"Ġchunks":6342,"Ġscary":6343,"Ġsharing":6344,"Ġselected":6345,"Ġmiser":6346,"Ġbooths":6347,"Ġowe":6348,"Ġpud":6349,"Ġintim":6350,"Ġmaintain":6351,"Ġwraps":6352,"isy":6353,"Ġleasing":6354,"Ġstellar":6355,"Ġbabies":6356,"Ġinvoice":6357,"Ġliking":6358,"Ġtreating":6359,"Ġgrounds":6360,"Ġbree":6361,"Ġnar":6362,"Ġdisaster":6363,"Ġturning":6364,"Ġpulling":6365,"Ġsupposedly":6366,"Ġcherry":6367,"Ġtoss":6368,"Ġoutcome":6369,"Ġinterview":6370,"Ġcases":6371,"Ġviews":6372,"Ġtu":6373,"ointed":6374,"Ġclar":6375,"Ġsooo":6376,"lig":6377,"Ġshopped":6378,"Ġtune":6379,"Ġlifet":6380,"Ġgrew":6381,"Ġtechniques":6382,"Ġrap":6383,"Ġveal":6384,"Ġbreaking":6385,"Ġdraft":6386,"Ġnerve":6387,"olen":6388,"Ġrefunded":6389,"Ġstrength":6390,"Ġsolutions":6391,"Ġmcdonalds":6392,"rors":6393,"Ġlies":6394,"Ġrescue":6395,"Ġsenior":6396,"Ġbever":6397,"Ġargue":6398,"Ġguarante":6399,"ota":6400,"Ġhal":6401,"Ġtortilla":6402,"Ġmatters":6403,"Ġachie":6404,"Ġyr":6405,"Ġarro":6406,"ruary":6407,"Ġpastry":6408,"Ġgeorge":6409,"Ġhesitant":6410,"Ġpharmac":6411,"Ġvolunte":6412,"vet":6413,"hanie":6414,"istent":6415,"Ġchains":6416,"Ġquesad":6417,"Ġlifetime":6418,"oon":6419,"Ġexha":6420,"Ġshelf":6421,"Ġkud":6422,"Ġcourses":6423,"Ġdanger":6424,"Ġmirror":6425,"Ġquarter":6426,"fantastic":6427,"Ġroyal":6428,"Ġsteaks":6429,"Ġtreas":6430,"Ġattendant":6431,"Ġboba":6432,"Ġfebruary":6433,"Ġnotes":6434,"Ġbutton":6435,"ivity":6436,"Ġeurope":6437,"Ġspare":6438,"Ġpedicures":6439,"Ġsettled":6440,"yes":6441,"Ġfet":6442,"Ġwendy":6443,"Ġadam":6444,"Ġquit":6445,"lers":6446,"ico":6447,"Ġamazon":6448,"Ġeastern":6449,"mean":6450,"ulate":6451,"Ġbride":6452,"Ġscreaming":6453,"Ġadditionally":6454,"edy":6455,"Ġbreaks":6456,"Ġfestival":6457,"Ġdeath":6458,"Ġsheet":6459,"ava":6460,"Ġhandy":6461,"Ġpc":6462,"orter":6463,"Ġtalent":6464,"airy":6465,"Ġfamous":6466,"lessly":6467,"Ġcupcake":6468,"Ġtouched":6469,"Ġjessica":6470,"Ġdied":6471,"Ġlacked":6472,"Ġconsistency":6473,"Ġketch":6474,"Ġlip":6475,"Ġdelish":6476,"Ġtrendy":6477,"market":6478,"Ġsevere":6479,"Ġfruits":6480,"onge":6481,"quate":6482,"Ġours":6483,"Ġshock":6484,"Ġthrowing":6485,"ba":6486,"otic":6487,"ros":6488,"Ġalmond":6489,"Ġallows":6490,"Ġeducated":6491,"Ġchiropractic":6492,"Ġlbs":6493,"Ġjennifer":6494,"Ġsongs":6495,"ann":6496,"Ġfrost":6497,"Ġketchup":6498,"Ġmur":6499,"Ġboun":6500,"Ġconcl":6501,"hand":6502,"anged":6503,"imited":6504,"Ġcoke":6505,"Ġgladly":6506,"Ġdiagnosis":6507,"Ġguid":6508,"Ġconversations":6509,"Ġstolen":6510,"Ġlog":6511,"Ġforgotten":6512,"atisfied":6513,"Ġcommercial":6514,"Ġengagement":6515,"Ġdairy":6516,"Ġspoken":6517,"going":6518,"Ġlabel":6519,"Ġvolume":6520,"Ġdates":6521,"Ġheating":6522,"Ġvit":6523,"Ġeggplant":6524,"Ġexhaust":6525,"Ġaest":6526,"Ġbf":6527,"Ġmilitary":6528,"Ġdocuments":6529,"Ġfeatures":6530,"Ġhandful":6531,"Ġpractically":6532,"bread":6533,"Ġmelt":6534,"Ġdemean":6535,"Ġdisgusted":6536,"Ġceremony":6537,"Ġrede":6538,"Ġlastly":6539,"Ġbug":6540,"Ġnecess":6541,"Ġwaiters":6542,"Ġsupporting":6543,"Ġreim":6544,"Ġprop":6545,"Ġupdates":6546,"Ġcoast":6547,"aky":6548,"Ġprinting":6549,"Ġembarrassed":6550,"oned":6551,"Ġsuccessful":6552,"Ġcostco":6553,"Ġheadache":6554,"Ġgradu":6555,"oma":6556,"mel":6557,"Ġchi":6558,"Ġminus":6559,"Ġtempura":6560,"Ġtad":6561,"ingy":6562,"Ġoak":6563,"Ġish":6564,"Ġuber":6565,"Ġkab":6566,"Ġbang":6567,"Ġapproximately":6568,"tr":6569,"Ġsher":6570,"rig":6571,"Ġunion":6572,"Ġcircle":6573,"Ġrecovery":6574,"Ġdiscounts":6575,"Ġpermanent":6576,"Ġgourmet":6577,"Ġjon":6578,"Ġcabb":6579,"Ġsurgeon":6580,"Ġparticip":6581,"Ġstatement":6582,"Ġtho":6583,"Ġbasil":6584,"Ġmarketing":6585,"oot":6586,"Ġbm":6587,"Ġdefect":6588,"Ġlenses":6589,"Ġdy":6590,"Ġbeverage":6591,"uled":6592,"Ġchase":6593,"Ġtremend":6594,"Ġunlimited":6595,"Ġreimbur":6596,"eries":6597,"Ġbrazilian":6598,"Ġwhis":6599,"Ġfrustration":6600,"ems":6601,"ser":6602,"took":6603,"sell":6604,"cers":6605,"Ġfence":6606,"Ġpace":6607,"Ġkrist":6608,"Ġstaffed":6609,"Ġkindness":6610,"Ġluxury":6611,"mark":6612,"acha":6613,"Ġnose":6614,"Ġremote":6615,"ending":6616,"Ġbrief":6617,"Ġappearance":6618,"Ġinfection":6619,"Ġcharacter":6620,"owing":6621,"Ġeats":6622,"Ġlayers":6623,"Ġbelongings":6624,"Ġelderly":6625,"rend":6626,"Ġtheme":6627,"Ġforce":6628,"Ġsofa":6629,"Ġquaint":6630,"Ġannual":6631,"Ġexplains":6632,"Ġtesting":6633,"Ġwarn":6634,"Ġinteraction":6635,"Ġbeside":6636,"Ġnational":6637,"Ġwalgre":6638,"Ġsloppy":6639,"icip":6640,"Ġjoints":6641,"Ġspirit":6642,"Ġkudos":6643,"bl":6644,"valu":6645,"Ġnapkins":6646,"Ġconvinced":6647,"Ġwire":6648,"Ġcharming":6649,"Ġadvertising":6650,"Ġft":6651,"Ġmedia":6652,"Ġcorrected":6653,"under":6654,"Ġbuddy":6655,"Ġreminds":6656,"Ġoccup":6657,"Ġexpen":6658,"Ġknee":6659,"Ġridiculously":6660,"Ġjac":6661,"inte":6662,"Ġgyms":6663,"Ġslaw":6664,"ucc":6665,"Ġidiot":6666,"Ġassuming":6667,"Ġtape":6668,"Ġphilly":6669,"ensive":6670,"Ġvalu":6671,"Ġbien":6672,"Ġont":6673,"Ġessentially":6674,"za":6675,"Ġpushing":6676,"Ġears":6677,"vern":6678,"Ġuseless":6679,"Ġjose":6680,"Ġfaith":6681,"Ġbarg":6682,"Ġpear":6683,"hard":6684,"Ġcree":6685,"Ġpopped":6686,"Ġprix":6687,"Ġfacials":6688,"Ġsignificant":6689,"Ġlv":6690,"Ġstephanie":6691,"liest":6692,"liance":6693,"irsty":6694,"Ġentry":6695,"ife":6696,"Ġhonda":6697,"Ġharass":6698,"Ġfunction":6699,"Ġnoted":6700,"ula":6701,"Ġmarks":6702,"Ġclientele":6703,"Ġoily":6704,"ius":6705,"like":6706,"Ġtheatre":6707,"acked":6708,"Ġefficiently":6709,"venue":6710,"Ġsettle":6711,"igate":6712,"Ġintimid":6713,"Ġdread":6714,"Ġheated":6715,"stay":6716,"Ġreflect":6717,"Ġample":6718,"Ġdisorganized":6719,"Ġcurly":6720,"Ġphotography":6721,"Ġbumper":6722,"inate":6723,"Ġatm":6724,"Ġamy":6725,"Ġmoves":6726,"Ġtowed":6727,"Ġconcert":6728,"Ġfax":6729,"Ġappliance":6730,"Ġgentlemen":6731,"ario":6732,"Ġadjustments":6733,"der":6734,"Ġannivers":6735,"Ġunexpected":6736,"Ġine":6737,"Ġug":6738,"Ġprofit":6739,"Ġpatiently":6740,"Ġedible":6741,"Ġvendor":6742,"Ġrecall":6743,"Ġcraw":6744,"Ġpromises":6745,"Ġmemorable":6746,"Ġstruct":6747,"Ġexcess":6748,"Ġimmediate":6749,"Ġaccessible":6750,"Ġreputation":6751,"Ġgreg":6752,"Ġflying":6753,"Ġtissue":6754,"Ġbare":6755,"Ġpeak":6756,"Ġattempts":6757,"Ġholidays":6758,"Ġcomplicated":6759,"Ġore":6760,"Ġtexted":6761,"Ġprescriptions":6762,"Ġvape":6763,"lpful":6764,"Ġplanet":6765,"Ġcertificate":6766,"Ġsesame":6767,"isions":6768,"Ġalignment":6769,"Ġmidnight":6770,"Ġsatisfying":6771,"nut":6772,"itors":6773,"Ġbear":6774,"Ġtears":6775,"Ġtucked":6776,"Ġreviewed":6777,"Ġconfusing":6778,"Ġford":6779,"Ġapologetic":6780,"Ġsketchy":6781,"Ġpressed":6782,"Ġlan":6783,"Ġthinks":6784,"Ġench":6785,"Ġprocessed":6786,"Ġprotein":6787,"Ġcrying":6788,"Ġknock":6789,"Ġconnected":6790,"Ġtransferred":6791,"Ġreloc":6792,"ida":6793,"Ġbrush":6794,"Ġsteel":6795,"Ġcuz":6796,"Ġkaraoke":6797,"vo":6798,"Ġlimo":6799,"Ġweekday":6800,"Ġgrat":6801,"Ġanticip":6802,"Ġanthony":6803,"Ġfif":6804,"atically":6805,"Ġdeck":6806,"Ġmozz":6807,"Ġpickles":6808,"Ġideal":6809,"Ġhoped":6810,"Ġgroceries":6811,"Ġnyc":6812,"py":6813,"Ġcast":6814,"Ġflood":6815,"Ġinterrupt":6816,"Ġlaws":6817,"Ġreported":6818,"Ġhesitation":6819,"Ġdismiss":6820,"Ġtechnology":6821,"ront":6822,"Ġworkmanship":6823,"rences":6824,"gal":6825,"Ġyo":6826,"ases":6827,"Ġnotified":6828,"Ġstays":6829,"never":6830,"Ġjay":6831,"Ġluke":6832,"Ġincrease":6833,"Ġmargarita":6834,"Ġcvs":6835,"Ġperm":6836,"Ġgrey":6837,"ctic":6838,"Ġcanceled":6839,"Ġfrankly":6840,"Ġseeking":6841,"ano":6842,"Ġjes":6843,"Ġtherapists":6844,"Ġpig":6845,"logist":6846,"Ġenchil":6847,"Ġast":6848,"Ġoverd":6849,"Ġfluffy":6850,"Ġexciting":6851,"Ġconditions":6852,"eria":6853,"Ġbubb":6854,"overs":6855,"Ġcancell":6856,"Ġmeatballs":6857,"Ġthom":6858,"onne":6859,"Ġextract":6860,"Ġmemories":6861,"yi":6862,"Ġnc":6863,"Ġrasp":6864,"Ġregards":6865,"Ġfilet":6866,"ila":6867,"Ġuncle":6868,"Ġfiling":6869,"Ġshoulders":6870,"Ġexisting":6871,"Ġpun":6872,"Ġtoward":6873,"zed":6874,"Ġevalu":6875,"Ġhardware":6876,"Ġmiserable":6877,"era":6878,"iano":6879,"form":6880,"Ġcrepe":6881,"Ġraise":6882,"Ġtattoos":6883,"Ġcrossfit":6884,"Ġoverwhelmed":6885,"Ġguitar":6886,"dated":6887,"Ġfits":6888,"ashed":6889,"Ġemot":6890,"sas":6891,"Ġjimmy":6892,"inos":6893,"Ġlane":6894,"ghter":6895,"Ġath":6896,"Ġsarah":6897,"store":6898,"Ġmemor":6899,"Ġacup":6900,"Ġundercooked":6901,"Ġpolic":6902,"Ġmeticulous":6903,"Ġmagaz":6904,"Ġoutrageous":6905,"heart":6906,"ounter":6907,"Ġpies":6908,"Ġexhib":6909,"ctional":6910,"Ġblank":6911,"Ġshade":6912,"Ġoccasionally":6913,"delicious":6914,"Ġolives":6915,"Ġsir":6916,"ural":6917,"Ġscal":6918,"Ġsymptom":6919,"sels":6920,"Ġtwist":6921,"Ġgrace":6922,"Ġslee":6923,"Ġtoddler":6924,"Ġsemi":6925,"Ġadjustment":6926,"Ġbeverages":6927,"Ġsne":6928,"Ġpowder":6929,"Ġhide":6930,"Ġmaple":6931,"Ġguaranteed":6932,"di":6933,"Ġspeaks":6934,"Ġbarre":6935,"Ġparmes":6936,"Ġswear":6937,"nost":6938,"Ġfreaking":6939,"Ġverizon":6940,"ulation":6941,"Ġsheets":6942,"umst":6943,"Ġutil":6944,"Ġbenefits":6945,"Ġpolicies":6946,"itation":6947,"Ġforms":6948,"Ġnoisy":6949,"Ġaccompan":6950,"Ġdistract":6951,"Ġnutr":6952,"Ġtexas":6953,"Ġexpand":6954,"Ġhumor":6955,"Ġfootball":6956,"Ġdestro":6957,"dom":6958,"Ġtask":6959,"Ġcouples":6960,"aren":6961,"Ġdriven":6962,"Ġskew":6963,"ingly":6964,"agne":6965,"Ġrav":6966,"Ġnewly":6967,"Ġcabbage":6968,"tt":6969,"Ġkay":6970,"Ġfold":6971,"Ġdestination":6972,"Ġdated":6973,"Ġcheesy":6974,"Ġtortillas":6975,"Ġunusual":6976,"Ġanniversary":6977,"Ġgoal":6978,"Ġsmith":6979,"hetician":6980,"iece":6981,"Ġgranted":6982,"uga":6983,"Ġdiagnost":6984,"Ġangel":6985,"Ġwhose":6986,"lasses":6987,"Ġshredded":6988,"Ġgut":6989,"Ġjar":6990,"Ġagents":6991,"Ġsource":6992,"Ġparmesan":6993,"Ġflavored":6994,"crete":6995,"Ġsubstit":6996,"fc":6997,"Ġcreek":6998,"Ġrace":6999,"Ġcable":7000,"Ġunderstaff":7001,"Ġpapers":7002,"Ġunhelpful":7003,"Ġwalgreens":7004,"hi":7005,"vey":7006,"Ġgallery":7007,"kers":7008,"Ġstops":7009,"Ġfond":7010,"Ġbrain":7011,"Ġbilled":7012,"Ġcooler":7013,"has":7014,"Ġbitter":7015,"cies":7016,"arella":7017,"Ġsuddenly":7018,"ares":7019,"Ġspag":7020,"Ġsupportive":7021,"Ġencounter":7022,"Ġbid":7023,"Ġacting":7024,"Ġdescription":7025,"Ġswimming":7026,"Ġgf":7027,"Ġgig":7028,"Ġcovers":7029,"Ġfilm":7030,"rian":7031,"Ġtwenty":7032,"Ġowns":7033,"Ġnaturally":7034,"Ġirritated":7035,"Ġassortment":7036,"Ġtab":7037,"Ġpersonnel":7038,"Ġshaved":7039,"Ġpipe":7040,"Ġacupunct":7041,"Ġcran":7042,"Ġicing":7043,"Ġconcrete":7044,"Ġsurrounding":7045,"Ġelevator":7046,"oons":7047,"Ġtact":7048,"Ġcone":7049,"Ġbedside":7050,"hetti":7051,"Ġppl":7052,"ene":7053,"Ġlover":7054,"Ġquestioned":7055,"thank":7056,"pass":7057,"str":7058,"Ġsometime":7059,"Ġthoughtful":7060,"Ġmuscle":7061,"prise":7062,"rr":7063,"Ġlean":7064,"Ġkindly":7065,"Ġdirected":7066,"Ġarranged":7067,"Ġreality":7068,"Ġtheirs":7069,"Ġroute":7070,"will":7071,"Ġadvanced":7072,"Ġcel":7073,"Ġnewer":7074,"ensed":7075,"Ġbreeze":7076,"Ġsake":7077,"Ġmanger":7078,"Ġarc":7079,"Ġexceptionally":7080,"Ġreputable":7081,"Ġmanufacturer":7082,"pretty":7083,"Ġhort":7084,"stone":7085,"Ġexpressed":7086,"Ġcrafts":7087,"Ġhence":7088,"Ġwheels":7089,"Ġassigned":7090,"Ġcolored":7091,"Ġcul":7092,"Ġexcl":7093,"Ġcounty":7094,"Ġmiso":7095,"Ġnetwork":7096,"Ġcosmet":7097,"Ġtruff":7098,"Ġhomeless":7099,"Ġcoworkers":7100,"keep":7101,"Ġvets":7102,"Ġchopped":7103,"Ġculture":7104,"Ġresour":7105,"Ġmemory":7106,"Ġupgraded":7107,"Ġjourney":7108,"Ġfinds":7109,"Ġzone":7110,"Ġsucked":7111,"Ġfeature":7112,"Ġslam":7113,"Ġsystems":7114,"cis":7115,"Ġbure":7116,"Ġroaches":7117,"aps":7118,"Ġexercises":7119,"Ġcroissant":7120,"Ġbarista":7121,"Ġunderstaffed":7122,"Ġandrew":7123,"ori":7124,"ulf":7125,"Ġdaniel":7126,"Ġentertaining":7127,"Ġindependent":7128,"Ġovernight":7129,"Ġaccompl":7130,"Ġfyi":7131,"Ġbrick":7132,"Ġbarbe":7133,"Ġmoments":7134,"Ġbalanced":7135,"Ġmozzarella":7136,"called":7137,"lord":7138,"hab":7139,"Ġouts":7140,"Ġcali":7141,"Ġdirections":7142,"Ġconditioner":7143,"Ġadequate":7144,"Ġfillings":7145,"Ġhighway":7146,"Ġcharm":7147,"Ġfreezer":7148,"Ġpunct":7149,"Ġsupple":7150,"ology":7151,"Ġayce":7152,"dge":7153,"Ġlb":7154,"Ġugly":7155,"Ġspaghetti":7156,"ucking":7157,"otted":7158,"mmmm":7159,"Ġlayer":7160,"Ġsymptoms":7161,"Ġpays":7162,"uster":7163,"Ġpathetic":7164,"Ġspotless":7165,"Ġspoon":7166,"Ġdecisions":7167,"Ġhoa":7168,"Ġsleeping":7169,"acity":7170,"Ġcontr":7171,"Ġchances":7172,"Ġpastor":7173,"Ġslowly":7174,"Ġremoving":7175,"Ġwitnessed":7176,"Ġbist":7177,"omy":7178,"Ġcoin":7179,"Ġstudios":7180,"Ġpresence":7181,"Ġpoke":7182,"Ġacade":7183,"Ġsurely":7184,"Ġsteep":7185,"Ġflorist":7186,"Ġwished":7187,"Ġrenovated":7188,"Ġcoworker":7189,"ju":7190,"Ġoutdated":7191,"Ġjoined":7192,"Ġfalls":7193,"una":7194,"ola":7195,"Ġbecoming":7196,"Ġpressured":7197,"some":7198,"Ġfuck":7199,"Ġlowest":7200,"Ġcooks":7201,"Ġactivity":7202,"Ġcancellation":7203,"Ġcott":7204,"Ġstew":7205,"Ġdeduct":7206,"Ġscallops":7207,"wonder":7208,"Ġpoop":7209,"Ġprove":7210,"Ġvalid":7211,"Ġintention":7212,"Ġfortunately":7213,"Ġlaure":7214,"Ġindicated":7215,"Ġecon":7216,"Ġhaird":7217,"Ġsprouts":7218,"ived":7219,"Ġtrial":7220,"Ġriding":7221,"Ġencouraging":7222,"Ġbmw":7223,"roit":7224,"aura":7225,"Ġbuyers":7226,"Ġrequires":7227,"Ġinstalling":7228,"Ġstran":7229,"Ġterribly":7230,"iki":7231,"Ġpediat":7232,"Ġcabinet":7233,"aced":7234,"Ġum":7235,"Ġalle":7236,"Ġhealthier":7237,"Ġallergies":7238,"Ġsore":7239,"Ġposting":7240,"Ġjohns":7241,"kka":7242,"tried":7243,"illing":7244,"ja":7245,"Ġlately":7246,"Ġchedd":7247,"Ġbits":7248,"Ġbouquet":7249,"Ġpsy":7250,"Ġoysters":7251,"mat":7252,"Ġdur":7253,"Ġstir":7254,"Ġtray":7255,"Ġinstruction":7256,"Ġredo":7257,"Ġverify":7258,"Ġcircumst":7259,"Ġinstaller":7260,"Ġtested":7261,"nings":7262,"otive":7263,"Ġoutlets":7264,"Ġplayground":7265,"Ġcucumber":7266,"Ġbridesma":7267,"kee":7268,"rep":7269,"Ġinject":7270,"washer":7271,"Ġdime":7272,"oid":7273,"Ġdiscounted":7274,"Ġbands":7275,"Ġtiming":7276,"Ġpurse":7277,"Ġcreating":7278,"Ġoperated":7279,"Ġliquid":7280,"Ġarrogant":7281,"Ġwond":7282,"Ġrewards":7283,"Ġweights":7284,"Ġsoc":7285,"Ġreluct":7286,"Ġpromotion":7287,"Ġgranite":7288,"Ġstressed":7289,"Ġnewb":7290,"Ġmatched":7291,"Ġwipe":7292,"Ġgerman":7293,"Ġtoe":7294,"Ġvel":7295,"Ġholly":7296,"Ġworthy":7297,"Ġadjusted":7298,"mother":7299,"Ġsearched":7300,"Ġalarm":7301,"Ġremaining":7302,"Ġignor":7303,"Ġblinds":7304,"Ġcapp":7305,"Ġconfront":7306,"Ġille":7307,"ĠĠĠĊ":7308,"Ġtong":7309,"Ġgary":7310,"Ġvap":7311,"wonderful":7312,"Ġsundays":7313,"Ġconduct":7314,"Ġdishwasher":7315,"Ġattitudes":7316,"Ġjeep":7317,"Ġallowing":7318,"cons":7319,"found":7320,"estyle":7321,"Ġvin":7322,"Ġvisible":7323,"Ġavailability":7324,"otto":7325,"athetic":7326,"Ġrehe":7327,"down":7328,"Ġscri":7329,"Ġleftovers":7330,"Ġmelissa":7331,"Ġlemonade":7332,"Ġpunch":7333,"Ġstrict":7334,"Ġrang":7335,"issauga":7336,"amic":7337,"Ġtear":7338,"Ġbarb":7339,"Ġtowing":7340,"Ġaccidentally":7341,"Ġindividuals":7342,"Ġdisplayed":7343,"Ġpudding":7344,"Ġcheddar":7345,"inct":7346,"Ġthie":7347,"Ġlinda":7348,"Ġunorganized":7349,"ito":7350,"Ġexperiencing":7351,"Ġharder":7352,"Ġseasonal":7353,"ishes":7354,"Ġyonge":7355,"Ġsalted":7356,"Ġtriple":7357,"Ġphysically":7358,"Ġwellness":7359,"berg":7360,"cuits":7361,"Ġbrowse":7362,"yon":7363,"ads":7364,"Ġblan":7365,"Ġcountless":7366,"Ġstrips":7367,"Ġchefs":7368,"Ġstunning":7369,"Ġpint":7370,"Ġhits":7371,"Ġmississauga":7372,"Ġadminist":7373,"Ġparad":7374,"Ġpumpkin":7375,"Ġspaces":7376,"mate":7377,"Ġhem":7378,"iments":7379,"Ġcoaches":7380,"Ġcramped":7381,"Ġremark":7382,"Ġassemb":7383,"gl":7384,"inis":7385,"Ġrave":7386,"chool":7387,"Ġcontemp":7388,"Ġdriveway":7389,"Ġrolling":7390,"Ġhamburger":7391,"Ġbrothers":7392,"Ġsignificantly":7393,"Ġhairdress":7394,"icted":7395,"Ġovers":7396,"Ġpoison":7397,"Ġmisle":7398,"Ġpeaceful":7399,"Ġpee":7400,"Ġyell":7401,"Ġbowling":7402,"Ġsorts":7403,"Ġautomotive":7404,"lyn":7405,"ustom":7406,"Ġexit":7407,"Ġchow":7408,"igent":7409,"Ġfuneral":7410,"Ġvinegar":7411,"Ġgoodies":7412,"pective":7413,"Ġjun":7414,"Ġdesire":7415,"bbie":7416,"Ġiv":7417,"Ġtoler":7418,"Ġcarn":7419,"Ġdentistry":7420,"Ġguidance":7421,"dog":7422,"rane":7423,"ksha":7424,"Ġstarving":7425,"hetto":7426,"Ġfortunate":7427,"Ġheather":7428,"Ġchos":7429,"Ġwatery":7430,"Ġgather":7431,"ria":7432,"Ġlovers":7433,"Ġchor":7434,"bbing":7435,"Ġantib":7436,"Ġsuspect":7437,"Ġko":7438,"Ġjustin":7439,"Ġster":7440,"Ġcarried":7441,"Ġcouches":7442,"Ġmaria":7443,"Ġbened":7444,"Ġtack":7445,"Ġlandlord":7446,"Ġdeciding":7447,"Ġdemeanor":7448,"Ġther":7449,"Ġcc":7450,"Ġgm":7451,"Ġinvestment":7452,"Ġmethod":7453,"Ġdangerous":7454,"ital":7455,"Ġstall":7456,"Ġamanda":7457,"Ġsatisfy":7458,"Ġhospitality":7459,"giving":7460,"gu":7461,"Ġmein":7462,"Ġcave":7463,"Ġcrystal":7464,"Ġbistro":7465,"bi":7466,"Ġkicked":7467,"Ġshorter":7468,"their":7469,"Ġstarter":7470,"Ġpounds":7471,"Ġcleared":7472,"Ġblowing":7473,"Ġtoyota":7474,"Ġedges":7475,"Ġvaluable":7476,"Ġeve":7477,"Ġshowroom":7478,"Ġteller":7479,"uted":7480,"Ġguessing":7481,"Ġscale":7482,"Ġcousin":7483,"Ġpiano":7484,"Ġswing":7485,"Ġinquired":7486,"Ġdispos":7487,"Ġfactor":7488,"Ġdiagnose":7489,"Ġinquire":7490,"Ġratings":7491,"Ġdying":7492,"Ġgam":7493,"Ġsolar":7494,"Ġproceed":7495,"Ġcigar":7496,"Ġugh":7497,"Ġkit":7498,"Ġmagn":7499,"Ġshave":7500,"Ġcomputers":7501,"Ġnarrow":7502,"die":7503,"fall":7504,"hew":7505,"Ġfork":7506,"Ġbuzz":7507,"Ġplacing":7508,"Ġschools":7509,"Ġobt":7510,"Ġgrandmother":7511,"Ġghetto":7512,"ggie":7513,"Ġmath":7514,"Ġpeter":7515,"Ġfurnace":7516,"Ġarguing":7517,"Ġdemo":7518,"Ġshel":7519,"atered":7520,"Ġvale":7521,"Ġtenders":7522,"odont":7523,"Ġincorrectly":7524,"Ġpillows":7525,"Ġbargain":7526,"Ġravi":7527,"Ġpassen":7528,"Ġgeneric":7529,"Ġpersonalized":7530,"Ġprograms":7531,"interest":7532,"mith":7533,"Ġmoon":7534,"Ġhunt":7535,"Ġstaple":7536,"Ġseek":7537,"Ġcarolina":7538,"Ġquesadilla":7539,"Ġadds":7540,"Ġbuildings":7541,"Ġrainbow":7542,"Ġcad":7543,"itter":7544,"Ġtiff":7545,"Ġcarries":7546,"Ġachieve":7547,"ckey":7548,"Ġtay":7549,"Ġmarc":7550,"Ġsurv":7551,"Ġcommission":7552,"Ġhorse":7553,"Ġaccounts":7554,"Ġinternational":7555,"Ġantibiot":7556,"dro":7557,"Ġhen":7558,"Ġpatch":7559,"Ġswiss":7560,"Ġcurious":7561,"Ġtid":7562,"Ġwheat":7563,"Ġbrace":7564,"Ġprinci":7565,"Ġbiscuits":7566,"Ġcigarette":7567,"gen":7568,"Ġavenue":7569,"Ġyu":7570,"Ġfrills":7571,"Ġextraord":7572,"Ġenterprise":7573,"Ġruin":7574,"Ġbacked":7575,"Ġdispen":7576,"Ġmediter":7577,"Ġqualified":7578,"Ġestimates":7579,"Ġwatered":7580,"Ġshowers":7581,"Ġadvis":7582,"aign":7583,"Ġinten":7584,"Ġoutfit":7585,"Ġunif":7586,"Ġexplore":7587,"Ġindic":7588,"Ġbrowns":7589,"Ġcameras":7590,"Ġconsumer":7591,"Ġcarrots":7592,"Ġoverp":7593,"Ġpregnancy":7594,"Ġsom":7595,"Ġbored":7596,"ales":7597,"Ġclut":7598,"Ġwoke":7599,"Ġtransition":7600,"irt":7601,"Ġsung":7602,"wear":7603,"Ġfixt":7604,"Ġcheeseburger":7605,"Ġsolve":7606,"Ġelegant":7607,"een":7608,"Ġaddict":7609,"Ġdelivers":7610,"Ġthrift":7611,"yani":7612,"Ġintense":7613,"ray":7614,"Ġfulf":7615,"Ġlaura":7616,"Ġbroad":7617,"Ġcommunicated":7618,"Ġsharp":7619,"Ġpilates":7620,"ranean":7621,"dies":7622,"hensive":7623,"Ġgroomed":7624,"Ġsavings":7625,"Ġsavory":7626,"Ġcheeses":7627,"Ġbik":7628,"Ġpitc":7629,"Ġrect":7630,"Ġstroll":7631,"Ġmig":7632,"Ġwilli":7633,"Ġhorrend":7634,"Ġradi":7635,"Ġcontainers":7636,"Ġenthusiastic":7637,"Ġchosen":7638,"Ġpile":7639,"oops":7640,"Ġoverhe":7641,"Ġflawless":7642,"Ġchuck":7643,"Ġfilip":7644,"Ġtapas":7645,"Ġaunt":7646,"Ġvra":7647,"Ġcloses":7648,"mall":7649,"Ġboston":7650,"Ġinstit":7651,"Ġimpl":7652,"Ġengaging":7653,"Ġurban":7654,"bought":7655,"chet":7656,"Ġgta":7657,"Ġwhim":7658,"Ġrushing":7659,"ummy":7660,"Ġcompetitors":7661,"Ġunsure":7662,"Ġmeasurements":7663,"Ġsqueeze":7664,"Ġthreatened":7665,"Ġacupuncture":7666,"Ġtat":7667,"Ġsubject":7668,"Ġowed":7669,"top":7670,"ington":7671,"Ġyay":7672,"Ġnicole":7673,"Ġjulie":7674,"Ġbenedict":7675,"Ġod":7676,"ienced":7677,"Ġmarin":7678,"Ġmuscles":7679,"Ġstreets":7680,"Ġpancake":7681,"Ġtrimmed":7682,"Ġestimated":7683,"Ġmediterranean":7684,"Ġsliders":7685,"Ġmornings":7686,"Ġdeter":7687,"Ġearn":7688,"Ġtemporary":7689,"eer":7690,"Ġcreme":7691,"Ġvast":7692,"Ġcoun":7693,"Ġreferring":7694,"Ġknocked":7695,"Ġcombined":7696,"Ġhawaiian":7697,"Ġcuticles":7698,"isha":7699,"Ġdee":7700,"Ġslide":7701,"Ġcheerful":7702,"boy":7703,"Ġhaul":7704,"Ġuptown":7705,"Ġcouldnt":7706,"agle":7707,"izo":7708,"Ġpurple":7709,"Ġcrepes":7710,"Ġconnection":7711,"Ġcanyon":7712,"Ġtool":7713,"Ġfinance":7714,"Ġmarri":7715,"Ġbitch":7716,"Ġfoam":7717,"Ġloudly":7718,"Ġargu":7719,"Ġdata":7720,"rial":7721,"agues":7722,"Ġchai":7723,"Ġdinners":7724,"Ġbond":7725,"Ġparm":7726,"Ġbothering":7727,"Ġargued":7728,"Ġwhit":7729,"Ġsue":7730,"Ġchunk":7731,"Ġbraces":7732,"Ġshakes":7733,"Ġamongst":7734,"Ġchampagne":7735,"Ġgab":7736,"Ġopens":7737,"Ġinspected":7738,"Ġbridge":7739,"lected":7740,"Ġrenter":7741,"Ġsears":7742,"Ġbrad":7743,"Ġsincerely":7744,"Ġbreads":7745,"Ġtexts":7746,"Ġclearance":7747,"Ġmargaritas":7748,"Ġaaa":7749,"Ġsilly":7750,"Ġrehab":7751,"Ġdoesnt":7752,"Ġmoder":7753,"Ġparadise":7754,"Ġpt":7755,"Ġder":7756,"Ġgown":7757,"atient":7758,"aron":7759,"Ġhors":7760,"Ġdemon":7761,"Ġlil":7762,"Ġdiverse":7763,"Ġdecorations":7764,"Ġpads":7765,"Ġstruggling":7766,"Ġthreading":7767,"Ġdisappeared":7768,"Ġrod":7769,"Ġunderne":7770,"Ġantique":7771,"Ġlocker":7772,"Ġincreased":7773,"bet":7774,"Ġfusion":7775,"Ġborn":7776,"Ġling":7777,"Ġinstru":7778,"Ġexped":7779,"ji":7780,"icier":7781,"Ġroots":7782,"Ġblamed":7783,"Ġemploy":7784,"Ġmushy":7785,"Ġvideos":7786,"Ġleading":7787,"ppies":7788,"Ġsamo":7789,"Ġreviewing":7790,"Ġapparent":7791,"Ġopposed":7792,"Ġtorn":7793,"Ġcommented":7794,"Ġdetermined":7795,"Ġunderneath":7796,"Ġandy":7797,"ooking":7798,"Ġliar":7799,"Ġshaped":7800,"umpy":7801,"Ġpou":7802,"Ġunp":7803,"Ġclips":7804,"Ġdiff":7805,"Ġpartial":7806,"rified":7807,"Ġraspberry":7808,"ental":7809,"Ġcontinu":7810,"Ġleaf":7811,"Ġdemanded":7812,"bor":7813,"non":7814,"Ġstained":7815,"ethe":7816,"load":7817,"Ġwander":7818,"Ġimage":7819,"Ġstove":7820,"Ġpanini":7821,"Ġvod":7822,"Ġvacc":7823,"Ġsunny":7824,"Ġrelease":7825,"uv":7826,"Ġconference":7827,"Ġunderstandable":7828,"Ġrandomly":7829,"Ġdm":7830,"Ġvalent":7831,"Ġbrowsing":7832,"Ġkiller":7833,"Ġchorizo":7834,"Ġsant":7835,"Ġfade":7836,"edible":7837,"Ġsod":7838,"Ġjean":7839,"Ġsang":7840,"Ġcanned":7841,"achi":7842,"Ġtaylor":7843,"Ġsticking":7844,"ifying":7845,"Ġconsideration":7846,"Ġboarding":7847,"Ġomelette":7848,"Ġcostumer":7849,"Ġduct":7850,"Ġchronic":7851,"Ġspoiled":7852,"Ġsaturdays":7853,"Ġultimate":7854,"Ġovercharged":7855,"Ġcoordin":7856,"Ġhated":7857,"Ġviny":7858,"Ġsweets":7859,"Ġvirt":7860,"Ġhorrendous":7861,"uel":7862,"Ġplent":7863,"ousy":7864,"Ġlacks":7865,"Ġbrandon":7866,"Ġaudio":7867,"Ġrestrooms":7868,"Ġnonethe":7869,"jun":7870,"sc":7871,"zone":7872,"Ġtipped":7873,"ulent":7874,"ilant":7875,"Ġarch":7876,"Ġcareer":7877,"Ġhockey":7878,"Ġunderwhel":7879,"Ġsteer":7880,"nox":7881,"Ġroti":7882,"Ġaisle":7883,"Ġnonetheless":7884,"Ġmut":7885,"Ġchipped":7886,"Ġunderstands":7887,"Ġtread":7888,"Ġultras":7889,"Ġsoccer":7890,"Ġgrap":7891,"Ġbutcher":7892,"Ġdisconne":7893,"Ġsticker":7894,"Ġmt":7895,"around":7896,"Ġflash":7897,"ups":7898,"Ġhorribly":7899,"Ġswitching":7900,"Ġaka":7901,"pel":7902,"Ġcomforting":7903,"Ġsprings":7904,"Ġpanel":7905,"Ġstrawberries":7906,"such":7907,"Ġfighting":7908,"Ġfluid":7909,"Ġplentiful":7910,"Ġfuss":7911,"Ġalf":7912,"Ġfriendliness":7913,"Ġross":7914,"today":7915,"Ġmaxim":7916,"Ġconclusion":7917,"agram":7918,"Ġmilksha":7919,"Ġpred":7920,"Ġskimp":7921,"Ġintended":7922,"Ġsouthwest":7923,"Ġutter":7924,"Ġroughly":7925,"Ġcelebrate":7926,"Ġultrasound":7927,"Ġner":7928,"Ġbachel":7929,"Ġeuropean":7930,"Ġfucking":7931,"Ġdelayed":7932,"Ġpharmacist":7933,"Ġshitty":7934,"inder":7935,"Ġdise":7936,"Ġessential":7937,"comes":7938,"Ġwake":7939,"Ġcustard":7940,"Ġrentals":7941,"Ġprepar":7942,"Ġpesto":7943,"Ġdarn":7944,"Ġappealing":7945,"ami":7946,"Ġoblig":7947,"Ġbulk":7948,"iors":7949,"ship":7950,"Ġrecipe":7951,"Ġaid":7952,"Ġinstagram":7953,"Ġstole":7954,"Ġmotel":7955,"Ġrebu":7956,"Ġgee":7957,"Ġons":7958,"Ġfriendliest":7959,"Ġmussels":7960,"Ġcapable":7961,"Ġlandscape":7962,"ipping":7963,"Ġdun":7964,"Ġgain":7965,"Ġallergy":7966,"Ġvary":7967,"Ġpractition":7968,"Ġmarkham":7969,"Ġsubmitted":7970,"Ġipad":7971,"Ġvodka":7972,"Ġinstallers":7973,"Ġbureau":7974,"Ġravioli":7975,"Ġandre":7976,"Ġpist":7977,"Ġplug":7978,"Ġrule":7979,"appro":7980,"Ġrisotto":7981,"Ġwil":7982,"Ġsean":7983,"Ġroo":7984,"Ġupbeat":7985,"Ġflour":7986,"Ġlisting":7987,"Ġthomas":7988,"Ġbiz":7989,"sequ":7990,"Ġmocha":7991,"Ġaged":7992,"clean":7993,"Ġcorners":7994,"Ġrecognize":7995,"Ġexpense":7996,"Ġvalet":7997,"omg":7998,"Ġreserve":7999,"Ġholy":8000,"Ġinvited":8001,"Ġchocolates":8002,"Ġprecise":8003,"ech":8004,"Ġitaly":8005,"Ġscrap":8006,"Ġslim":8007,"Ġoptomet":8008,"Ġmatthe":8009,"Ġdetailing":8010,"Ġfilipino":8011,"Ġhairsty":8012,"Ġcontent":8013,"noc":8014,"Ġpreparing":8015,"Ġexistent":8016,"Ġchemicals":8017,"gment":8018,"uri":8019,"Ġll":8020,"Ġrail":8021,"Ġprops":8022,"Ġjerry":8023,"Ġoccurred":8024,"Ġlifestyle":8025,"gie":8026,"Ġkaren":8027,"Ġsup":8028,"Ġpackaged":8029,"Ġresolution":8030,"Ġburning":8031,"Ġwonton":8032,"Ġcappucc":8033,"Ġgou":8034,"Ġwhipped":8035,"Ġcigars":8036,"Ġinedible":8037,"Ġshy":8038,"Ġros":8039,"Ġpacking":8040,"Ġprescribed":8041,"Ġfashioned":8042,"Ġrely":8043,"Ġbonne":8044,"Ġremodeled":8045,"Ġnutrition":8046,"Ġlink":8047,"Ġadore":8048,"Ġsites":8049,"yl":8050,"Ġink":8051,"aya":8052,"Ġimpact":8053,"life":8054,"Ġbrownie":8055,"Ġfinancing":8056,"Ġtir":8057,"Ġwig":8058,"Ġpitch":8059,"umbers":8060,"Ġlasag":8061,"Ġdistur":8062,"Ġarray":8063,"Ġprotection":8064,"Ġsans":8065,"ians":8066,"Ġfunky":8067,"Ġprivacy":8068,"Ġcircumstances":8069,"Ġmaker":8070,"Ġpercent":8071,"Ġunbelievably":8072,"Ġsed":8073,"Ġapples":8074,"Ġclu":8075,"xtreme":8076,"Ġarrives":8077,"Ġrequesting":8078,"Ġengaged":8079,"Ġassistants":8080,"Ġfooled":8081,"Ġtransportation":8082,"Ġdefective":8083,"reg":8084,"Ġupcoming":8085,"Ġmatching":8086,"Ġlicensed":8087,"Ġautomatically":8088,"Ġcrimin":8089,"itude":8090,"Ġraz":8091,"Ġpeu":8092,"ieties":8093,"Ġdelivering":8094,"Ġrichard":8095,"Ġcarrot":8096,"ashes":8097,"Ġstool":8098,"Ġracks":8099,"Ġpray":8100,"Ġuneth":8101,"Ġdoub":8102,"Ġblessed":8103,"ena":8104,"Ġtie":8105,"Ġhers":8106,"Ġdash":8107,"sel":8108,"Ġtags":8109,"Ġmatcha":8110,"Ġlightly":8111,"Ġborder":8112,"Ġgates":8113,"Ġreward":8114,"Ġfourth":8115,"ension":8116,"Ġsweetness":8117,"Ġbones":8118,"Ġblueberry":8119,"Ġjersey":8120,"Ġscript":8121,"pal":8122,"Ġderm":8123,"Ġbeats":8124,"stery":8125,"Ġlighter":8126,"Ġseries":8127,"Ġsuv":8128,"Ġmanicures":8129,"Ġblvd":8130,"Ġpicnic":8131,"Ġpiercing":8132,"Ġpuff":8133,"Ġtrails":8134,"Ġpickle":8135,"Ġbanking":8136,"Ġhallway":8137,"Ġjumped":8138,"Ġclueless":8139,"Ġtina":8140,"Ġpoured":8141,"ested":8142,"Ġwaist":8143,"Ġhomeown":8144,"formed":8145,"Ġcarrying":8146,"Ġoperate":8147,"Ġwisdom":8148,"Ġwore":8149,"Ġliber":8150,"Ġspar":8151,"Ġsinging":8152,"Ġapologies":8153,"Ġbench":8154,"Ġredeem":8155,"Ġtongue":8156,"cho":8157,"Ġpricy":8158,"Ġstaffs":8159,"Ġwonderfully":8160,"Ġsits":8161,"Ġthanksgiving":8162,"Ġhype":8163,"Ġcloth":8164,"Ġmasse":8165,"Ġdevice":8166,"Ġgracious":8167,"Ġpitcher":8168,"Ġmission":8169,"Ġseller":8170,"Ġpreschool":8171,"Ġmulti":8172,"Ġstones":8173,"iration":8174,"Ġchest":8175,"Ġcheers":8176,"ums":8177,"Ġlarry":8178,"Ġformal":8179,"Ġscratches":8180,"Ġfrag":8181,"beware":8182,"Ġroofing":8183,"Ġloyalty":8184,"Ġrenovation":8185,"Ġathlet":8186,"Ġtiffany":8187,"Ġnons":8188,"Ġpeas":8189,"Ġlotion":8190,"Ġenjoys":8191,"Ġcalming":8192,"Ġgrandma":8193,"Ġbloody":8194,"Ġinvestig":8195,"Ġbasketball":8196,"Ġromantic":8197,"Ġlasagna":8198,"Ġknife":8199,"rais":8200,"Ġobnox":8201,"Ġplays":8202,"Ġvalued":8203,"Ġcarts":8204,"Ġspeedy":8205,"Ġmedications":8206,"Ġpipes":8207,"lendale":8208,"Ġfrosting":8209,"rain":8210,"Ġhan":8211,"Ġending":8212,"Ġbasics":8213,"Ġbanks":8214,"Ġdealerships":8215,"Ġstad":8216,"star":8217,"Ġsees":8218,"Ġpretzel":8219,"Ġvalve":8220,"Ġremain":8221,"Ġavoided":8222,"Ġnavigate":8223,"ees":8224,"Ġauss":8225,"Ġbeard":8226,"Ġartwork":8227,"Ġimagined":8228,"Ġcommitment":8229,"Ġlun":8230,"Ġlousy":8231,"Ġcooling":8232,"Ġwaxed":8233,"Ġunethical":8234,"Ġcilant":8235,"Ġyuck":8236,"Ġcomplement":8237,"Ġtalks":8238,"Ġsusan":8239,"Ġrudest":8240,"Ġreimburse":8241,"Ġglendale":8242,"itz":8243,"Ġupsell":8244,"Ġtai":8245,"Ġglue":8246,"Ġwashroom":8247,"Ġclaiming":8248,"Ġsunglasses":8249,"wall":8250,"Ġgnoc":8251,"Ġhitting":8252,"Ġlocate":8253,"Ġrecie":8254,"Ġmeanwhile":8255,"Ġmailed":8256,"Ġnecessarily":8257,"ndered":8258,"Ġhats":8259,"Ġrecover":8260,"Ġplane":8261,"Ġscramb":8262,"Ġtreasure":8263,"Ġcilantro":8264,"Ġhilar":8265,"Ġrides":8266,"Ġbeforehand":8267,"Ġcollections":8268,"Ġratio":8269,"Ġtossed":8270,"Ġillegal":8271,"ni":8272,"Ġholds":8273,"Ġlugg":8274,"Ġdiagnostic":8275,"Ġlent":8276,"Ġhv":8277,"Ġcord":8278,"Ġbloor":8279,"Ġtaxi":8280,"Ġleslie":8281,"laim":8282,"Ġattractive":8283,"Ġorthodont":8284,"Ġcd":8285,"encies":8286,"Ġcompress":8287,"Ġflip":8288,"Ġinspired":8289,"atown":8290,"Ġcapit":8291,"Ġordinary":8292,"Ġconsiderate":8293,"Ġattempting":8294,"Ġmartini":8295,"Ġchampaign":8296,"Ġjalape":8297,"dis":8298,"Ġremed":8299,"ander":8300,"Ġdefi":8301,"Ġrescheduled":8302,"lished":8303,"Ġsocks":8304,"Ġaltered":8305,"Ġapps":8306,"Ġinstant":8307,"Ġhusbands":8308,"Ġamounts":8309,"Ġsunset":8310,"Ġsoaked":8311,"Ġkios":8312,"este":8313,"cia":8314,"Ġstyling":8315,"Ġpunctual":8316,"mbers":8317,"Ġtiles":8318,"Ġincome":8319,"Ġendless":8320,"working":8321,"Ġstadium":8322,"Ġaqu":8323,"ferences":8324,"Ġdecade":8325,"Ġcourts":8326,"Ġannou":8327,"Ġfireplace":8328,"Ġni":8329,"Ġgay":8330,"Ġrum":8331,"actions":8332,"Ġslip":8333,"Ġyelpers":8334,"Ġkimchi":8335,"Ġdeveloped":8336,"Ġcole":8337,"beaut":8338,"Ġfaj":8339,"Ġpatrick":8340,"Ġtremendous":8341,"Ġpoisoning":8342,"aze":8343,"Ġaccommodated":8344,"Ġestablishments":8345,"cra":8346,"fo":8347,"hands":8348,"oration":8349,"asis":8350,"Ġhike":8351,"Ġcans":8352,"agger":8353,"Ġbritt":8354,"Ġfreshness":8355,"Ġvarieties":8356,"Ġrenovations":8357,"Ġpac":8358,"Ġguided":8359,"Ġdamages":8360,"Ġsolved":8361,"Ġmiracle":8362,"bab":8363,"Ġcush":8364,"Ġeagle":8365,"Ġliz":8366,"Ġcajun":8367,"Ġcrooked":8368,"Ġfacing":8369,"Ġfreak":8370,"Ġdetermine":8371,"Ġhairdresser":8372,"Ġnative":8373,"Ġalas":8374,"Ġreps":8375,"Ġcommitted":8376,"Ġartic":8377,"Ġdiscussing":8378,"high":8379,"rene":8380,"Ġmoo":8381,"Ġpreference":8382,"Ġcoffees":8383,"Ġtourist":8384,"Ġencouraged":8385,"Ġkale":8386,"Ġkfc":8387,"Ġresidence":8388,"Ġsummerlin":8389,"Ġstronger":8390,"Ġdeserved":8391,"Ġobsess":8392,"Ġluggage":8393,"honest":8394,"kn":8395,"Ġpanda":8396,"Ġresulted":8397,"Ġinconsistent":8398,"Ġdept":8399,"Ġfreezing":8400,"Ġnugg":8401,"Ġrab":8402,"Ġpickled":8403,"Ġdragon":8404,"Ġcreepy":8405,"Ġfred":8406,"Ġcaul":8407,"Ġelite":8408,"Ġconfusion":8409,"Ġconvince":8410,"Ġcompensation":8411,"Ġfeta":8412,"uries":8413,"Ġaaron":8414,"Ġmri":8415,"Ġreaction":8416,"Ġstro":8417,"Ġjazz":8418,"Ġchal":8419,"Ġsupermarket":8420,"ford":8421,"Ġsignage":8422,"Ġcondiments":8423,"Ġdoug":8424,"Ġjelly":8425,"Ġtennis":8426,"Ġrachel":8427,"Ġpinch":8428,"Ġdefiantly":8429,"mt":8430,"ante":8431,"Ġdiners":8432,"Ġsubpar":8433,"Ġkatie":8434,"Ġlex":8435,"Ġresist":8436,"Ġpatties":8437,"Ġstaring":8438,"Ġbottled":8439,"Ġfauc":8440,"Ġsituations":8441,"Ġbait":8442,"Ġfatty":8443,"walk":8444,"Ġmg":8445,"Ġtailor":8446,"Ġgyros":8447,"Ġimmac":8448,"Ġwound":8449,"Ġexpectation":8450,"Ġdissatisfied":8451,"Ġaspects":8452,"Ġadventure":8453,"Ġoccupied":8454,"Ġalfred":8455,"Ġgnocchi":8456,"put":8457,"Ġsuites":8458,"Ġknots":8459,"Ġsincere":8460,"Ġacts":8461,"Ġbea":8462,"Ġstrand":8463,"oret":8464,"Ġalert":8465,"Ġscoot":8466,"Ġmarinated":8467,"Ġaccent":8468,"Ġconsisted":8469,"Ġdrugs":8470,"Ġscratched":8471,"anas":8472,"Ġcrooks":8473,"Ġassure":8474,"Ġreduced":8475,"Ġleaks":8476,"Ġcovering":8477,"Ġsprayed":8478,"Ġmotorcy":8479,"Ġjudgement":8480,"Ġbarbershop":8481,"eal":8482,"Ġlap":8483,"Ġcafet":8484,"actory":8485,"Ġplayers":8486,"Ġmasala":8487,"Ġchristian":8488,"Ġelectron":8489,"Ġwiped":8490,"achable":8491,"Ġdemonstr":8492,"rics":8493,"water":8494,"remy":8495,"Ġpretentious":8496,"Ġproceeds":8497,"Ġtroubles":8498,"Ġindustrial":8499,"Ġanxious":8500,"Ġcough":8501,"Ġgreater":8502,"Ġfunctional":8503,"Ġappetite":8504,"Ġpraise":8505,"beautiful":8506,"Ġox":8507,"Ġoils":8508,"Ġbisc":8509,"Ġvelvet":8510,"Ġhallow":8511,"Ġintell":8512,"Ġfrancis":8513,"Ġirish":8514,"Ġnursing":8515,"Ġcritic":8516,"Ġluc":8517,"Ġappalled":8518,"Ġmats":8519,"parent":8520,"Ġrelieved":8521,"Ġsooooo":8522,"Ġrudeness":8523,"Ġfunds":8524,"Ġmisleading":8525,"aid":8526,"date":8527,"vl":8528,"Ġontario":8529,"Ġscalp":8530,"fun":8531,"iven":8532,"cier":8533,"Ġpapa":8534,"Ġspeaker":8535,"Ġpumps":8536,"Ġwooden":8537,"Ġbaseball":8538,"ige":8539,"Ġtent":8540,"Ġangeles":8541,"Ġlocksmith":8542,"Ġdestroyed":8543,"Ġhabit":8544,"anne":8545,"Ġrug":8546,"Ġsams":8547,"Ġsurrounded":8548,"Ġfarmers":8549,"vision":8550,"Ġbour":8551,"Ġinappro":8552,"amis":8553,"Ġdefinately":8554,"iner":8555,"Ġbye":8556,"Ġpaired":8557,"Ġvari":8558,"Ġaudience":8559,"ener":8560,"ieux":8561,"Ġhealthcare":8562,"Ġbatteries":8563,"Ġhistor":8564,"Ġwy":8565,"Ġfave":8566,"Ġbass":8567,"Ġasha":8568,"ores":8569,"Ġworries":8570,"ilton":8571,"Ġhomework":8572,"Ġtower":8573,"Ġbalcon":8574,"Ġtidy":8575,"Ġusa":8576,"lley":8577,"Ġremodeling":8578,"Ġpreparation":8579,"inum":8580,"Ġpant":8581,"Ġdye":8582,"Ġlame":8583,"irty":8584,"Ġruss":8585,"Ġcarib":8586,"Ġpeach":8587,"Ġbucket":8588,"Ġfreeway":8589,"Ġdrag":8590,"Ġallergic":8591,"Ġvibes":8592,"Ġalley":8593,"Ġdefinite":8594,"Ġretired":8595,"Ġimprovements":8596,"point":8597,"Ġaim":8598,"Ġyours":8599,"teen":8600,"Ġextras":8601,"Ġstorm":8602,"Ġpuzz":8603,"Ġsuffering":8604,"Ġcycle":8605,"Ġdunk":8606,"Ġanna":8607,"Ġmap":8608,"Ġcentury":8609,"Ġcolleagues":8610,"Ġracist":8611,"lines":8612,"Ġdrew":8613,"leep":8614,"Ġmanners":8615,"aken":8616,"Ġaccomod":8617,"charge":8618,"Ġvraiment":8619,"Ġhilarious":8620,"ulated":8621,"Ġservicing":8622,"pelled":8623,"Ġintent":8624,"Ġbuds":8625,"Ġprints":8626,"Ġpoo":8627,"Ġren":8628,"Ġcontinuing":8629,"Ġapproval":8630,"Ġbrewery":8631,"Ġcomic":8632,"Ġprox":8633,"Ġshawn":8634,"Ġuseful":8635,"Ġrefunds":8636,"Ġpalm":8637,"Ġinconvenient":8638,"Ġdivine":8639,"Ġnv":8640,"loin":8641,"rav":8642,"Ġrefilled":8643,"Ġresponses":8644,"Ġmeasured":8645,"inal":8646,"Ġpawn":8647,"Ġrealty":8648,"Ġflavorless":8649,"Ġbrilli":8650,"attle":8651,"Ġwaters":8652,"Ġdependable":8653,"Ġsexy":8654,"Ġignorant":8655,"Ġhairstylist":8656,"Ġfen":8657,"Ġboiled":8658,"Ġoptim":8659,"cedes":8660,"Ġcardboard":8661,"Ġchinatown":8662,"Ġpuppies":8663,"Ġskewers":8664,"Ġhvac":8665,"Ġhalloween":8666,"isse":8667,"Ġshr":8668,"Ġendroit":8669,"bell":8670,"Ġsweetest":8671,"Ġoccasional":8672,"Ġcafeteria":8673,"ell":8674,"Ġale":8675,"Ġlogo":8676,"Ġthanked":8677,"Ġscor":8678,"Ġimpatient":8679,"Ġaisles":8680,"Ġassessment":8681,"Ġwre":8682,"rec":8683,"Ġbecomes":8684,"Ġherbs":8685,"Ġemphas":8686,"Ġinstructed":8687,"Ġsmelling":8688,"Ġutens":8689,"Ġdreams":8690,"Ġinjuries":8691,"borough":8692,"Ġcrave":8693,"Ġmoms":8694,"Ġdancers":8695,"Ġbleeding":8696,"Ġcappuccino":8697,"Ġcind":8698,"Ġbreaded":8699,"Ġboards":8700,"Ġtiramis":8701,"Ġaj":8702,"Ġcod":8703,"Ġdrawn":8704,"Ġepic":8705,"Ġashamed":8706,"Ġlamp":8707,"Ġexagger":8708,"Ġhose":8709,"Ġshoppers":8710,"Ġsprint":8711,"Ġignoring":8712,"Ġfailure":8713,"Ġtl":8714,"Ġaffect":8715,"Ġchim":8716,"pton":8717,"please":8718,"Ġmeetings":8719,"Ġvinyl":8720,"Ġnancy":8721,"Ġthemed":8722,"Ġspas":8723,"Ġharsh":8724,"mming":8725,"Ġurine":8726,"Ġfurthermore":8727,"Ġdepends":8728,"Ġflew":8729,"ours":8730,"avoid":8731,"Ġrefin":8732,"Ġtechnical":8733,"Ġfloral":8734,"Ġsurface":8735,"Ġdisease":8736,"Ġcass":8737,"Ġkyle":8738,"Ġfridays":8739,"Ġcooper":8740,"Ġalfredo":8741,"Ġsac":8742,"Ġot":8743,"Ġmud":8744,"Ġdare":8745,"Ġstere":8746,"Ġhairs":8747,"Ġesthetician":8748,"Ġbiryani":8749,"Ġcigarettes":8750,"Ġtiramisu":8751,"hn":8752,"Ġlatt":8753,"Ġsoot":8754,"Ġstaples":8755,"Ġsarc":8756,"rer":8757,"people":8758,"Ġhalfway":8759,"Ġplayer":8760,"Ġshooting":8761,"Ġmemorial":8762,"Ġoasis":8763,"Ġkilled":8764,"arts":8765,"Ġdiscomfort":8766,"Ġexperts":8767,"Ġexposed":8768,"Ġsausages":8769,"Ġseverely":8770,"Ġnonsense":8771,"Ġobnoxious":8772,"Ġtes":8773,"Ġliv":8774,"Ġdisab":8775,"Ġgrub":8776,"Ġpops":8777,"Ġsusp":8778,"Ġmuffin":8779,"Ġmuffins":8780,"ko":8781,"Ġafr":8782,"Ġfer":8783,"Ġheels":8784,"Ġasleep":8785,"pered":8786,"Ġener":8787,"bean":8788,"Ġthoughts":8789,"awful":8790,"Ġremembers":8791,"Ġjohnny":8792,"Ġbould":8793,"Ġmcc":8794,"owed":8795,"atsu":8796,"Ġtours":8797,"Ġbuttery":8798,"Ġaussi":8799,"extreme":8800,"Ġgast":8801,"aled":8802,"Ġpains":8803,"Ġmercedes":8804,"Ġdiego":8805,"Ġcollision":8806,"Ġproxim":8807,"Ġdoz":8808,"Ġsucc":8809,"Ġprot":8810,"Ġconver":8811,"Ġcompre":8812,"Ġdrying":8813,"Ġmodels":8814,"Ġhearty":8815,"Ġmechanical":8816,"nuts":8817,"ua":8818,"enn":8819,"Ġgest":8820,"state":8821,"Ġalber":8822,"Ġwouldnt":8823,"Ġbacks":8824,"udge":8825,"Ġprecious":8826,"Ġproduction":8827,"Ġdanny":8828,"Ġjalapen":8829,"Ġrein":8830,"Ġdebbie":8831,"Ġsimpl":8832,"Ġtouching":8833,"Ġdifficulty":8834,"Ġembarrassing":8835,"Ġlanes":8836,"Ġec":8837,"Ġproviders":8838,"Ġpassport":8839,"works":8840,"Ġcopies":8841,"from":8842,"Ġdiscussion":8843,"Ġcateg":8844,"Ġuh":8845,"Ġrx":8846,"quis":8847,"Ġattack":8848,"Ġopinions":8849,"Ġenchiladas":8850,"bag":8851,"Ġils":8852,"Ġreference":8853,"Ġsections":8854,"Ġhoag":8855,"Ġsteering":8856,"Ġdresser":8857,"Ġcev":8858,"Ġrandy":8859,"bre":8860,"Ġjet":8861,"Ġtrek":8862,"Ġwinner":8863,"Ġbehalf":8864,"Ġjamie":8865,"Ġvictoria":8866,"hs":8867,"Ġvisitors":8868,"Ġslot":8869,"Ġdepth":8870,"Ġspeakers":8871,"Ġmexico":8872,"Ġdelighted":8873,"Ġinexper":8874,"Ġmental":8875,"ez":8876,"uu":8877,"Ġthro":8878,"Ġpropri":8879,"Ġgoodwill":8880,"Ġdiscour":8881,"Ġsurprises":8882,"Ġfortune":8883,"Ġthreatening":8884,"Ġsubstant":8885,"Ġperspective":8886,"Ġoun":8887,"Ġciv":8888,"Ġnest":8889,"Ġnep":8890,"Ġkathy":8891,"Ġrh":8892,"Ġrag":8893,"Ġdisag":8894,"iana":8895,"Ġfoundation":8896,"Ġredone":8897,"Ġbehold":8898,"Ġinspector":8899,"Ġsuffer":8900,"finally":8901,"Ġbirds":8902,"Ġdmv":8903,"Ġyea":8904,"brid":8905,"Ġafrican":8906,"tery":8907,"Ġamber":8908,"losed":8909,"Ġcustomize":8910,"Ġdiab":8911,"Ġactions":8912,"Ġboxing":8913,"Ġrecognized":8914,"away":8915,"Ġjokes":8916,"Ġdelux":8917,"Ġharris":8918,"update":8919,"Ġgrape":8920,"Ġrazor":8921,"Ġted":8922,"Ġcities":8923,"otch":8924,"Ġhib":8925,"Ġdecades":8926,"Ġhorror":8927,"Ġblocked":8928,"Ġreceipts":8929,"Ġargument":8930,"did":8931,"Ġeb":8932,"Ġeffic":8933,"eter":8934,"Ġlaying":8935,"Ġcroissants":8936,"Ġterminal":8937,"Ġdozens":8938,"agus":8939,"iency":8940,"Ġstylish":8941,"Ġsecondly":8942,"Ġquestionable":8943,"Ġescal":8944,"Ġeyelash":8945,"Ġutensils":8946,"Ġbake":8947,"Ġstink":8948,"tering":8949,"Ġshine":8950,"Ġparks":8951,"Ġslab":8952,"extremely":8953,"dings":8954,"would":8955,"Ġcact":8956,"ushes":8957,"Ġshru":8958,"Ġloop":8959,"Ġholl":8960,"Ġcontracted":8961,"Ġsafely":8962,"Ġoperating":8963,"Ġprinter":8964,"Ġbrilliant":8965,"vi":8966,"Ġmills":8967,"kel":8968,"Ġcaution":8969,"Ġmaid":8970,"Ġdisgr":8971,"umble":8972,"Ġcleanest":8973,"Ġhandles":8974,"Ġedit":8975,"Ġcops":8976,"Ġwatches":8977,"Ġrotation":8978,"Ġresidential":8979,"Ġacademy":8980,"Ġhero":8981,"Ġpayed":8982,"Ġdrops":8983,"Ġjeremy":8984,"Ġfallen":8985,"Ġelectronic":8986,"Ġautomatic":8987,"Ġcheeseste":8988,"haul":8989,"Ġniss":8990,"Ġlouis":8991,"Ġerrors":8992,"Ġcatered":8993,"nels":8994,"urd":8995,"Ġshiny":8996,"Ġcompon":8997,"Ġsalv":8998,"Ġbram":8999,"Ġconscious":9000,"Ġstyled":9001,"Ġfait":9002,"Ġhumid":9003,"Ġcandles":9004,"Ġproximity":9005,"Ġniece":9006,"Ġgap":9007,"Ġabund":9008,"mpt":9009,"neys":9010,"Ġtots":9011,"Ġcalories":9012,"Ġefforts":9013,"Ġsucce":9014,"Ġrequirements":9015,"Ġtexting":9016,"Ġcritical":9017,"Ġtruffle":9018,"sion":9019,"aries":9020,"idently":9021,"Ġtee":9022,"Ġcarrier":9023,"Ġspecially":9024,"ani":9025,"Ġalive":9026,"Ġcomme":9027,"ielle":9028,"Ġwells":9029,"Ġbangs":9030,"Ġsquid":9031,"Ġscarborough":9032,"Ġpiping":9033,"iveness":9034,"Ġtut":9035,"Ġnation":9036,"Ġdear":9037,"respon":9038,"Ġjustify":9039,"Ġevenings":9040,"Ġbrook":9041,"force":9042,"Ġextraordinary":9043,"Ġwatering":9044,"Ġsouvl":9045,"Ġenergetic":9046,"Ġrou":9047,"Ġquicker":9048,"Ġdined":9049,"Ġresponding":9050,"Ġleads":9051,"Ġdigital":9052,"Ġgallon":9053,"Ġblended":9054,"mers":9055,"ya":9056,"Ġsq":9057,"Ġjr":9058,"Ġdefensive":9059,"Ġinsight":9060,"Ġobject":9061,"Ġchatted":9062,"Ġbummer":9063,"buy":9064,"Ġace":9065,"Ġflies":9066,"Ġdifferently":9067,"Ġpaste":9068,"Ġelement":9069,"Ġgroomers":9070,"Ġmattresses":9071,"Ġtracking":9072,"ormous":9073,"Ġsealed":9074,"Ġstructure":9075,"Ġtux":9076,"Ġmonro":9077,"Ġreads":9078,"Ġupdating":9079,"Ġassociated":9080,"visited":9081,"Ġcommunicating":9082,"Ġcavities":9083,"cou":9084,"wa":9085,"Ġbeg":9086,"Ġcoats":9087,"Ġempan":9088,"Ġdiscri":9089,"Ġpasses":9090,"Ġschedules":9091,"Ġinspections":9092,"Ġdedication":9093,"boards":9094,"Ġdevelopment":9095,"Ġanticipated":9096,"Ġlauren":9097,"Ġtreadm":9098,"asonable":9099,"Ġincompetence":9100,"Ġsoph":9101,"Ġchile":9102,"being":9103,"chair":9104,"Ġcrowds":9105,"Ġak":9106,"lete":9107,"Ġreve":9108,"Ġpointing":9109,"defin":9110,"Ġmask":9111,"Ġhipster":9112,"Ġcombinations":9113,"chetta":9114,"mal":9115,"sticks":9116,"Ġheavily":9117,"Ġmartin":9118,"Ġdispute":9119,"bro":9120,"bye":9121,"ipp":9122,"aste":9123,"Ġspeech":9124,"Ġbarn":9125,"Ġportug":9126,"Ġsummary":9127,"Ġcockro":9128,"Ġinappropriate":9129,"inity":9130,"iry":9131,"Ġcarte":9132,"everything":9133,"Ġbals":9134,"Ġphx":9135,"Ġequal":9136,"Ġbeginner":9137,"Ġballoons":9138,"Ġringing":9139,"mbre":9140,"Ġdynam":9141,"Ġdermato":9142,"Ġdeluxe":9143,"Ġnissan":9144,"Ġoral":9145,"Ġpricier":9146,"icky":9147,"agers":9148,"Ġarrow":9149,"Ġcharlie":9150,"Ġlifting":9151,"Ġsoak":9152,"Ġrecy":9153,"burg":9154,"Ġsupplements":9155,"tz":9156,"Ġunited":9157,"Ġcleanings":9158,"Ġhousehold":9159,"Ġaccused":9160,"Ġheadaches":9161,"Ġdrywall":9162,"Ġseemingly":9163,"Ġbotox":9164,"Ġyar":9165,"Ġsmiled":9166,"Ġimages":9167,"safe":9168,"okay":9169,"Ġbalcony":9170,"Ġcindy":9171,"Ġsouvlaki":9172,"rated":9173,"Ġgaming":9174,"Ġatl":9175,"Ġcomedy":9176,"Ġcombos":9177,"rel":9178,"Ġstack":9179,"meal":9180,"Ġcoco":9181,"Ġleague":9182,"Ġlargest":9183,"Ġshorts":9184,"Ġswi":9185,"Ġridge":9186,"Ġoctop":9187,"Ġsqueezed":9188,"Ġsolely":9189,"Ġdiscrimin":9190,"hu":9191,"Ġunin":9192,"Ġlube":9193,"Ġseamless":9194,"Ġculinary":9195,"Ġtz":9196,"Ġsigh":9197,"Ġacne":9198,"Ġassisting":9199,"Ġcolleague":9200,"Ġbullsh":9201,"Ġhawaii":9202,"Ġpassenger":9203,"Ġkiosk":9204,"cute":9205,"park":9206,"ilty":9207,"Ġroses":9208,"Ġrim":9209,"Ġgrain":9210,"Ġclosely":9211,"Ġpackaging":9212,"Ġvaried":9213,"consin":9214,"Ġbee":9215,"Ġgovern":9216,"Ġoffended":9217,"Ġfacts":9218,"Ġcontinually":9219,"Ġpanera":9220,"Ġtradition":9221,"Ġwisconsin":9222,"dra":9223,"Ġnik":9224,"Ġatro":9225,"chini":9226,"Ġwave":9227,"Ġdipped":9228,"Ġfills":9229,"Ġremains":9230,"ault":9231,"Ġpages":9232,"Ġaspar":9233,"Ġdecently":9234,"Ġcosting":9235,"Ġregistered":9236,"lan":9237,"Ġpak":9238,"Ġhust":9239,"ament":9240,"Ġspiced":9241,"Ġmanaging":9242,"ucing":9243,"Ġzuc":9244,"phones":9245,"Ġverb":9246,"Ġsisters":9247,"Ġtraum":9248,"Ġversus":9249,"Ġdissap":9250,"Ġbarbecue":9251,"Ġdc":9252,"Ġtand":9253,"Ġreccome":9254,"Ġterry":9255,"Ġrepairing":9256,"Ġdisconnected":9257,"regard":9258,"Ġoctopus":9259,"Ġbound":9260,"Ġchapel":9261,"Ġbaristas":9262,"Ġasparagus":9263,"ii":9264,"Ġscience":9265,"Ġturnaround":9266,"clectic":9267,"Ġresearched":9268,"Ġmagical":9269,"marily":9270,"Ġinjured":9271,"Ġsuffered":9272,"Ġguns":9273,"Ġexecuted":9274,"definitely":9275,"mble":9276,"Ġsip":9277,"Ġell":9278,"Ġsoci":9279,"Ġproved":9280,"Ġgoodbye":9281,"Ġgrout":9282,"Ġindul":9283,"Ġnoticeable":9284,"Ġconcord":9285,"Ġventure":9286,"Ġcosmetic":9287,"Ġpsych":9288,"Ġliars":9289,"Ġflaky":9290,"Ġrefuses":9291,"Ġletters":9292,"Ġstarters":9293,"Ġturnover":9294,"ogi":9295,"Ġpacks":9296,"Ġcounters":9297,"Ġfaulty":9298,"Ġconvention":9299,"Ġveteran":9300,"Ġcitiz":9301,"Ġpractitioner":9302,"custom":9303,"mic":9304,"oul":9305,"Ġlined":9306,"ckets":9307,"Ġpope":9308,"Ġbol":9309,"Ġcareless":9310,"Ġremained":9311,"Ġdonate":9312,"Ġcompetitor":9313,"lift":9314,"Ġregistration":9315,"Ġjesus":9316,"recently":9317,"isc":9318,"Ġtwe":9319,"Ġnovel":9320,"Ġquart":9321,"Ġfeelings":9322,"Ġretire":9323,"Ġweddings":9324,"Ġranging":9325,"Ġhurting":9326,"Ġdesperately":9327,"Ġabsurd":9328,"Ġpeeling":9329,"Ġkal":9330,"Ġaward":9331,"Ġroommate":9332,"Ġparis":9333,"Ġmotion":9334,"Ġperforming":9335,"Ġturf":9336,"Ġultra":9337,"Ġintroduce":9338,"Ġvitam":9339,"Ġarcade":9340,"Ġadvisor":9341,"Ġdunkin":9342,"Ġreccomend":9343,"Ġeclectic":9344,"Ġgrabbing":9345,"Ġangela":9346,"Ġbento":9347,"Ġcriminal":9348,"rals":9349,"Ġhay":9350,"Ġprimarily":9351,"Ġsnap":9352,"Ġpete":9353,"Ġdisplays":9354,"Ġmirrors":9355,"Ġtactics":9356,"highly":9357,"last":9358,"Ġjones":9359,"Ġstare":9360,"Ġfinest":9361,"Ġshannon":9362,"Ġcompressor":9363,"Ġbalsamic":9364,"bad":9365,"Ġbin":9366,"arms":9367,"Ġjaw":9368,"Ġkitty":9369,"Ġsuis":9370,"thern":9371,"Ġhotdog":9372,"Ġeasiest":9373,"Ġterr":9374,"Ġtransl":9375,"Ġtransactions":9376,"Ġequipped":9377,"Ġoptometrist":9378,"Ġimmaculate":9379,"Ġoat":9380,"Ġsufficient":9381,"Ġcorned":9382,"Ġrelig":9383,"Ġreminder":9384,"Ġevident":9385,"Ġelectrician":9386,"Ġinsanely":9387,"Ġreassured":9388,"Ġantibiotics":9389,"cr":9390,"ayed":9391,"ety":9392,"Ġjill":9393,"Ġacqu":9394,"Ġblat":9395,"itches":9396,"Ġverm":9397,"Ġanti":9398,"Ġmotivated":9399,"Ġaccompanied":9400,"zard":9401,"Ġank":9402,"Ġleash":9403,"Ġunsafe":9404,"Ġphoned":9405,"Ġdelays":9406,"Ġcoloring":9407,"Ġdistrib":9408,"Ġsafeway":9409,"Ġmrs":9410,"Ġblessing":9411,"Ġbio":9412,"Ġmegan":9413,"Ġmode":9414,"Ġcompletion":9415,"Ġshocking":9416,"Ġgray":9417,"Ġneglected":9418,"Ġpaneer":9419,"iri":9420,"iving":9421,"Ġbeck":9422,"Ġtheres":9423,"eline":9424,"Ġclam":9425,"Ġbrun":9426,"ignon":9427,"Ġbookstore":9428,"Ġreceptionists":9429,"Ġwinning":9430,"host":9431,"Ġrocky":9432,"Ġregisters":9433,"Ġsensor":9434,"Ġofficer":9435,"Ġexcessive":9436,"Ġalb":9437,"Ġflights":9438,"Ġfois":9439,"Ġsubmit":9440,"Ġhortons":9441,"Ġmarinara":9442,"Ġliberty":9443,"Ġmasseuse":9444,"Ġfrancisco":9445,"Ġzucchini":9446,"Ġagg":9447,"Ġdram":9448,"Ġcreativity":9449,"Ġclimbing":9450,"Ġremarkable":9451,"ippers":9452,"Ġexotic":9453,"Ġchops":9454,"Ġinsulting":9455,"Ġaddicted":9456,"Ġstrike":9457,"Ġdistinct":9458,"Ġadmission":9459,"Ġbella":9460,"Ġjudgment":9461,"Ġinexperienced":9462,"unfortun":9463,"Ġjoking":9464,"Ġkeith":9465,"Ġbelieved":9466,"Ġpetit":9467,"Ġidi":9468,"Ġraved":9469,"Ġchristina":9470,"warm":9471,"Ġalternatives":9472,"Ġflexibility":9473,"Ġflorida":9474,"nced":9475,"Ġwashes":9476,"Ġker":9477,"Ġenhan":9478,"Ġdepress":9479,"Ġchiropractors":9480,"aved":9481,"Ġdor":9482,"Ġtran":9483,"Ġcarl":9484,"Ġdefense":9485,"Ġprocessing":9486,"Ġskinny":9487,"Ġvancou":9488,"Ġloads":9489,"Ġberry":9490,"Ġrubbery":9491,"Ġintimidating":9492,"Ġelectronics":9493,"uan":9494,"Ġward":9495,"Ġalto":9496,"Ġsauna":9497,"abi":9498,"Ġdelicate":9499,"Ġpermission":9500,"Ġinstance":9501,"Ġretain":9502,"Ġweekdays":9503,"Ġjenny":9504,"Ġpillow":9505,"Ġmarsha":9506,"Ġcobb":9507,"rape":9508,"Ġretro":9509,"Ġsmallest":9510,"Ġwarmly":9511,"Ġforeign":9512,"Ġheartbeat":9513,"Ġscammed":9514,"Ġangie":9515,"Ġprofile":9516,"Ġpistach":9517,"Ġvancouver":9518,"rey":9519,"Ġbeet":9520,"Ġkebab":9521,"Ġshall":9522,"Ġdanielle":9523,"Ġerin":9524,"liable":9525,"Ġaccepting":9526,"keeping":9527,"Ġlattes":9528,"long":9529,"sy":9530,"athan":9531,"Ġreset":9532,"Ġlasts":9533,"Ġdripping":9534,"Ġpicks":9535,"Ġhonored":9536,"Ġdawn":9537,"Ġstrate":9538,"Ġstickers":9539,"Ġconsultant":9540,"Ġbroker":9541,"burgers":9542,"Ġevidence":9543,"Ġpalace":9544,"Ġbrampton":9545,"Ġfails":9546,"Ġenro":9547,"forward":9548,"Ġcenters":9549,"Ġkennel":9550,"known":9551,"Ġatrocious":9552,"fty":9553,"Ġnute":9554,"Ġjord":9555,"Ġcracks":9556,"Ġpretend":9557,"Ġfox":9558,"Ġlowes":9559,"Ġhangout":9560,"Ġtraveled":9561,"Ġurge":9562,"Ġupgrades":9563,"Ġunwel":9564,"poor":9565,"Ġbib":9566,"Ġlave":9567,"stick":9568,"Ġtikka":9569,"Ġka":9570,"Ġbenches":9571,"Ġtends":9572,"Ġcelebration":9573,"Ġhousing":9574,"Ġcoordinator":9575,"Ġcactus":9576,"zo":9577,"Ġie":9578,"Ġhilton":9579,"Ġcompelled":9580,"ques":9581,"Ġspine":9582,"Ġrelaxation":9583,"Ġincorpor":9584,"cal":9585,"since":9586,"Ġga":9587,"ctor":9588,"Ġkens":9589,"Ġoutf":9590,"Ġbru":9591,"apy":9592,"Ġyearly":9593,"Ġchildhood":9594,"Ġsampled":9595,"Ġleng":9596,"Ġcandle":9597,"Ġunwilling":9598,"Ġunreasonable":9599,"Ġja":9600,"Ġspit":9601,"Ġapproachable":9602,"Ġmartial":9603,"Ġcolours":9604,"Ġcarlos":9605,"Ġdrank":9606,"olis":9607,"Ġapologizing":9608,"Ġfixtures":9609,"Ġidiots":9610,"she":9611,"Ġnour":9612,"Ġtracy":9613,"Ġwaitstaff":9614,"Ġsciss":9615,"Ġhuh":9616,"Ġgenius":9617,"Ġartific":9618,"Ġreferrals":9619,"Ġtanks":9620,"iction":9621,"Ġvolunteers":9622,"Ġsneak":9623,"Ġcotton":9624,"Ġscrambled":9625,"unfortunately":9626,"Ġnutella":9627,"Ġsunda":9628,"Ġneedle":9629,"Ġboom":9630,"otta":9631,"Ġsubur":9632,"Ġartich":9633,"Ġeducate":9634,"Ġqueso":9635,"Ġvirtually":9636,"cs":9637,"Ġnotify":9638,"gee":9639,"Ġhomey":9640,"Ġtso":9641,"Ġgained":9642,"Ġmeets":9643,"Ġattic":9644,"Ġdrives":9645,"Ġshopper":9646,"Ġsweetheart":9647,"Ġbuilder":9648,"Ġmains":9649,"Ġpanels":9650,"Ġmailbox":9651,"walked":9652,"Ġtricky":9653,"interested":9654,"Ġbiscuit":9655,"Ġscorp":9656,"Ġpom":9657,"Ġcamel":9658,"Ġvisa":9659,"Ġsandy":9660,"Ġmistaken":9661,"Ġbuffets":9662,"Ġhumble":9663,"Ġrecipes":9664,"Ġbullshit":9665,"rus":9666,"Ġalbe":9667,"itement":9668,"ioca":9669,"Ġvalues":9670,"ologist":9671,"Ġcounting":9672,"bris":9673,"Ġstraightforward":9674,"Ġinjections":9675,"Ġandrea":9676,"Ġcried":9677,"Ġweed":9678,"Ġunimp":9679,"Ġinsert":9680,"Ġelim":9681,"Ġadopted":9682,"with":9683,"Ġhab":9684,"Ġinnov":9685,"Ġheights":9686,"Ġneur":9687,"Ġnewest":9688,"Ġcram":9689,"Ġpossess":9690,"Ġbloom":9691,"priately":9692,"Ġrichmond":9693,"Ġtelephone":9694,"Ġmagazine":9695,"Ġsoothing":9696,"case":9697,"Ġax":9698,"Ġcer":9699,"irl":9700,"Ġdodge":9701,"Ġjustice":9702,"Ġstared":9703,"Ġslush":9704,"Ġtube":9705,"Ġwhiskey":9706,"honestly":9707,"Ġdill":9708,"ller":9709,"Ġreaching":9710,"Ġasu":9711,"Ġlimp":9712,"Ġfollows":9713,"Ġmixt":9714,"Ġestablished":9715,"Ġheavenly":9716,"cont":9717,"Ġlem":9718,"Ġrealizing":9719,"Ġhorrific":9720,"decent":9721,"Ġceil":9722,"Ġtang":9723,"Ġradiator":9724,"Ġmotorcycle":9725,"Ġfitted":9726,"oty":9727,"aco":9728,"Ġbras":9729,"Ġguilty":9730,"Ġstring":9731,"Ġdonna":9732,"Ġexams":9733,"Ġclinics":9734,"Ġethics":9735,"Ġfedex":9736,"Ġpups":9737,"Ġsubstitute":9738,"Ġcontemporary":9739,"Ġmous":9740,"Ġpockets":9741,"Ġdisregard":9742,"umes":9743,"Ġacid":9744,"plete":9745,"Ġemily":9746,"Ġappreciation":9747,"check":9748,"Ġdomin":9749,"Ġstealing":9750,"Ġbuttons":9751,"vant":9752,"Ġsara":9753,"Ġbanh":9754,"Ġtangy":9755,"Ġuniform":9756,"Ġsamosas":9757,"Ġmonroe":9758,"ista":9759,"Ġpref":9760,"Ġdryers":9761,"Ġsubtle":9762,"ifications":9763,"Ġstruggle":9764,"Ġthermost":9765,"Ġnit":9766,"Ġlakes":9767,"Ġrotten":9768,"Ġcomics":9769,"Ġupside":9770,"Ġcostume":9771,"Ġnorthern":9772,"Ġfaced":9773,"Ġcolorful":9774,"Ġtouches":9775,"Ġsquash":9776,"Ġdenny":9777,"Ġseparately":9778,"Ġsanit":9779,"Ġmagazines":9780,"Ġoverpower":9781,"Ġbourbon":9782,"Ġgovernment":9783,"Ġtricks":9784,"Ġyep":9785,"arest":9786,"Ġinvis":9787,"Ġmisunder":9788,"Ġceilings":9789,"Ġisnt":9790,"ett":9791,"Ġdebris":9792,"essa":9793,"Ġfraction":9794,"Ġtrunk":9795,"Ġcarbon":9796,"Ġextend":9797,"Ġconsignment":9798,"Ġtapioca":9799,"Ġmiller":9800,"hhh":9801,"Ġsilverware":9802,"Ġdilig":9803,"Ġslammed":9804,"Ġdisabled":9805,"Ġdingy":9806,"icelli":9807,"Ġshipment":9808,"Ġapprais":9809,"Ġcustomized":9810,"Ġbreed":9811,"Ġretrie":9812,"Ġgras":9813,"Ġdete":9814,"Ġmcd":9815,"Ġteenagers":9816,"Ġemotional":9817,"Ġkensington":9818,"mun":9819,"sis":9820,"sim":9821,"Ġeh":9822,"Ġtrays":9823,"Ġshaking":9824,"Ġsatisfactory":9825,"Ġpenn":9826,"Ġleaders":9827,"Ġgirlfriends":9828,"Ġcheesesteak":9829,"Ġinner":9830,"Ġthirty":9831,"although":9832,"cture":9833,"Ġdislike":9834,"Ġdies":9835,"Ġsche":9836,"Ġrestoration":9837,"Ġpresident":9838,"Ġneckl":9839,"Ġhandyman":9840,"Ġthroat":9841,"Ġghost":9842,"Ġlord":9843,"alog":9844,"Ġtimeline":9845,"Ġrober":9846,"Ġpolished":9847,"Ġmontr":9848,"Ġgrowth":9849,"Ġapplying":9850,"Ġsangria":9851,"Ġaggrav":9852,"rician":9853,"sl":9854,"Ġmam":9855,"Ġmim":9856,"Ġyouth":9857,"Ġkent":9858,"Ġtrav":9859,"oped":9860,"Ġunreal":9861,"Ġpeoria":9862,"Ġolds":9863,"Ġglance":9864,"Ġmarie":9865,"Ġfixes":9866,"Ġcommand":9867,"Ġzip":9868,"Ġtournam":9869,"Ġdemanding":9870,"Ġcrowns":9871,"Ġofficial":9872,"Ġofficially":9873,"Ġdiabet":9874,"Ġhibachi":9875,"customer":9876,"Ġexquis":9877,"active":9878,"abeth":9879,"Ġscat":9880,"Ġbrit":9881,"Ġvisitor":9882,"Ġdrip":9883,"Ġimper":9884,"Ġsends":9885,"Ġjama":9886,"Ġqualit":9887,"Ġwashington":9888,"Ġbridesmaids":9889,"Ġfart":9890,"Ġweigh":9891,"Ġrin":9892,"Ġflaming":9893,"Ġbruce":9894,"Ġinfant":9895,"Ġtammy":9896,"Ġcontinuously":9897,"Ġobsessed":9898,"acent":9899,"Ġbatch":9900,"Ġlawrence":9901,"Ġtuesdays":9902,"Ġblanket":9903,"Ġpha":9904,"Ġkiss":9905,"Ġabrupt":9906,"Ġcomparing":9907,"Ġwaits":9908,"Ġchad":9909,"Ġunderground":9910,"Ġsteven":9911,"Ġartistic":9912,"Ġperfectionist":9913,"Ġfaucet":9914,"via":9915,"iti":9916,"Ġspecialists":9917,"Ġgrumpy":9918,"Ġindia":9919,"Ġlowe":9920,"Ġavoiding":9921,"Ġsilk":9922,"Ġethic":9923,"Ġshane":9924,"Ġbubbles":9925,"Ġstrangers":9926,"Ġunderwhelming":9927,"occ":9928,"Ġgin":9929,"Ġneut":9930,"Ġpromising":9931,"Ġminds":9932,"Ġscrews":9933,"Ġconfronted":9934,"of":9935,"oup":9936,"Ġpills":9937,"Ġstamp":9938,"Ġanaly":9939,"assy":9940,"Ġdelic":9941,"Ġpotentially":9942,"Ġmovement":9943,"Ġchristine":9944,"Ġwheelchair":9945,"Ġlukewarm":9946,"Ġcaribbean":9947,"Ġalbeit":9948,"Ġlori":9949,"itos":9950,"Ġhates":9951,"Ġoverfl":9952,"Ġmentioning":9953,"Ġspends":9954,"Ġflatbread":9955,"Ġjumping":9956,"Ġmsg":9957,"Ġcapital":9958,"Ġnuggets":9959,"Ġdvd":9960,"Ġstiff":9961,"acey":9962,"Ġgoss":9963,"Ġviv":9964,"Ġwrist":9965,"print":9966,"Ġtrusting":9967,"Ġchallenges":9968,"Ġboneless":9969,"Ġpeanuts":9970,"Ġvermicelli":9971,"Ġaltogether":9972,"Ġces":9973,"Ġelle":9974,"Ġlips":9975,"Ġcann":9976,"uming":9977,"Ġgreets":9978,"Ġpolit":9979,"Ġbreading":9980,"Ġmothers":9981,"Ġballoon":9982,"Ġextension":9983,"Ġmacaroni":9984,"Ġeatery":9985,"Ġresource":9986,"cling":9987,"only":9988,"Ġroy":9989,"Ġtimer":9990,"Ġsliding":9991,"Ġposts":9992,"Ġflyer":9993,"Ġmicrowaved":9994,"Ġovercharge":9995,"Ġwireless":9996,"Ġwondered":9997,"Ġsupreme":9998,"lava":9999,"word":10000,"Ġbelle":10001,"ighed":10002,"Ġbrushed":10003,"Ġdownright":10004,"Ġcatfish":10005,"Ġeffects":10006,"Ġchilli":10007,"Ġsparkling":10008,"Ġinsulted":10009,"Ġmarriott":10010,"Ġefficiency":10011,"gia":10012,"iffe":10013,"Ġamate":10014,"chy":10015,"Ġwhats":10016,"Ġenormous":10017,"Ġpouring":10018,"Ġvenues":10019,"Ġautomated":10020,"Ġaccomplish":10021,"Ġree":10022,"alth":10023,"Ġpopping":10024,"Ġuntr":10025,"Ġfishy":10026,"Ġcrime":10027,"Ġgraphic":10028,"Ġartificial":10029,"zels":10030,"Ġjacks":10031,"Ġkinks":10032,"Ġmaz":10033,"Ġremar":10034,"Ġexisted":10035,"Ġdivor":10036,"Ġsodas":10037,"Ġaux":10038,"Ġlid":10039,"Ġeliz":10040,"Ġhandmade":10041,"Ġglowing":10042,"Ġjackets":10043,"orette":10044,"Ġsuspicious":10045,"yo":10046,"Ġbackwards":10047,"Ġneedles":10048,"ifl":10049,"Ġfiles":10050,"Ġbaker":10051,"Ġfeatured":10052,"Ġfajitas":10053,"Ġoatmeal":10054,"ddy":10055,"uity":10056,"xx":10057,"rets":10058,"Ġrefusing":10059,"Ġproduced":10060,"Ġreassuring":10061,"ella":10062,"Ġmd":10063,"Ġmead":10064,"Ġspilled":10065,"oses":10066,"Ġcontrib":10067,"Ġski":10068,"Ġcomplimented":10069,"Ġdusty":10070,"Ġfifteen":10071,"Ġhorses":10072,"Ġceviche":10073,"Ġaer":10074,"having":10075,"Ġuser":10076,"Ġnaked":10077,"melon":10078,"Ġdisagree":10079,"lar":10080,"yers":10081,"Ġhobby":10082,"issions":10083,"Ġsewing":10084,"Ġmethods":10085,"Ġnephew":10086,"mates":10087,"sec":10088,"Ġservings":10089,"Ġcoating":10090,"Ġpartners":10091,"Ġhandic":10092,"Ġpetite":10093,"Ġresponds":10094,"Ġaccordingly":10095,"Ġethical":10096,"Ġsnob":10097,"vas":10098,"Ġwherever":10099,"iderate":10100,"Ġopportunities":10101,"Ġurgency":10102,"Ġunfair":10103,"Ġjordan":10104,"va":10105,"Ġfrites":10106,"Ġvot":10107,"Ġcoaching":10108,"weed":10109,"Ġaroma":10110,"Ġblt":10111,"Ġcanton":10112,"Ġbreathing":10113,"everyone":10114,"Ġvictim":10115,"Ġbruschetta":10116,"Ġhalib":10117,"Ġmixture":10118,"Ġthier":10119,"Ġcage":10120,"Ġclip":10121,"Ġwalker":10122,"Ġbananas":10123,"Ġslower":10124,"Ġfaire":10125,"Ġbooze":10126,"hole":10127,"Ġoverlooked":10128,"Ġkabob":10129,"Ġsarcastic":10130,"Ġplugs":10131,"Ġloaf":10132,"Ġmanic":10133,"Ġrig":10134,"Ġdrizz":10135,"Ġtyler":10136,"Ġfloating":10137,"Ġsubsequ":10138,"Ġswap":10139,"Ġwashrooms":10140,"Ġimproving":10141,"Ġteenage":10142,"Ġvirgin":10143,"Ġcraigs":10144,"uese":10145,"Ġanne":10146,"atement":10147,"Ġvom":10148,"Ġanyhow":10149,"inton":10150,"Ġripping":10151,"umbling":10152,"cream":10153,"Ġfurious":10154,"Ġinconsiderate":10155,"Ġcruise":10156,"Ġrelocated":10157,"small":10158,"Ġfas":10159,"Ġinput":10160,"Ġrugs":10161,"owns":10162,"Ġcharles":10163,"Ġmarble":10164,"Ġsidewalk":10165,"Ġsmog":10166,"Ġpanic":10167,"Ġcontracts":10168,"owered":10169,"Ġnearest":10170,"see":10171,"ruit":10172,"Ġutmost":10173,"Ġeducational":10174,"Ġresources":10175,"Ġhalibut":10176,"zzy":10177,"Ġarth":10178,"Ġchannel":10179,"Ġtellers":10180,"Ġshades":10181,"Ġwarmed":10182,"Ġteams":10183,"Ġzen":10184,"Ġtailored":10185,"Ġtandoor":10186,"bird":10187,"hell":10188,"Ġvw":10189,"Ġclassroom":10190,"Ġtransform":10191,"Ġviewing":10192,"Ġhurts":10193,"Ġpetsmart":10194,"rami":10195,"Ġpediatrician":10196,"Ġobtain":10197,"Ġbrittany":10198,"wy":10199,"Ġdoggie":10200,"Ġplague":10201,"Ġfoodie":10202,"commun":10203,"gger":10204,"Ġasset":10205,"Ġskate":10206,"Ġjuke":10207,"Ġbald":10208,"Ġquarters":10209,"Ġodor":10210,"Ġbachelorette":10211,"Ġtension":10212,"Ġdense":10213,"Ġdem":10214,"Ġalike":10215,"Ġadj":10216,"jection":10217,"Ġbraised":10218,"Ġgems":10219,"ika":10220,"Ġresearching":10221,"Ġauthorized":10222,"Ġcompensate":10223,"Ġrustic":10224,"Ġassembly":10225,"Ġrectify":10226,"Ġbing":10227,"hal":10228,"Ġabuse":10229,"Ġbold":10230,"Ġmonitor":10231,"Ġvictor":10232,"Ġpampered":10233,"Ġstools":10234,"Ġintelligent":10235,"Ġlengthy":10236,"Ġthermostat":10237,"tu":10238,"Ġahold":10239,"Ġwoo":10240,"Ġmama":10241,"onia":10242,"Ġjum":10243,"Ġpoker":10244,"Ġroach":10245,"Ġflush":10246,"Ġcurds":10247,"Ġtourists":10248,"Ġaudi":10249,"Ġillness":10250,"Ġbummed":10251,"Ġcostumes":10252,"Ġeyelashes":10253,"Ġsparse":10254,"Ġportuguese":10255,"oodle":10256,"Ġquir":10257,"Ġdrastic":10258,"Ġreduce":10259,"Ġwarmer":10260,"rette":10261,"Ġbaklava":10262,"Ġcrossed":10263,"Ġcapacity":10264,"Ġcuban":10265,"Ġcontrast":10266,"Ġcaulifl":10267,"Ġverbally":10268,"Ġscare":10269,"Ġlump":10270,"Ġkate":10271,"Ġvents":10272,"Ġrestrict":10273,"Ġpretzels":10274,"Ġapr":10275,"Ġdisappoints":10276,"lette":10277,"Ġerrand":10278,"Ġunreliable":10279,"Ġeconomy":10280,"inarian":10281,"Ġnom":10282,"Ġgamb":10283,"Ġcaffe":10284,"Ġtequ":10285,"Ġafterward":10286,"Ġmonit":10287,"Ġcompanion":10288,"Ġfilters":10289,"Ġhearts":10290,"Ġbrews":10291,"Ġmeantime":10292,"Ġauction":10293,"Ġimmense":10294,"Ġenthusiasm":10295,"Ġporch":10296,"Ġpistachio":10297,"Ġcraigslist":10298,"ipper":10299,"po":10300,"ences":10301,"Ġthumb":10302,"Ġkris":10303,"venir":10304,"Ġordeal":10305,"Ġcarb":10306,"Ġexcell":10307,"Ġburst":10308,"Ġfargo":10309,"Ġinterests":10310,"Ġloading":10311,"Ġsuccessfully":10312,"Ġelizabeth":10313,"rick":10314,"Ġbicy":10315,"icia":10316,"Ġanest":10317,"Ġplats":10318,"Ġcler":10319,"ĠĠĠĠĠĠĠĠĠ":10320,"year":10321,"Ġmari":10322,"Ġexcitement":10323,"Ġgarn":10324,"Ġexamination":10325,"Ġhosts":10326,"Ġconcent":10327,"Ġunsatisfied":10328,"Ġtaro":10329,"Ġfields":10330,"Ġcollar":10331,"Ġmilkshake":10332,"Ġlexus":10333,"nat":10334,"who":10335,"Ġgord":10336,"Ġpartially":10337,"Ġcharger":10338,"Ġsurgeries":10339,"Ġrounds":10340,"Ġreluctantly":10341,"gus":10342,"Ġpens":10343,"Ġkung":10344,"cap":10345,"Ġstepping":10346,"Ġnumb":10347,"Ġminded":10348,"Ġnailed":10349,"Ġjeweler":10350,"Ġdumpling":10351,"Ġoutfits":10352,"kets":10353,"nc":10354,"Ġlining":10355,"Ġclay":10356,"Ġwatermelon":10357,"Ġinforming":10358,"Ġslept":10359,"Ġraising":10360,"Ġreports":10361,"Ġoverheard":10362,"Ġcauliflower":10363,"Ġbaking":10364,"Ġtob":10365,"Ġongoing":10366,"Ġket":10367,"bec":10368,"Ġshad":10369,"Ġhousekeeping":10370,"Ġgrits":10371,"atherine":10372,"Ġnickel":10373,"greg":10374,"Ġstruggled":10375,"Ġveterinarian":10376,"Ġrevol":10377,"Ġscooter":10378,"Ġrene":10379,"Ġheight":10380,"urist":10381,"adia":10382,"Ġrant":10383,"Ġspecializes":10384,"Ġcreates":10385,"Ġbeginners":10386,"Ġsampler":10387,"asmine":10388,"Ġlabeled":10389,"Ġsamsung":10390,"Ġhoo":10391,"estic":10392,"Ġdrama":10393,"Ġskirt":10394,"Ġblond":10395,"Ġreporting":10396,"Ġhunting":10397,"Ġcounse":10398,"Ġvalentine":10399,"ashing":10400,"Ġdean":10401,"ching":10402,"uded":10403,"Ġdiane":10404,"Ġribe":10405,"Ġglam":10406,"overall":10407,"Ġtacky":10408,"Ġrenters":10409,"Ġwiring":10410,"Ġdick":10411,"Ġaband":10412,"Ġherb":10413,"Ġblizz":10414,"Ġpattern":10415,"Ġobst":10416,"Ġsquir":10417,"Ġsporting":10418,"Ġoyster":10419,"Ġremotely":10420,"Ġbracelet":10421,"hers":10422,"Ġknees":10423,"Ġsmh":10424,"Ġparfa":10425,"Ġskipped":10426,"Ġappropriately":10427,"Ġcravings":10428,"Ġplatinum":10429,"Ġidentified":10430,"Ġthieves":10431,"Ġnig":10432,"Ġexists":10433,"Ġcaut":10434,"Ġwalnut":10435,"Ġjapan":10436,"stein":10437,"Ġarchite":10438,"cul":10439,"Ġlege":10440,"Ġlasting":10441,"Ġbegins":10442,"Ġaesthet":10443,"cil":10444,"cided":10445,"Ġimo":10446,"Ġfudge":10447,"Ġbind":10448,"haw":10449,"mpl":10450,"Ġrobbed":10451,"Ġcompleting":10452,"ubs":10453,"Ġroller":10454,"Ġlackl":10455,"Ġintrig":10456,"Ġmaintaining":10457,"riture":10458,"Ġcavity":10459,"Ġparticipate":10460,"Ġgossip":10461,"pha":10462,"Ġmgr":10463,"Ġmignon":10464,"Ġshes":10465,"Ġfriendlier":10466,"Ġbobby":10467,"Ġcharity":10468,"Ġreflex":10469,"Ġcancelling":10470,"Ġverified":10471,"Ġlaundrom":10472,"Ġidentify":10473,"bic":10474,"Ġpul":10475,"Ġgina":10476,"Ġtied":10477,"Ġrims":10478,"Ġblows":10479,"Ġissued":10480,"Ġbagu":10481,"Ġsteakhouse":10482,"phy":10483,"Ġraving":10484,"Ġjudging":10485,"Ġaudacity":10486,"Ġcatching":10487,"Ġincreasing":10488,"Ġethnic":10489,"Ġpermanently":10490,"Ġdismissive":10491,"Ġdistracted":10492,"Ġseeds":10493,"Ġcomprom":10494,"loaded":10495,"Ġhertz":10496,"Ġairline":10497,"Ġartis":10498,"Ġprepaid":10499,"Ġslowest":10500,"Ġblankets":10501,"ran":10502,"Ġtheft":10503,"Ġbday":10504,"Ġborrow":10505,"edly":10506,"Ġgps":10507,"Ġlav":10508,"Ġhong":10509,"Ġliver":10510,"Ġallen":10511,"Ġclick":10512,"Ġfoster":10513,"Ġworthless":10514,"Ġmails":10515,"Ġbrewed":10516,"Ġstretching":10517,"Ġnewborn":10518,"Ġgathering":10519,"Ġboulder":10520,"Ġounce":10521,"bably":10522,"alling":10523,"Ġsmoky":10524,"Ġintend":10525,"Ġbleach":10526,"zzi":10527,"Ġsucceed":10528,"rop":10529,"cel":10530,"Ġsuited":10531,"Ġrobin":10532,"Ġdowns":10533,"Ġcontained":10534,"Ġoldest":10535,"Ġopener":10536,"Ġrunny":10537,"Ġbedrooms":10538,"Ġunderstatement":10539,"Ġtartar":10540,"Ġelevators":10541,"beatable":10542,"Ġsleeve":10543,"Ġdeductible":10544,"Ġwasabi":10545,"ald":10546,"Ġstingy":10547,"Ġpastrami":10548,"Ġjuan":10549,"Ġtrend":10550,"Ġbankrupt":10551,"Ġhydr":10552,"Ġinteracted":10553,"Ġlamps":10554,"Ġvolunteer":10555,"Ġjesse":10556,"Ġadjacent":10557,"Ġtres":10558,"ooo":10559,"Ġstam":10560,"outstanding":10561,"Ġcheat":10562,"Ġunknown":10563,"Ġdisci":10564,"Ġindiffe":10565,"Ġstream":10566,"Ġboost":10567,"Ġdennis":10568,"Ġensured":10569,"Ġtoilets":10570,"Ġinflu":10571,"Ġlunches":10572,"Ġexquisite":10573,"cool":10574,"iver":10575,"rude":10576,"Ġbully":10577,"Ġdull":10578,"utes":10579,"Ġshed":10580,"Ġconcess":10581,"Ġcox":10582,"Ġchoix":10583,"Ġterrified":10584,"Ġposter":10585,"Ġlatter":10586,"Ġthicker":10587,"Ġseaweed":10588,"ridge":10589,"Ġprecision":10590,"Ġtremendously":10591,"win":10592,"inc":10593,"athered":10594,"Ġbeloved":10595,"Ġstaffing":10596,"Ġhardwood":10597,"Ġmeaty":10598,"Ġapprehensive":10599,"Ġeddie":10600,"Ġdeeply":10601,"iliated":10602,"Ġwrapping":10603,"Ġmacarons":10604,"Ġcarnitas":10605,"Ġwandering":10606,"Ġwww":10607,"Ġconcier":10608,"Ġunbeatable":10609,"Ġclams":10610,"Ġbravo":10611,"Ġlatin":10612,"Ġoverdue":10613,"Ġstranger":10614,"Ġreluctant":10615,"Ġyarn":10616,"cur":10617,"Ġhud":10618,"omend":10619,"apping":10620,"Ġappreciative":10621,"Ġbounce":10622,"Ġhiking":10623,"Ġprincess":10624,"Ġdisposal":10625,"Ġankle":10626,"Ġoverpowering":10627,"ilit":10628,"Ġcostly":10629,"Ġdang":10630,"Ġdeliveries":10631,"Ġvibrant":10632,"Ġrapid":10633,"Ġexhausted":10634,"Ġinterrupted":10635,"Ġremedy":10636,"bes":10637,"Ġaffe":10638,"Ġike":10639,"itan":10640,"Ġabilities":10641,"Ġtavern":10642,"Ġoffs":10643,"Ġresid":10644,"Ġempathy":10645,"Ġregional":10646,"Ġgreedy":10647,"Ġrealistic":10648,"Ġpleasing":10649,"Ġbattered":10650,"Ġlively":10651,"Ġrespected":10652,"Ġrounded":10653,"Ġcowboy":10654,"Ġreheated":10655,"Ġsubstantial":10656,"Ġthy":10657,"Ġscoops":10658,"Ġcoolest":10659,"Ġcereal":10660,"Ġsnapped":10661,"Ġwebsites":10662,"Ġteaches":10663,"Ġprivile":10664,"Ġgardens":10665,"Ġcaptured":10666,"Ġexecutive":10667,"Ġutterly":10668,"rings":10669,"Ġ^":10670,"Ġnostal":10671,"Ġunbe":10672,"Ġunapp":10673,"Ġbarrier":10674,"izza":10675,"Ġoptical":10676,"Ġcolon":10677,"Ġtommy":10678,"Ġgrande":10679,"hoot":10680,"Ġoperator":10681,"Ġentertained":10682,"Ġsuitable":10683,"Ġexecution":10684,"Ġpearl":10685,"Ġexclus":10686,"Ġsnot":10687,"Ġmm":10688,"Ġmunch":10689,"Ġnotary":10690,"Ġdivers":10691,"Ġwires":10692,"Ġfavourites":10693,"Ġensuring":10694,"Ġwilliams":10695,"Ġtandoori":10696,"Ġtuc":10697,"arin":10698,"Ġawe":10699,"Ġlongest":10700,"uben":10701,"Ġscream":10702,"Ġdenise":10703,"Ġsplash":10704,"Ġconfirming":10705,"Ġcapture":10706,"Ġoreo":10707,"Ġstrictly":10708,"Ġsurvive":10709,"Ġchalk":10710,"Ġreject":10711,"Ġpond":10712,"Ġbryan":10713,"Ġavons":10714,"Ġsmokey":10715,"Ġsuggesting":10716,"Ġconstruct":10717,"Ġdrawer":10718,"Ġalcoholic":10719,"Ġtartare":10720,"Ġwishes":10721,"Ġselecting":10722,"Ġgratuity":10723,"Ġrebuild":10724,"Ġtaiw":10725,"Ġpacific":10726,"father":10727,"Ġci":10728,"Ġstacked":10729,"Ġudon":10730,"Ġgoodyear":10731,"Ġdownfall":10732,"Ġshack":10733,"probably":10734,"Ġcounted":10735,"Ġaccomplished":10736,"Ġhollywood":10737,"Ġgesture":10738,"Ġribeye":10739,"wide":10740,"hara":10741,"Ġsomeplace":10742,"igan":10743,"Ġsalsas":10744,"plan":10745,"Ġhanding":10746,"Ġshoddy":10747,"Ġseasons":10748,"Ġinfested":10749,"Ġappetizing":10750,"Ġrecording":10751,"Ġutilize":10752,"Ġpropriet":10753,"Ġnourriture":10754,"Ġbins":10755,"Ġjane":10756,"Ġpreferences":10757,"Ġfabrics":10758,"Ġhiding":10759,"Ġfeeding":10760,"Ġenchilada":10761,"Ġmaximum":10762,"Ġshrugged":10763,"rays":10764,"Ġhd":10765,"Ġjasmine":10766,"Ġdebt":10767,"Ġvisual":10768,"becca":10769,"Ġleftover":10770,"Ġshaving":10771,"Ġhygiene":10772,"Ġeconom":10773,"Ġrecieved":10774,"Ġmystery":10775,"ieces":10776,"Ġbyob":10777,"abor":10778,"Ġchart":10779,"Ġdiscont":10780,"Ġbanner":10781,"nothing":10782,"Ġtuned":10783,"Ġseparated":10784,"Ġvacuumed":10785,"ivalent":10786,"Ġdismissed":10787,"Ġbridesmaid":10788,"Ġinstrument":10789,"Ġcantonese":10790,"Ġtin":10791,"itis":10792,"Ġkir":10793,"Ġvague":10794,"Ġdrown":10795,"Ġhispan":10796,"Ġharm":10797,"Ġfloat":10798,"Ġmiscommun":10799,"Ġventil":10800,"tops":10801,"van":10802,"Ġdot":10803,"Ġgang":10804,"Ġjamb":10805,"Ġloft":10806,"Ġplacement":10807,"Ġchowder":10808,"Ġmondays":10809,"azed":10810,"Ġmonica":10811,"Ġmanages":10812,"Ġadvoc":10813,"Ġmusical":10814,"Ġneglig":10815,"Ġdesigners":10816,"Ġiniti":10817,"Ġbrownies":10818,"Ġhallways":10819,"Ġescort":10820,"Ġcuticle":10821,"Ġshelter":10822,"atz":10823,"Ġtipping":10824,"Ġframing":10825,"Ġchalet":10826,"Ġrecomend":10827,"Ġsweep":10828,"Ġcompete":10829,"Ġmasters":10830,"Ġjackie":10831,"Ġjewelers":10832,"Ġlanded":10833,"Ġebay":10834,"ement":10835,"lights":10836,"Ġgals":10837,"Ġreverse":10838,"Ġnoticing":10839,"Ġsaint":10840,"Ġproven":10841,"Ġmanual":10842,"Ġcrushed":10843,"Ġdrill":10844,"Ġpastas":10845,"Ġsucker":10846,"Ġveterinary":10847,"Ġspirits":10848,"Ġacrylics":10849,"dos":10850,"oe":10851,"Ġaust":10852,"Ġkong":10853,"Ġkits":10854,"ourse":10855,"Ġcopper":10856,"Ġmaki":10857,"Ġspotted":10858,"Ġjoining":10859,"Ġrunner":10860,"Ġstudying":10861,"Ġimportance":10862,"Ġtechnically":10863,"Ġsplur":10864,"Ġsanitary":10865,"Ġonsite":10866,"Ġdivorce":10867,"Ġfir":10868,"Ġlc":10869,"Ġheel":10870,"ados":10871,"Ġkatsu":10872,"Ġpeop":10873,"Ġrole":10874,"Ġbron":10875,"Ġcutest":10876,"Ġsurpass":10877,"Ġfreed":10878,"Ġhyund":10879,"Ġdarker":10880,"Ġupsetting":10881,"Ġirrig":10882,"Ġinvested":10883,"Ġpremises":10884,"Ġnegotiate":10885,"Ġflooded":10886,"Ġempanadas":10887,"Ġcamelback":10888,"Ġtequila":10889,"Ġconcierge":10890,"pot":10891,"Ġbom":10892,"Ġseattle":10893,"ulpt":10894,"Ġcoated":10895,"Ġpole":10896,"Ġsignal":10897,"Ġgripe":10898,"Ġwillingness":10899,"Ġamericano":10900,"Ġcrafted":10901,"Ġtreasures":10902,"Ġjonathan":10903,"Ġscissors":10904,"table":10905,"why":10906,"Ġhazard":10907,"Ġwithdra":10908,"Ġseed":10909,"Ġki":10910,"Ġshep":10911,"Ġpale":10912,"Ġpico":10913,"Ġnathan":10914,"Ġverde":10915,"Ġoddly":10916,"Ġlakewood":10917,"Ġtarts":10918,"Ġbord":10919,"arre":10920,"urcha":10921,"Ġwhip":10922,"Ġpep":10923,"Ġrode":10924,"Ġtrimming":10925,"Ġstocking":10926,"Ġsentence":10927,"Ġelements":10928,"attentive":10929,"Ġlawyers":10930,"Ġhospitable":10931,"Ġdeserts":10932,"Ġmileage":10933,"Ġbulg":10934,"Ġphotographers":10935,"Ġrussian":10936,"chat":10937,"rir":10938,"urous":10939,"Ġmerely":10940,"cient":10941,"iley":10942,"Ġwrink":10943,"Ġcomfortably":10944,"Ġpracticing":10945,"Ġdumpster":10946,"Ġbreathe":10947,"Ġdomino":10948,"Ġdiamonds":10949,"Ġsewer":10950,"losure":10951,"Ġjohnson":10952,"mike":10953,"Ġmop":10954,"Ġhazel":10955,"Ġweeds":10956,"Ġseared":10957,"Ġmoj":10958,"Ġchaos":10959,"Ġattent":10960,"Ġcontinental":10961,"Ġmotors":10962,"two":10963,"Ġpromotions":10964,"Ġdiscipl":10965,"Ġsust":10966,"orse":10967,"acles":10968,"Ġrye":10969,"quick":10970,"Ġloans":10971,"pled":10972,"Ġmario":10973,"Ġsalespeople":10974,"Ġstruck":10975,"aware":10976,"Ġearrings":10977,"Ġmounted":10978,"Ġsavour":10979,"Ġrealtors":10980,"Ġbisque":10981,"Ġqt":10982,"Ġadministr":10983,"Ġclerks":10984,"pizza":10985,"ugged":10986,"Ġmeille":10987,"Ġjj":10988,"Ġsuz":10989,"arten":10990,"ciut":10991,"Ġstorefront":10992,"Ġsurvey":10993,"Ġeaster":10994,"Ġemployed":10995,"Ġbattle":10996,"Ġfiguring":10997,"Ġnatal":10998,"Ġrepresented":10999,"Ġdigging":11000,"Ġbulbs":11001,"Ġtinted":11002,"Ġmotivating":11003,"Ġsanta":11004,"Ġenrolled":11005,"Ġexcellence":11006,"Ġmash":11007,"lee":11008,"idi":11009,"Ġalan":11010,"Ġtao":11011,"Ġcodes":11012,"rous":11013,"osing":11014,"Ġpaws":11015,"Ġfailing":11016,"Ġcopay":11017,"Ġblowout":11018,"Ġcandid":11019,"Ġexhibit":11020,"Ġbarrel":11021,"obs":11022,"geons":11023,"Ġwandered":11024,"Ġposes":11025,"Ġrefle":11026,"Ġkinderg":11027,"Ġsouvenir":11028,"Ġconflic":11029,"Ġhitch":11030,"hhhh":11031,"Ġclimb":11032,"Ġtucson":11033,"inations":11034,"anie":11035,"Ġjake":11036,"Ġmonte":11037,"Ġbund":11038,"Ġfreshest":11039,"Ġconserv":11040,"Ġpurses":11041,"Ġfreeze":11042,"Ġsweater":11043,"Ġguessed":11044,"Ġinternal":11045,"Ġchallenged":11046,"Ġjoseph":11047,"Ġcaliber":11048,"Ġcautious":11049,"Ġald":11050,"oust":11051,"Ġpes":11052,"Ġpiz":11053,"Ġnurs":11054,"Ġdos":11055,"Ġdeer":11056,"Ġuphol":11057,"Ġresulting":11058,"Ġskim":11059,"Ġtransformed":11060,"Ġdecoration":11061,"Ġdonation":11062,"Ġrecorded":11063,"Ġpilot":11064,"Ġadmittedly":11065,"Ġtropical":11066,"Ġwilliam":11067,"Ġhyundai":11068,"bu":11069,"jours":11070,"Ġdv":11071,"Ġreuben":11072,"Ġuni":11073,"Ġpollo":11074,"Ġcourty":11075,"Ġexpiration":11076,"Ġaccountability":11077,"Ġeffectively":11078,"Ġreleased":11079,"Ġrenewal":11080,"Ġtelevision":11081,"Ġevaluation":11082,"Ġmatthew":11083,"Ġhomeowner":11084,"Ġhoagie":11085,"Ġlackluster":11086,"Ġcider":11087,"Ġnord":11088,"Ġstub":11089,"Ġvina":11090,"Ġcones":11091,"Ġleur":11092,"Ġneverthe":11093,"Ġfoie":11094,"Ġexamined":11095,"Ġpositives":11096,"Ġsoftware":11097,"Ġpremier":11098,"Ġinquiry":11099,"Ġprosciut":11100,"Ġattorneys":11101,"foam":11102,"Ġpeoples":11103,"Ġirrigation":11104,"Ġnevertheless":11105,"hot":11106,"lery":11107,"Ġipa":11108,"Ġmong":11109,"Ġreop":11110,"Ġbees":11111,"Ġpecan":11112,"Ġmarg":11113,"forth":11114,"Ġdinning":11115,"Ġsupper":11116,"Ġpromo":11117,"Ġsunr":11118,"Ġshutters":11119,"Ġbulb":11120,"Ġassorted":11121,"Ġdocumentation":11122,"Ġfulfill":11123,"nit":11124,"rum":11125,"Ġsaves":11126,"Ġcalend":11127,"imm":11128,"Ġrecommand":11129,"Ġbolt":11130,"Ġexploring":11131,"Ġcreations":11132,"Ġmerchan":11133,"Ġdevices":11134,"Ġobsc":11135,"iffy":11136,"Ġcurtains":11137,"Ġgraduation":11138,"Ġfifth":11139,"Ġdisgrace":11140,"Ġhectic":11141,"ilia":11142,"Ġtrap":11143,"Ġsculpt":11144,"Ġverbal":11145,"Ġhosting":11146,"Ġlabels":11147,"Ġdumped":11148,"Ġburns":11149,"Ġalternator":11150,"Ġlegitimate":11151,"Ġscallop":11152,"Ġcraftsmanship":11153,"Ġstranded":11154,"Ġmousse":11155,"Ġhispanic":11156,"Ġlinks":11157,"Ġreact":11158,"Ġhomet":11159,"ainted":11160,"Ġcurries":11161,"Ġaccounting":11162,"Ġencore":11163,"Ġidk":11164,"Ġpersian":11165,"Ġcomprehensive":11166,"iour":11167,"Ġlone":11168,"another":11169,"aru":11170,"ppe":11171,"Ġbliss":11172,"Ġtrends":11173,"Ġstatements":11174,"eeee":11175,"Ġretailer":11176,"Ġmarsh":11177,"Ġclarify":11178,"Ġthief":11179,"Ġjalapeno":11180,"Ġcategory":11181,"gas":11182,"Ġdana":11183,"Ġcrackers":11184,"Ġinteractions":11185,"Ġbulgogi":11186,"Ġvinaig":11187,"urious":11188,"Ġshat":11189,"Ġcine":11190,"Ġlender":11191,"Ġada":11192,"Ġbusier":11193,"Ġrestored":11194,"Ġholist":11195,"Ġentit":11196,"Ġcalzone":11197,"Ġbatht":11198,"Ġloung":11199,"Ġquebec":11200,"Ġpenne":11201,"Ġpatronize":11202,"Ġfunctioning":11203,"Ġnerves":11204,"Ġdisturbing":11205,"Ġartichoke":11206,"bid":11207,"fra":11208,"tot":11209,"hai":11210,"strom":11211,"Ġcongr":11212,"ouses":11213,"Ġsteady":11214,"Ġmatches":11215,"Ġcurls":11216,"Ġairy":11217,"Ġposters":11218,"Ġconcerning":11219,"Ġpractical":11220,"Ġequivalent":11221,"athon":11222,"Ġpierced":11223,"Ġconsumers":11224,"Ġsundae":11225,"Ġlaundromat":11226,"Ġprosciutto":11227,"wash":11228,"Ġbos":11229,"Ġpiled":11230,"ador":11231,"Ġclark":11232,"Ġscent":11233,"Ġarom":11234,"Ġrights":11235,"Ġpersons":11236,"Ġfiller":11237,"Ġmessing":11238,"Ġpots":11239,"Ġintake":11240,"Ġkilling":11241,"Ġtlc":11242,"Ġmazda":11243,"Ġnan":11244,"Ġuhaul":11245,"Ġscru":11246,"Ġboast":11247,"otti":11248,"Ġaccomp":11249,"Ġxrays":11250,"Ġhosp":11251,"Ġdeadline":11252,"Ġcommunications":11253,"Ġalteration":11254,"Ġdissapointed":11255,"Ġikea":11256,"asse":11257,"Ġnotre":11258,"althy":11259,"Ġvic":11260,"Ġwholes":11261,"Ġene":11262,"Ġglow":11263,"Ġbreakdown":11264,"Ġtoujours":11265,"Ġrotors":11266,"ĠĠĠĠĠĠĠĠĠĠĠĠĠĠĠĠĠĠĠĠĠĠĠĠĠĠĠĠĠĠĠĠĠĠĠĠĠĠĠĠĠĠĠĠĠĠĠĠĠĠĠĠĠĠĠĠĠĠĠĠĠĠĠĠ":11267,"Ġmandarin":11268,"Ġjacu":11269,"Ġinstruments":11270,"Ġcomponents":11271,"Ġsociety":11272,"arium":11273,"adays":11274,"ffin":11275,"fters":11276,"Ġpeep":11277,"Ġcountertops":11278,"Ġleaked":11279,"Ġtemps":11280,"Ġhistoric":11281,"Ġstereo":11282,"ndon":11283,"Ġfant":11284,"Ġbend":11285,"Ġhic":11286,"Ġhmm":11287,"Ġrue":11288,"Ġappointed":11289,"Ġnowadays":11290,"oline":11291,"Ġwedges":11292,"Ġdanforth":11293,"Ġauthority":11294,"Ġcitrus":11295,"Ġhenry":11296,"Ġfarther":11297,"cings":11298,"grap":11299,"run":11300,"least":11301,"Ġhmmm":11302,"Ġdele":11303,"avail":11304,"aker":11305,"Ġdecline":11306,"Ġkee":11307,"Ġconsists":11308,"Ġbranches":11309,"Ġqualify":11310,"Ġmentally":11311,"Ġreflexology":11312,"ancing":11313,"step":11314,"Ġcongee":11315,"Ġquel":11316,"Ġoverhead":11317,"Ġdiana":11318,"bee":11319,"Ġnegatives":11320,"Ġsilence":11321,"Ġoutdoors":11322,"Ġadventurous":11323,"matched":11324,"Ġstalls":11325,"hops":11326,"wr":11327,"Ġdudes":11328,"agn":11329,"Ġads":11330,"Ġjoey":11331,"Ġsurg":11332,"renched":11333,"Ġsupplier":11334,"Ġcurb":11335,"Ġholder":11336,"Ġlabs":11337,"Ġcourtney":11338,"Ġlockers":11339,"Ġbouncer":11340,"Ġbizarre":11341,"Ġaccomodating":11342,"Ġhometown":11343,"Ġwha":11344,"Ġsf":11345,"Ġrebecca":11346,"Ġcauses":11347,"Ġmonster":11348,"Ġhorrid":11349,"grown":11350,"lson":11351,"Ġzoo":11352,"Ġinfused":11353,"Ġcircuit":11354,"Ġsurroundings":11355,"Ġobserved":11356,"Ġvoicemails":11357,"Ġhalal":11358,"Ġflamingo":11359,"Ġmiscommunication":11360,"Ġdecre":11361,"Ġbanquet":11362,"Ġsituated":11363,"Ġexamples":11364,"Ġbalay":11365,"Ġmarkets":11366,"Ġgeor":11367,"Ġprogressive":11368,"Ġintimidated":11369,"atures":11370,"Ġstan":11371,"Ġneon":11372,"Ġatleast":11373,"Ġchevy":11374,"Ġunavail":11375,"Ġrelatives":11376,"Ġboxed":11377,"Ġsorbet":11378,"Ġindividually":11379,"Ġrepresentatives":11380,"Ġluxurious":11381,"Ġdiligent":11382,"Ġmandatory":11383,"Ġchipping":11384,"seriously":11385,"Ġcoinc":11386,"Ġvinaigrette":11387,"ero":11388,"Ġlor":11389,"Ġali":11390,"Ġworship":11391,"Ġretour":11392,"Ġavid":11393,"Ġemployer":11394,"Ġpossibility":11395,"Ġyoungest":11396,"Ġtempted":11397,"Ġturk":11398,"Ġyards":11399,"Ġripoff":11400,"Ġdoughnuts":11401,"Ġexempl":11402,"Ġextraction":11403,"Ġcranberry":11404,"Ġwonders":11405,"Ġmoderate":11406,"Ġmimos":11407,"Ġdiscontin":11408,"Ġenemy":11409,"Ġtj":11410,"Ġoc":11411,"Ġhk":11412,"Ġnewsp":11413,"Ġbrule":11414,"Ġtrio":11415,"Ġindication":11416,"Ġcoolant":11417,"Ġsynt":11418,"Ġruining":11419,"Ġbehaviour":11420,"Ġadministration":11421,"Ġclutch":11422,"Ġgau":11423,"Ġunaware":11424,"isserie":11425,"Ġstyro":11426,"Ġwok":11427,"Ġmodest":11428,"Ġfurnishing":11429,"Ġsmelly":11430,"Ġhyp":11431,"Ġwreck":11432,"Ġjamaican":11433,"Ġlind":11434,"Ġawa":11435,"Ġrestur":11436,"Ġdale":11437,"Ġiceberg":11438,"Ġcaters":11439,"Ġhosted":11440,"Ġcornbread":11441,"Ġdrawing":11442,"Ġcandies":11443,"Ġdomestic":11444,"Ġfluids":11445,"Ġlynn":11446,"Ġphysicians":11447,"Ġaesthetician":11448,"Ġstroller":11449,"Ġnecklace":11450,"Ġcourtyard":11451,"Ġscrumpt":11452,"heast":11453,"Ġfaded":11454,"Ġsoaking":11455,"Ġchap":11456,"Ġarug":11457,"Ġinsulation":11458,"ucoup":11459,"Ġhostile":11460,"Ġforgetting":11461,"Ġrepresentation":11462,"Ġadvertisement":11463,"Ġinflated":11464,"Ġindicating":11465,"dan":11466,"lied":11467,"Ġtost":11468,"itly":11469,"Ġthigh":11470,"urst":11471,"Ġarena":11472,"Ġky":11473,"Ġkia":11474,"Ġsheer":11475,"Ġdecad":11476,"Ġhappiness":11477,"Ġlunchtime":11478,"Ġcanceling":11479,"Ġscammers":11480,"Ġrainy":11481,"Ġlifted":11482,"Ġsprinkler":11483,"Ġhorton":11484,"Ġimplant":11485,"Ġinnovative":11486,"Ġhospice":11487,"Ġstyrofoam":11488,"nity":11489,"ream":11490,"Ġeco":11491,"ioned":11492,"Ġmaids":11493,"Ġoffensive":11494,"Ġchev":11495,"Ġcheated":11496,"Ġdrum":11497,"otherapy":11498,"Ġhealed":11499,"Ġbuddies":11500,"Ġimpressions":11501,"Ġsettings":11502,"Ġlavender":11503,"Ġamateur":11504,"Ġunavailable":11505,"Ġcus":11506,"Ġdund":11507,"Ġgated":11508,"Ġjus":11509,"Ġsaf":11510,"Ġteens":11511,"Ġregion":11512,"Ġbreaker":11513,"Ġlineup":11514,"Ġtransparent":11515,"Ġlimits":11516,"Ġrefresh":11517,"Ġgoogled":11518,"Ġreimbursed":11519,"Ġtravis":11520,"born":11521,"Ġsally":11522,"uting":11523,"Ġdisney":11524,"Ġbelief":11525,"Ġcorporation":11526,"Ġarrowhead":11527,"Ġterrace":11528,"Ġscattered":11529,"Ġerrands":11530,"Ġexclusively":11531,"uous":11532,"Ġfid":11533,"aro":11534,"Ġyi":11535,"Ġhue":11536,"ima":11537,"Ġenforce":11538,"Ġstored":11539,"Ġdeny":11540,"Ġfederal":11541,"Ġwashers":11542,"Ġidentical":11543,"inating":11544,"Ġunass":11545,"Ġwayne":11546,"Ġcrick":11547,"Ġmoral":11548,"Ġwarmth":11549,"Ġgifted":11550,"Ġfraudulent":11551,"Ġtzatz":11552,"Ġbalayage":11553,"zes":11554,"rek":11555,"rection":11556,"Ġcs":11557,"Ġgan":11558,"Ġlg":11559,"Ġlug":11560,"anitary":11561,"irts":11562,"rose":11563,"Ġmega":11564,"Ġjiffy":11565,"Ġoutgoing":11566,"Ġhott":11567,"Ġdesignated":11568,"Ġspecified":11569,"Ġpalate":11570,"Ġpiercings":11571,"Ġinteractive":11572,"Ġveterans":11573,"Ġrenewed":11574,"Ġhemmed":11575,"Ġmatthews":11576,"Ġbeaucoup":11577,"Ġsnotty":11578,"Ġjacuzzi":11579,"elle":11580,"gic":11581,"Ġbern":11582,"ati":11583,"Ġyoutu":11584,"acking":11585,"Ġfirstly":11586,"osity":11587,"Ġwhereas":11588,"Ġbaskets":11589,"Ġsandals":11590,"Ġurb":11591,"Ġobserv":11592,"Ġprincipal":11593,"Ġskimpy":11594,"Ġpopeyes":11595,"Ġcp":11596,"Ġdrenched":11597,"Ġrevis":11598,"Ġquand":11599,"Ġspite":11600,"Ġinsured":11601,"Ġrango":11602,"Ġoperations":11603,"Ġbiased":11604,"Ġricotta":11605,"Ġirritating":11606,"Ġfreedom":11607,"Ġholistic":11608,"lene":11609,"Ġcm":11610,"ications":11611,"velo":11612,"Ġsolo":11613,"Ġrapp":11614,"Ġframed":11615,"Ġusps":11616,"Ġtracks":11617,"Ġdefinition":11618,"Ġfresher":11619,"Ġmidw":11620,"Ġpaintings":11621,"Ġchatty":11622,"Ġspinning":11623,"Ġdrawback":11624,"Ġloaner":11625,"Ġdominos":11626,"Ġmentor":11627,"Ġcamper":11628,"urchased":11629,"Ġkindergarten":11630,"Ġscrumptious":11631,"Ġdundas":11632,"Ġbail":11633,"inge":11634,"Ġsahara":11635,"respond":11636,"veda":11637,"Ġextent":11638,"Ġshabby":11639,"Ġindo":11640,"ogies":11641,"Ġscreamed":11642,"Ġbanker":11643,"Ġbells":11644,"Ġexchanged":11645,"Ġkenny":11646,"thanks":11647,"Ġsleeves":11648,"Ġdispens":11649,"Ġrooft":11650,"Ġleadership":11651,"Ġtobac":11652,"Ġbathtub":11653,"Ġyoutube":11654,"fly":11655,"foot":11656,"ghan":11657,"gate":11658,"Ġmich":11659,"Ġamp":11660,"Ġsaver":11661,"Ġproactive":11662,"apers":11663,"Ġavis":11664,"Ġspecialize":11665,"Ġneglect":11666,"Ġforest":11667,"inoa":11668,"chee":11669,"Ġluis":11670,"Ġtroy":11671,"Ġcharacters":11672,"tc":11673,"Ġoxt":11674,"Ġgently":11675,"Ġein":11676,"Ġhush":11677,"Ġbackp":11678,"Ġfears":11679,"Ġbrenda":11680,"Ġpottery":11681,"Ġemailing":11682,"Ġcolorado":11683,"Ġshrimps":11684,"Ġdoughy":11685,"Ġsympath":11686,"Ġsucculent":11687,"Ġarugula":11688,"hine":11689,"Ġwid":11690,"asa":11691,"Ġinfer":11692,"Ġjared":11693,"Ġkicking":11694,"pering":11695,"imb":11696,"Ġmang":11697,"Ġclogged":11698,"Ġbrie":11699,"Ġjudy":11700,"Ġessay":11701,"Ġunimpressed":11702,"Ġsavoury":11703,"Ġsizz":11704,"Ġtherape":11705,"Ġbamb":11706,"Ġpron":11707,"Ġquinoa":11708,"Ġglazed":11709,"ublic":11710,"Ġspecialized":11711,"Ġclassics":11712,"Ġsalesmen":11713,"Ġceas":11714,"Ġrema":11715,"Ġera":11716,"Ġvanessa":11717,"Ġgums":11718,"Ġbusted":11719,"Ġcubes":11720,"Ġfolded":11721,"Ġsynthetic":11722,"Ġtzatziki":11723,"enne":11724,"asha":11725,"Ġsectional":11726,"Ġglitter":11727,"Ġrecreat":11728,"Ġhug":11729,"Ġsubaru":11730,"Ġunsanitary":11731,"Ġcaesars":11732,"Ġsupplement":11733,"Ġwilted":11734,"Ġanesthes":11735,"Ġtherapeut":11736,"cop":11737,"norm":11738,"sible":11739,"Ġlion":11740,"icial":11741,"Ġhaired":11742,"Ġrmt":11743,"Ġshook":11744,"Ġshisha":11745,"udo":11746,"Ġpaw":11747,"Ġelvis":11748,"decided":11749,"Ġpromote":11750,"Ġaccommodations":11751,"Ġwoods":11752,"Ġcucumbers":11753,"Ġstunned":11754,"Ġslimy":11755,"Ġmgm":11756,"Ġtournament":11757,"Ġlegend":11758,"cor":11759,"fruit":11760,"Ġdd":11761,"Ġwealth":11762,"Ġstitch":11763,"Ġtier":11764,"Ġalt":11765,"Ġkra":11766,"Ġsau":11767,"Ġmos":11768,"Ġoverc":11769,"ando":11770,"Ġbrut":11771,"Ġslides":11772,"Ġcorrespond":11773,"Ġbreadsticks":11774,"Ġflavoured":11775,"Ġsnag":11776,"Ġapprove":11777,"Ġmixing":11778,"Ġwontons":11779,"Ġnapkin":11780,"Ġcushions":11781,"Ġretrieve":11782,"rese":11783,"unken":11784,"Ġmoi":11785,"cientious":11786,"Ġpavers":11787,"Ġchannels":11788,"Ġfirestone":11789,"Ġcrusty":11790,"Ġgooey":11791,"Ġinsisting":11792,"Ġhygienists":11793,"located":11794,"Ġoverlook":11795,"Ġpermit":11796,"Ġinstitution":11797,"Ġnigiri":11798,"incred":11799,"nitzel":11800,"esh":11801,"vering":11802,"Ġanger":11803,"Ġants":11804,"Ġramp":11805,"Ġspider":11806,"Ġexplo":11807,"Ġjewell":11808,"Ġcelebrating":11809,"john":11810,"club":11811,"Ġinept":11812,"Ġquirky":11813,"Ġstamps":11814,"free":11815,"hl":11816,"Ġdug":11817,"Ġumm":11818,"Ġdeux":11819,"Ġchit":11820,"Ġjoel":11821,"Ġconscientious":11822,"needed":11823,"Ġfarmer":11824,"Ġbeaten":11825,"Ġretailers":11826,"Ġcircus":11827,"Ġcriticism":11828,"card":11829,"Ġdose":11830,"Ġties":11831,"Ġgosh":11832,"Ġvu":11833,"Ġmol":11834,"Ġpoached":11835,"Ġdrs":11836,"Ġrio":11837,"Ġexceed":11838,"Ġaccidents":11839,"Ġmailing":11840,"liner":11841,"Ġviolation":11842,"Ġsnobby":11843,"Ġconverted":11844,"Ġnikki":11845,"Ġappraisal":11846,"Ġartisan":11847,"Ġpizzer":11848,"Ġcalendar":11849,"gio":11850,"jam":11851,"Ġcure":11852,"Ġpir":11853,"Ġgor":11854,"Ġmere":11855,"stress":11856,"Ġplumbers":11857,"Ġdelect":11858,"Ġral":11859,"Ġcaps":11860,"Ġspic":11861,"uds":11862,"Ġtasteful":11863,"Ġreader":11864,"Ġbedding":11865,"Ġtoddlers":11866,"Ġpurposes":11867,"Ġexpenses":11868,"Ġcrawl":11869,"Ġjackson":11870,"Ġturkish":11871,"purchased":11872,"wish":11873,"Ġsinks":11874,"iser":11875,"Ġsoir":11876,"sea":11877,"rys":11878,"Ġaddic":11879,"Ġsupported":11880,"Ġcontrolled":11881,"Ġbrewing":11882,"Ġdevil":11883,"Ġkicker":11884,"Ġperformers":11885,"Ġdispat":11886,"Ġsecretary":11887,"Ġexpanded":11888,"Ġlentil":11889,"Ġdiesel":11890,"vit":11891,"roid":11892,"Ġchore":11893,"Ġacoust":11894,"Ġdecides":11895,"Ġblu":11896,"Ġpatches":11897,"Ġbelts":11898,"Ġcurric":11899,"Ġpersonalities":11900,"Ġfroyo":11901,"Ġbakeries":11902,"Ġdavis":11903,"Ġbotched":11904,"Ġinfected":11905,"Ġjunior":11906,"taking":11907,"Ġbible":11908,"Ġhind":11909,"Ġkos":11910,"inda":11911,"Ġchez":11912,"andra":11913,"Ġattach":11914,"Ġkiddos":11915,"pson":11916,"inson":11917,"Ġblocking":11918,"Ġcollecting":11919,"Ġfett":11920,"Ġjukebox":11921,"Ġreflection":11922,"Ġeu":11923,"arr":11924,"leen":11925,"Ġmaps":11926,"Ġrepublic":11927,"Ġcutter":11928,"Ġcutlery":11929,"Ġplanner":11930,"Ġcreams":11931,"Ġsonic":11932,"Ġgrind":11933,"cuts":11934,"Ġlabour":11935,"Ġtrader":11936,"paid":11937,"Ġdrawers":11938,"Ġauthorization":11939,"Ġdocs":11940,"Ġphase":11941,"Ġremainder":11942,"vals":11943,"Ġaveda":11944,"Ġshea":11945,"Ġvul":11946,"Ġcoz":11947,"Ġcomped":11948,"Ġtablet":11949,"Ġpulls":11950,"Ġattendants":11951,"Ġleader":11952,"Ġhomeowners":11953,"Ġcordial":11954,"Ġhustle":11955,"Ġkettle":11956,"Ġbaguette":11957,"Ġaustin":11958,"rate":11959,"Ġoly":11960,"Ġfoul":11961,"Ġdq":11962,"lement":11963,"Ġyup":11964,"Ġconco":11965,"Ġfever":11966,"Ġappare":11967,"Ġresume":11968,"plex":11969,"Ġshapes":11970,"Ġbelg":11971,"Ġqueens":11972,"Ġrepeating":11973,"Ġscenery":11974,"Ġnavy":11975,"Ġinstitute":11976,"Ġannounce":11977,"rad":11978,"Ġinattentive":11979,"Ġcomfor":11980,"Ġvista":11981,"Ġscones":11982,"ffee":11983,"Ġmargin":11984,"Ġsatay":11985,"Ġhardest":11986,"Ġmeatlo":11987,"Ġsmoker":11988,"umption":11989,"Ġzomb":11990,"Ġquesadillas":11991,"Ġbriefly":11992,"Ġchunky":11993,"Ġmoderately":11994,"craft":11995,"function":11996,"Ġpuzzles":11997,"Ġrooftop":11998,"wat":11999,"hey":12000,"Ġpony":12001,"oted":12002,"Ġbeth":12003,"Ġshield":12004,"Ġpeps":12005,"Ġpurs":12006,"Ġcorrection":12007,"Ġdonated":12008,"Ġfreon":12009,"Ġimproper":12010,"Ġaddressing":12011,"Ġvenet":12012,"Ġsuspen":12013,"Ġrelationships":12014,"Ġvouchers":12015,"Ġharassed":12016,"Ġsirloin":12017,"Ġgigantic":12018,"Ġjumbo":12019,"Ġnursery":12020,"Ġunassuming":12021,"Ġtherapeutic":12022,"piece":12023,"Ġss":12024,"Ġbk":12025,"illo":12026,"Ġpao":12027,"Ġblaming":12028,"Ġhonour":12029,"Ġhorchat":12030,"Ġbilly":12031,"Ġreduction":12032,"Ġremake":12033,"Ġintuit":12034,"Ġstephen":12035,"Ġtravels":12036,"Ġprotected":12037,"Ġwednesdays":12038,"Ġracing":12039,"Ġscanned":12040,"Ġseamstress":12041,"Ġemotion":12042,"Ġrebuilt":12043,"Ġventilation":12044,"iant":12045,"tan":12046,"Ġsr":12047,"Ġhefty":12048,"eled":12049,"olitan":12050,"Ġtinting":12051,"Ġprotector":12052,"Ġtruffles":12053,"Ġvaping":12054,"Ġabundance":12055,"Ġblatantly":12056,"Ġgambling":12057,"brought":12058,"Ġfont":12059,"Ġblog":12060,"orms":12061,"Ġbegging":12062,"Ġana":12063,"Ġdosa":12064,"Ġdoggy":12065,"terns":12066,"Ġrats":12067,"Ġnoises":12068,"lock":12069,"Ġunap":12070,"Ġmoreover":12071,"Ġresc":12072,"Ġperf":12073,"Ġinterse":12074,"Ġquestioning":12075,"Ġexpertly":12076,"Ġassembled":12077,"Ġrestrictions":12078,"Ġaffected":12079,"Ġmyster":12080,"Ġdol":12081,"Ġproport":12082,"Ġcharcut":12083,"Ġsimon":12084,"Ġexpans":12085,"Ġfurry":12086,"Ġcracking":12087,"Ġinvolve":12088,"Ġpalms":12089,"Ġkristen":12090,"Ġrabbit":12091,"Ġcockroaches":12092,"Ġbolts":12093,"Ġretirement":12094,"Ġtobacco":12095,"Ġpepsi":12096,"home":12097,"oza":12098,"Ġpate":12099,"icans":12100,"Ġkoh":12101,"Ġlily":12102,"Ġrise":12103,"Ġgodd":12104,"izable":12105,"Ġbark":12106,"Ġbuys":12107,"Ġsellers":12108,"Ġtransit":12109,"ceptive":12110,"Ġchocolat":12111,"Ġhumans":12112,"Ġflowing":12113,"Ġhyper":12114,"Ġunload":12115,"Ġfb":12116,"Ġdign":12117,"Ġdyed":12118,"Ġnort":12119,"Ġlinger":12120,"Ġinjection":12121,"Ġseph":12122,"Ġkitt":12123,"Ġlondon":12124,"Ġuncom":12125,"agio":12126,"Ġado":12127,"Ġarise":12128,"Ġarmy":12129,"Ġgrows":12130,"Ġrequiring":12131,"Ġinval":12132,"pros":12133,"Ġenvision":12134,"Ġverd":12135,"Ġsampling":12136,"Ġangle":12137,"Ġjerky":12138,"Ġlitter":12139,"Ġthreaten":12140,"Ġteenager":12141,"Ġaesthetic":12142,"Ġcrammed":12143,"Ġentitled":12144,"Ġding":12145,"Ġgag":12146,"Ġfrys":12147,"ulum":12148,"Ġconse":12149,"Ġmanip":12150,"Ġmole":12151,"ixie":12152,"Ġappalling":12153,"olian":12154,"Ġreplies":12155,"worth":12156,"Ġrefreshed":12157,"Ġmaternity":12158,"Ġnacho":12159,"Ġcurtain":12160,"Ġphilos":12161,"Ġpropos":12162,"Ġbarbara":12163,"Ġpoulet":12164,"Ġborderline":12165,"Ġathletic":12166,"Ġdemonstrated":12167,"Ġbrooklyn":12168,"Ġresturant":12169,"net":12170,"ui":12171,"Ġtummy":12172,"Ġsought":12173,"Ġpend":12174,"irable":12175,"Ġalum":12176,"Ġvince":12177,"Ġcoins":12178,"Ġchel":12179,"Ġribb":12180,"Ġache":12181,"Ġsmashed":12182,"Ġvisibly":12183,"Ġheadphones":12184,"Ġranges":12185,"Ġcement":12186,"Ġirs":12187,"Ġfryer":12188,"Ġdisrespected":12189,"Ġexclusive":12190,"Ġpediatric":12191,"Ġbikini":12192,"Ġoxy":12193,"Ġlivid":12194,"Ġbicycle":12195,"Ġindifferent":12196,"iop":12197,"licious":12198,"pical":12199,"Ġpowd":12200,"icient":12201,"Ġnotification":12202,"robe":12203,"Ġmane":12204,"Ġscope":12205,"Ġscold":12206,"mmer":12207,"Ġbreakfasts":12208,"Ġfilms":12209,"Ġcollected":12210,"zech":12211,"Ġmelts":12212,"Ġspraying":12213,"Ġmountains":12214,"Ġbullet":12215,"Ġaccurately":12216,"Ġseniors":12217,"Ġmicrobl":12218,"Ġgraciously":12219,"Ġcomplementary":12220,"Ġdelectable":12221,"Ġtous":12222,"Ġara":12223,"Ġbj":12224,"Ġinac":12225,"antha":12226,"Ġmens":12227,"Ġglor":12228,"Ġlau":12229,"Ġsensit":12230,"Ġlaughs":12231,"Ġgamble":12232,"Ġsophist":12233,"Ġswift":12234,"Ġoverflowing":12235,"Ġcaffeine":12236,"Ġhicc":12237,"Ġmeatloaf":12238,"Ġphilosop":12239,"Ġwary":12240,"Ġcatherine":12241,"urb":12242,"stop":12243,"Ġconvert":12244,"Ġdrunken":12245,"placed":12246,"Ġdifferences":12247,"Ġsharon":12248,"Ġharry":12249,"Ġfaux":12250,"Ġvacant":12251,"Ġhamburgers":12252,"ilson":12253,"Ġorthodontist":12254,"yne":12255,"Ġhagg":12256,"Ġthirsty":12257,"Ġnotices":12258,"Ġcommend":12259,"Ġdeliciousness":12260,"Ġhardworking":12261,"Ġsandra":12262,"Ġstuffy":12263,"Ġsnapp":12264,"umba":12265,"Ġgrandfather":12266,"Ġadjusting":12267,"Ġmagically":12268,"Ġthursdays":12269,"Ġescrow":12270,"Ġahi":12271,"Ġdisappear":12272,"Ġgigg":12273,"Ġwhitening":12274,"Ġakron":12275,"Ġcitizen":12276,"Ġroberto":12277,"frame":12278,"booked":12279,"eur":12280,"iac":12281,"nth":12282,"erving":12283,"ooke":12284,"Ġspam":12285,"Ġcarri":12286,"Ġmarathon":12287,"Ġsupplied":12288,"Ġeleven":12289,"Ġxl":12290,"Ġbenny":12291,"Ġassociation":12292,"Ġirrespon":12293,"Ġperiods":12294,"Ġcommunicative":12295,"Ġneatly":12296,"Ġpupus":12297,"Ġunlocked":12298,"Ġreflects":12299,"Ġllc":12300,"Ġtreadmill":12301,"Ġblizzard":12302,"Ġtant":12303,"hem":12304,"Ġtox":12305,"Ġheidi":12306,"Ġclippers":12307,"Ġdips":12308,"Ġavait":12309,"Ġreadily":12310,"Ġbros":12311,"Ġdragged":12312,"Ġtaped":12313,"Ġconnections":12314,"Ġtasks":12315,"Ġcrawling":12316,"Ġevaluate":12317,"Ġmilkshakes":12318,"bridge":12319,"Ġunbear":12320,"Ġmongolian":12321,"Ġvenetian":12322,"backs":12323,"Ġml":12324,"Ġkings":12325,"Ġrows":12326,"gel":12327,"Ġshuff":12328,"Ġchut":12329,"Ġcoil":12330,"Ġcompares":12331,"Ġteeter":12332,"Ġbusiest":12333,"Ġentre":12334,"Ġmarvel":12335,"Ġguards":12336,"Ġeaters":12337,"Ġschnitzel":12338,"Ġbraids":12339,"Ġclosets":12340,"Ġquietly":12341,"Ġtailoring":12342,"Ġdispenser":12343,"Ġdermatologist":12344,"Ġimmensely":12345,"Ġsurgical":12346,"Ġdecadent":12347,"Ġsephora":12348,"aux":12349,"big":12350,"sor":12351,"Ġtb":12352,"Ġts":12353,"Ġwth":12354,"Ġcette":12355,"Ġbids":12356,"Ġanderson":12357,"esa":12358,"Ġforbid":12359,"etly":12360,"Ġkitten":12361,"Ġyourselves":12362,"Ġfeast":12363,"Ġcanvas":12364,"Ġmover":12365,"igo":12366,"Ġpeut":12367,"Ġscra":12368,"Ġspell":12369,"Ġkeg":12370,"Ġswo":12371,"Ġdancer":12372,"Ġaccountable":12373,"Ġauthenticity":12374,"Ġbehaved":12375,"aaaa":12376,"ndsay":12377,"Ġastound":12378,"Ġcelery":12379,"Ġemployment":12380,"Ġwynn":12381,"Ġadvocate":12382,"Ġolymp":12383,"Ġhorchata":12384,"ost":12385,"Ġcured":12386,"iso":12387,"Ġthunder":12388,"amiliar":12389,"Ġcrumbs":12390,"Ġhotter":12391,"ibilities":12392,"Ġze":12393,"Ġdeposits":12394,"Ġgenerously":12395,"Ġknocking":12396,"Ġshang":12397,"Ġadopt":12398,"Ġarticle":12399,"Ġhabits":12400,"sha":12401,"atos":12402,"Ġhes":12403,"Ġconno":12404,"Ġagencies":12405,"Ġspouse":12406,"Ġwolf":12407,"Ġreminis":12408,"oooooooo":12409,"daughter":12410,"Ġcryst":12411,"Ġcousins":12412,"Ġgraduate":12413,"Ġlucy":12414,"Ġcurriculum":12415,"Ġswollen":12416,"itters":12417,"othered":12418,"Ġumbre":12419,"Ġrus":12420,"eston":12421,"Ġscotch":12422,"Ġrestore":12423,"Ġdecency":12424,"Ġpedis":12425,"Ġfrequented":12426,"Ġvegetarians":12427,"Ġinspiring":12428,"Ġnordstrom":12429,"Ġbrulee":12430,"Ġurbana":12431,"Ġtum":12432,"Ġaur":12433,"anta":12434,"istics":12435,"Ġcarmel":12436,"Ġchee":12437,"ĠĠĠĠĊ":12438,"Ġcleans":12439,"Ġpriceless":12440,"Ġbarking":12441,"Ġempt":12442,"Ġglued":12443,"Ġindicate":12444,"Ġorient":12445,"Ġmidwest":12446,"Ġexamine":12447,"Ġlayered":12448,"Ġcamping":12449,"Ġshells":12450,"Ġnause":12451,"Ġaioli":12452,"Ġcaramelized":12453,"Ġfruity":12454,"Ġbrushes":12455,"Ġabandoned":12456,"Ġsunrise":12457,"jang":12458,"Ġherbal":12459,"Ġdrained":12460,"Ġclair":12461,"Ġchaotic":12462,"Ġperks":12463,"Ġcheckup":12464,"Ġstuffing":12465,"Ġcurl":12466,"Ġhopeful":12467,"Ġzipper":12468,"Ġcounts":12469,"Ġsilent":12470,"Ġlengths":12471,"Ġchandel":12472,"Ġassessed":12473,"Ġuncaring":12474,"Ġunfamiliar":12475,"Ġshepher":12476,"iries":12477,"pir":12478,"Ġsizing":12479,"Ġhann":12480,"alay":12481,"ceived":12482,"Ġmonkey":12483,"Ġsmash":12484,"Ġbla":12485,"Ġhandbag":12486,"ssom":12487,"Ġsitter":12488,"Ġpacket":12489,"Ġyelper":12490,"Ġcasey":12491,"Ġimported":12492,"Ġclubhouse":12493,"Ġenvy":12494,"Ġautozone":12495,"Ġethiop":12496,"Ġelectricity":12497,"Ġkarma":12498,"Ġsprinkled":12499,"Ġlawsuit":12500,"Ġrehears":12501,"Ġscorpions":12502,"full":12503,"lake":12504,"Ġaca":12505,"hea":12506,"otics":12507,"Ġforcing":12508,"Ġconso":12509,"Ġknives":12510,"Ġrecommends":12511,"Ġactors":12512,"Ġcolumb":12513,"Ġearl":12514,"Ġcountries":12515,"warning":12516,"Ġinquiring":12517,"Ġmalt":12518,"Ġsubscri":12519,"Ġtamales":12520,"Ġinterrupting":12521,"Ġvapor":12522,"Ġfreakin":12523,"Ġwicked":12524,"Ġpd":12525,"Ġect":12526,"Ġweld":12527,"lying":12528,"quets":12529,"unted":12530,"Ġkeen":12531,"Ġactively":12532,"Ġslap":12533,"Ġstray":12534,"Ġthinner":12535,"Ġbagged":12536,"Ġfremont":12537,"Ġvoid":12538,"Ġsquat":12539,"Ġjudged":12540,"Ġruby":12541,"Ġinvestigate":12542,"Ġmobility":12543,"Ġqualities":12544,"Ġcultural":12545,"Ġmarshmall":12546,"Ġintersection":12547,"bra":12548,"Ġanton":12549,"Ġsaut":12550,"Ġleo":12551,"Ġpose":12552,"Ġdrool":12553,"Ġroger":12554,"Ġspelling":12555,"Ġbanfield":12556,"Ġswall":12557,"Ġdamaging":12558,"Ġutilities":12559,"Ġlaminate":12560,"Ġscheme":12561,"Ġbingo":12562,"Ġapparel":12563,"lated":12564,"ukee":12565,"Ġfights":12566,"Ġmb":12567,"Ġmouse":12568,"Ġpav":12569,"Ġgur":12570,"Ġliability":12571,"ibles":12572,"Ġedam":12573,"Ġdecorating":12574,"Ġoperates":12575,"Ġrotating":12576,"andaise":12577,"Ġrosemary":12578,"Ġplantains":12579,"Ġhunger":12580,"Ġnavig":12581,"Ġdeeper":12582,"laimed":12583,"disapp":12584,"Ġrinse":12585,"Ġcort":12586,"Ġeaton":12587,"Ġinfest":12588,"worked":12589,"Ġannoyance":12590,"Ġbaseboards":12591,"Ġdietary":12592,"Ġtheaters":12593,"Ġgratitude":12594,"Ġexhibits":12595,"Ġecst":12596,"Ġmisunderstanding":12597,"Ġparfait":12598,"Ġfurnishings":12599,"Ġsuspension":12600,"Ġcharcuterie":12601,"Ġpushes":12602,"Ġbeads":12603,"Ġyol":12604,"Ġstinks":12605,"Ġuv":12606,"Ġouter":12607,"Ġsaute":12608,"iler":12609,"Ġchilled":12610,"Ġmoe":12611,"Ġoverse":12612,"Ġpea":12613,"Ġmug":12614,"Ġshoved":12615,"Ġcomplications":12616,"Ġsweeter":12617,"Ġnumbing":12618,"Ġpackets":12619,"Ġgeneration":12620,"Ġblossom":12621,"Ġcharleston":12622,"Ġantiques":12623,"mbled":12624,"Ġevol":12625,"Ġscenario":12626,"Ġcheryl":12627,"Ġsympathetic":12628,"laws":12629,"Ġharassing":12630,"Ġhollandaise":12631,"Ġupholstery":12632,"Ġyikes":12633,"press":12634,"Ġtore":12635,"Ġaller":12636,"ptive":12637,"ardo":12638,"Ġphill":12639,"Ġempathetic":12640,"Ġglaze":12641,"Ġfastest":12642,"Ġcasa":12643,"Ġaccepts":12644,"Ġwinners":12645,"Ġdepartments":12646,"Ġregretted":12647,"Ġduh":12648,"Ġcaprese":12649,"Ġenthusiast":12650,"Ġsettlement":12651,"Ġunexpectedly":12652,"Ġtaiwanese":12653,"Ġsplurge":12654,"Ġintuitive":12655,"ias":12656,"saw":12657,"Ġwilson":12658,"Ġmmm":12659,"atable":12660,"Ġegl":12661,"ido":12662,"Ġcoils":12663,"istine":12664,"cials":12665,"Ġpert":12666,"Ġrecon":12667,"Ġburden":12668,"Ġstem":12669,"Ġintr":12670,"Ġmodifications":12671,"Ġzumba":12672,"Ġtunes":12673,"Ġconsulted":12674,"simply":12675,"Ġoxtail":12676,"dled":12677,"uis":12678,"Ġrite":12679,"Ġvest":12680,"Ġunatt":12681,"Ġarby":12682,"Ġcontest":12683,"Ġsecured":12684,"Ġgrant":12685,"Ġtalkative":12686,"Ġworkshop":12687,"Ġbleed":12688,"Ġcarpeting":12689,"Ġyorkville":12690,"Ġplatters":12691,"Ġconsuming":12692,"Ġbumps":12693,"Ġmagnific":12694,"Ġpreface":12695,"Ġedamame":12696,"dough":12697,"rone":12698,"Ġame":12699,"Ġmia":12700,"usable":12701,"Ġbearing":12702,"Ġneil":12703,"Ġoutta":12704,"Ġunse":12705,"Ġinsure":12706,"Ġpaycheck":12707,"Ġsuggests":12708,"Ġavoir":12709,"ĠĠĠĠĠĠĠĠĠĠ":12710,"Ġerica":12711,"Ġbaff":12712,"Ġrais":12713,"Ġformat":12714,"Ġpenal":12715,"Ġpowerful":12716,"Ġboutiques":12717,"Ġmalfunction":12718,"Ġimmig":12719,"Ġberries":12720,"pretentious":12721,"Ġgranola":12722,"Ġfixture":12723,"Ġcesar":12724,"Ġmerchant":12725,"Ġkosher":12726,"ocol":12727,"tail":12728,"Ġaime":12729,"Ġct":12730,"Ġmason":12731,"icable":12732,"Ġwears":12733,"ali":12734,"Ġelbow":12735,"Ġrefundable":12736,"rifty":12737,"Ġrotate":12738,"Ġabsor":12739,"Ġrebate":12740,"Ġunlock":12741,"Ġdreaded":12742,"Ġoverdone":12743,"Ġremarks":12744,"Ġeglinton":12745,"Ġaids":12746,"Ġdarts":12747,"Ġforum":12748,"Ġstal":12749,"resh":12750,"Ġleb":12751,"arded":12752,"Ġsmothered":12753,"othy":12754,"Ġbrett":12755,"solid":12756,"Ġshoots":12757,"Ġsweating":12758,"Ġcrem":12759,"Ġinvite":12760,"Ġdouche":12761,"Ġmichel":12762,"Ġrespectable":12763,"Ġsquad":12764,"Ġdenver":12765,"Ġcertification":12766,"charged":12767,"Ġorthoped":12768,"Ġantibiotic":12769,"Ġredeeming":12770,"Ġdepressing":12771,"watukee":12772,"Ġbilt":12773,"Ġpall":12774,"Ġpand":12775,"Ġweighed":12776,"Ġbackup":12777,"Ġprison":12778,"Ġagr":12779,"Ġchickens":12780,"Ġworthwhile":12781,"Ġetiqu":12782,"Ġdrinker":12783,"Ġdances":12784,"Ġgymn":12785,"Ġcatalog":12786,"Ġgrandson":12787,"rifying":12788,"Ġsuffice":12789,"Ġdeceiving":12790,"Ġsubstance":12791,"Ġrelevant":12792,"Ġmuffler":12793,"Ġwiping":12794,"Ġguitars":12795,"Ġbouncers":12796,"Ġoakland":12797,"buyer":12798,"Ġvitamin":12799,"Ġbankruptcy":12800,"Ġnatalie":12801,"Ġtoen":12802,"Ġlul":12803,"Ġelli":12804,"Ġsof":12805,"Ġtwin":12806,"Ġtwins":12807,"Ġclever":12808,"Ġdefend":12809,"Ġsham":12810,"answ":12811,"Ġharley":12812,"Ġsnake":12813,"Ġflea":12814,"Ġmotivation":12815,"Ġassez":12816,"Ġahwatukee":12817,"Ġgeek":12818,"Ġinvestigation":12819,"Ġhazelnut":12820,"Ġpizzeria":12821,"Ġtans":12822,"Ġaston":12823,"Ġoo":12824,"Ġnt":12825,"Ġlung":12826,"atur":12827,"Ġinability":12828,"Ġbeets":12829,"Ġwhist":12830,"Ġalo":12831,"thora":12832,"Ġpristine":12833,"Ġunfor":12834,"cio":12835,"Ġawards":12836,"Ġdiy":12837,"Ġdownload":12838,"Ġattrib":12839,"Ġportra":12840,"Ġeyeg":12841,"Ġhearted":12842,"Ġbao":12843,"Ġsorted":12844,"Ġslightest":12845,"Ġtubes":12846,"Ġacknowledgement":12847,"Ġstretches":12848,"Ġathletes":12849,"Ġbecky":12850,"bot":12851,"Ġturt":12852,"Ġglove":12853,"Ġhalo":12854,"Ġfrapp":12855,"Ġouting":12856,"Ġappts":12857,"umn":12858,"osh":12859,"Ġflakes":12860,"Ġperk":12861,"Ġplethora":12862,"Ġasshole":12863,"Ġbuilders":12864,"Ġgrinding":12865,"Ġapproaching":12866,"Ġorganize":12867,"Ġskincare":12868,"Ġdaddy":12869,"Ġrubbed":12870,"Ġjanet":12871,"Ġrelieve":12872,"Ġtubs":12873,"Ġfountains":12874,"Ġfleet":12875,"Ġformerly":12876,"Ġkarate":12877,"Ġfragr":12878,"parents":12879,"Ġalberts":12880,"Ġenhance":12881,"Ġwardrobe":12882,"Ġconnoisse":12883,"Ġetiquette":12884,"Ġfoo":12885,"Ġhavent":12886,"Ġstamped":12887,"Ġlindsay":12888,"Ġoutright":12889,"Ġbrack":12890,"Ġbolog":12891,"Ġsuperv":12892,"Ġsnark":12893,"Ġlegally":12894,"Ġsounding":12895,"Ġtails":12896,"Ġdigest":12897,"Ġexplanations":12898,"Ġsacrif":12899,"Ġprotocol":12900,"Ġconservative":12901,"Ġwool":12902,"Ġtaps":12903,"Ġunpretentious":12904,"Ġrefurb":12905,"bearing":12906,"Ġgranddaughter":12907,"Ġrepresenting":12908,"Ġjulia":12909,"Ġoscar":12910,"Ġoverlooking":12911,"Ġuniforms":12912,"Ġreimbursement":12913,"Ġtranqu":12914,"Ġdiligence":12915,"Ġintrigued":12916,"Ġprivilege":12917,"answered":12918,"aire":12919,"Ġtheory":12920,"Ġoce":12921,"Ġcors":12922,"itage":12923,"Ġisol":12924,"Ġinse":12925,"Ġkor":12926,"lose":12927,"Ġcane":12928,"Ġcleanup":12929,"Ġflats":12930,"Ġpainters":12931,"rett":12932,"Ġsourdough":12933,"Ġemergencies":12934,"Ġlanding":12935,"Ġkimber":12936,"Ġventured":12937,"Ġlinens":12938,"Ġrestocking":12939,"Ġsuburban":12940,"imbap":12941,"Ġbamboo":12942,"Ġcrystals":12943,"find":12944,"kk":12945,"look":12946,"pers":12947,"Ġoops":12948,"Ġgimm":12949,"otes":12950,"urring":12951,"Ġjail":12952,"Ġrink":12953,"Ġcloud":12954,"Ġhoot":12955,"Ġokra":12956,"standard":12957,"Ġlists":12958,"rowded":12959,"Ġexpire":12960,"Ġmicrod":12961,"Ġmisin":12962,"Ġtattooed":12963,"Ġcracker":12964,"Ġevil":12965,"Ġvending":12966,"Ġaggressively":12967,"Ġjunction":12968,"Ġaddiction":12969,"Ġexemplary":12970,"Ġethiopian":12971,"cast":12972,"raine":12973,"haha":12974,"Ġnin":12975,"Ġstacy":12976,"Ġplugged":12977,"Ġratt":12978,"Ġcages":12979,"Ġoverbearing":12980,"mances":12981,"Ġtoured":12982,"Ġperformances":12983,"Ġdeparture":12984,"Ġfinancially":12985,"Ġfondue":12986,"contract":12987,"slow":12988,"Ġvotre":12989,"guy":12990,"lon":12991,"Ġsate":12992,"Ġbor":12993,"Ġnou":12994,"asco":12995,"Ġgoof":12996,"Ġhakka":12997,"Ġecho":12998,"Ġjung":12999,"Ġdeceptive":13000,"Ġmochi":13001,"Ġtrivia":13002,"Ġconsent":13003,"Ġwedge":13004,"Ġmidas":13005,"Ġcathy":13006,"chered":13007,"Ġsoooooo":13008,"Ġinspiration":13009,"Ġbubbly":13010,"Ġsubsequent":13011,"Ġshattered":13012,"Ġhottest":13013,"Ġphilosophy":13014,"Ġirresponsible":13015,"bc":13016,"Ġmuy":13017,"Ġthrifty":13018,"Ġhound":13019,"enta":13020,"owell":13021,"Ġdefe":13022,"Ġleon":13023,"Ġrox":13024,"Ġcharred":13025,"Ġdealings":13026,"Ġcasinos":13027,"Ġcuri":13028,"Ġirre":13029,"Ġtorta":13030,"Ġkicks":13031,"Ġexaggerating":13032,"Ġdramatic":13033,"Ġunapologetic":13034,"Ġecstatic":13035,"Ġwishing":13036,"Ġfender":13037,"Ġrendered":13038,"Ġquiche":13039,"Ġunanswered":13040,"Ġintoler":13041,"Ġimperson":13042,"Ġaccustom":13043,"Ġlowered":13044,"Ġplatform":13045,"Ġraining":13046,"Ġinquiries":13047,"Ġgalore":13048,"Ġhunters":13049,"Ġpurposely":13050,"Ġcorey":13051,"Ġmarshall":13052,"Ġproprietor":13053,"Ġhannah":13054,"mies":13055,"Ġpunk":13056,"Ġstump":13057,"Ġbutchered":13058,"Ġenroll":13059,"Ġowning":13060,"Ġbodies":13061,"Ġtrigger":13062,"Ġguides":13063,"Ġautres":13064,"Ġphotographs":13065,"Ġlicieux":13066,"Ġincomplete":13067,"Ġscarf":13068,"Ġcaptain":13069,"Ġconnecting":13070,"Ġescorted":13071,"dri":13072,"nacle":13073,"sad":13074,"Ġtater":13075,"Ġsns":13076,"Ġnas":13077,"Ġnate":13078,"itations":13079,"Ġcody":13080,"Ġmaison":13081,"Ġpoly":13082,"Ġbushes":13083,"Ġshaping":13084,"Ġoptional":13085,"uces":13086,"creen":13087,"Ġtenderloin":13088,"Ġcombine":13089,"Ġlychee":13090,"pleasure":13091,"Ġpassengers":13092,"Ġunderwhelmed":13093,"nthia":13094,"Ġpp":13095,"Ġlact":13096,"atrist":13097,"Ġderek":13098,"chris":13099,"Ġjuste":13100,"Ġpris":13101,"Ġdiaper":13102,"Ġaches":13103,"Ġbiggie":13104,"Ġconsulting":13105,"Ġshoppe":13106,"Ġassault":13107,"Ġmarketplace":13108,"Ġsweaty":13109,"Ġstainless":13110,"Ġdoubled":13111,"Ġpuffs":13112,"Ġdrastically":13113,"Ġdiscontinued":13114,"Ġdignity":13115,"Ġbiltmore":13116,"pre":13117,"Ġhairst":13118,"Ġew":13119,"Ġyoure":13120,"ulations":13121,"Ġsund":13122,"Ġtrout":13123,"Ġdial":13124,"Ġblade":13125,"Ġpara":13126,"Ġglen":13127,"Ġexplic":13128,"Ġmessaged":13129,"Ġfairness":13130,"Ġswed":13131,"Ġgarments":13132,"alement":13133,"Ġlincol":13134,"Ġcoordinated":13135,"Ġmarriage":13136,"Ġcivil":13137,"Ġego":13138,"alle":13139,"Ġseams":13140,"Ġjag":13141,"Ġslipped":13142,"Ġdeliciously":13143,"Ġpassable":13144,"Ġengra":13145,"Ġimagin":13146,"Ġessence":13147,"Ġsammy":13148,"Ġsprinkles":13149,"Ġbachelor":13150,"Ġrecovering":13151,"Ġhudson":13152,"Ġindoors":13153,"Ġchelsea":13154,"Ġaurora":13155,"jack":13156,"Ġpins":13157,"Ġserene":13158,"Ġfrance":13159,"Ġenvelo":13160,"Ġprest":13161,"Ġpaella":13162,"Ġmarco":13163,"Ġnorman":13164,"Ġcredited":13165,"Ġintro":13166,"Ġfigures":13167,"Ġinfin":13168,"Ġboarded":13169,"Ġgeared":13170,"Ġreminders":13171,"Ġexchanges":13172,"Ġdavids":13173,"Ġsavvy":13174,"Ġpaths":13175,"Ġthreaded":13176,"Ġpcp":13177,"Ġaddictive":13178,"Ġdiscipline":13179,"Ġinaccur":13180,"Ġreiter":13181,"ettes":13182,"Ġtimeframe":13183,"Ġblunt":13184,"Ġdeliber":13185,"Ġtrains":13186,"Ġdonc":13187,"Ġhangs":13188,"Ġmacy":13189,"Ġbiking":13190,"Ġgallo":13191,"Ġrobinson":13192,"Ġextermin":13193,"Ġstinky":13194,"Ġceramic":13195,"Ġcongrat":13196,"Ġmichigan":13197,"could":13198,"Ġdys":13199,"atin":13200,"Ġhou":13201,"Ġcomed":13202,"Ġmaggie":13203,"Ġdispleasure":13204,"Ġcontam":13205,"Ġcontents":13206,"Ġcrash":13207,"Ġembro":13208,"Ġzach":13209,"Ġsoftener":13210,"Ġprescribe":13211,"Ġtrades":13212,"Ġbellagio":13213,"Ġmelting":13214,"Ġbreathtaking":13215,"Ġcoordinate":13216,"Ġsunshine":13217,"Ġkabobs":13218,"Ġalberta":13219,"Ġtreadmills":13220,"Ġretainer":13221,"Ġunwelcome":13222,"Ġrejected":13223,"Ġinferior":13224,"dles":13225,"Ġszech":13226,"Ġdall":13227,"Ġgul":13228,"Ġlace":13229,"Ġsugary":13230,"Ġtaient":13231,"Ġexperiment":13232,"Ġblur":13233,"Ġconditioned":13234,"Ġaddresses":13235,"Ġcrusted":13236,"Ġsamantha":13237,"Ġcalmly":13238,"Ġnewbie":13239,"Ġaquarium":13240,"Ġstrategy":13241,"Ġdeleted":13242,"Ġhairstyle":13243,"Ġenvelope":13244,"rin":13245,"sen":13246,"athic":13247,"opa":13248,"Ġbacking":13249,"Ġmanny":13250,"weight":13251,"Ġrecons":13252,"ruly":13253,"Ġpotty":13254,"Ġpassword":13255,"Ġhangover":13256,"Ġinconvenien":13257,"Ġskillet":13258,"Ġunheard":13259,"Ġencouragement":13260,"Ġbumped":13261,"Ġrapide":13262,"Ġathlete":13263,"Ġrenee":13264,"Ġralph":13265,"Ġoxygen":13266,"Ġsophisticated":13267,"vard":13268,"hews":13269,"Ġbam":13270,"hable":13271,"urable":13272,"quite":13273,"resa":13274,"Ġclimate":13275,"Ġdiarr":13276,"Ġspelled":13277,"Ġbarry":13278,"Ġdetox":13279,"Ġmeter":13280,"Ġmixes":13281,"Ġannie":13282,"Ġblackened":13283,"Ġballet":13284,"inois":13285,"Ġrotisserie":13286,"Ġapplies":13287,"iesta":13288,"Ġvacuums":13289,"Ġporter":13290,"yyyy":13291,"Ġnovice":13292,"Ġcluttered":13293,"Ġessentials":13294,"Ġshanghai":13295,"hich":13296,"Ġfought":13297,"Ġcem":13298,"Ġummm":13299,"Ġprai":13300,"Ġtaqu":13301,"Ġaging":13302,"ongrass":13303,"Ġflipped":13304,"Ġpatterns":13305,"Ġgram":13306,"Ġtopic":13307,"Ġpolar":13308,"Ġreplacements":13309,"Ġcafes":13310,"Ġcontrary":13311,"Ġwigs":13312,"Ġsizzling":13313,"Ġsauteed":13314,"lands":13315,"Ġaly":13316,"Ġole":13317,"Ġmit":13318,"Ġnw":13319,"orous":13320,"Ġvilla":13321,"Ġshares":13322,"Ġrepairman":13323,"Ġceo":13324,"Ġdonations":13325,"atta":13326,"Ġtemple":13327,"Ġmartinis":13328,"Ġflyers":13329,"Ġrubbing":13330,"Ġpromotional":13331,"Ġshouting":13332,"laimer":13333,"Ġemphasis":13334,"Ġindulge":13335,"Ġhotdogs":13336,"Ġmonitoring":13337,"Ġgarnish":13338,"Ġmicroderm":13339,"Ġaccustomed":13340,"Ġlincoln":13341,"Ġmower":13342,"Ġpv":13343,"enced":13344,"Ġseren":13345,"Ġjc":13346,"Ġexor":13347,"zers":13348,"Ġtrump":13349,"Ġmugs":13350,"Ġperuv":13351,"Ġkel":13352,"Ġbuen":13353,"Ġterri":13354,"Ġhorrified":13355,"cco":13356,"Ġbirthdays":13357,"Ġladder":13358,"Ġscreening":13359,"master":13360,"Ġbouquets":13361,"Ġdupl":13362,"Ġpinnacle":13363,"Ġmurphy":13364,"Ġjacob":13365,"heartedly":13366,"Ġprinciple":13367,"Ġcivic":13368,"Ġlemongrass":13369,"Ġjewellery":13370,"mr":13371,"Ġnich":13372,"Ġgender":13373,"oto":13374,"Ġtiger":13375,"Ġabc":13376,"Ġleis":13377,"Ġmahi":13378,"Ġuninterested":13379,"Ġdisability":13380,"Ġcharco":13381,"Ġfoil":13382,"Ġavant":13383,"Ġinclined":13384,"Ġspoons":13385,"isters":13386,"Ġcashed":13387,"Ġcashew":13388,"Ġroads":13389,"Ġballant":13390,"Ġgrandparents":13391,"Ġneighborhoods":13392,"Ġcycling":13393,"Ġspiritual":13394,"Ġunclean":13395,"Ġmemorab":13396,"Ġexpanding":13397,"Ġdiagnostics":13398,"juana":13399,"Ġfasc":13400,"Ġrecommande":13401,"Ġreconsider":13402,"gance":13403,"pieces":13404,"yum":13405,"Ġsic":13406,"Ġsid":13407,"rell":13408,"Ġmast":13409,"Ġeg":13410,"owers":13411,"illes":13412,"Ġsafer":13413,"Ġconsequ":13414,"Ġmanor":13415,"Ġevenly":13416,"Ġcarbs":13417,"Ġroomy":13418,"uffed":13419,"Ġsmokers":13420,"Ġfloss":13421,"Ġstrings":13422,"Ġmovements":13423,"Ġtyping":13424,"Ġaffiliated":13425,"Ġfreaked":13426,"Ġlegacy":13427,"Ġhospitals":13428,"Ġchurros":13429,"Ġdispatch":13430,"Ġcircles":13431,"Ġadoption":13432,"Ġskewer":13433,"Ġducts":13434,"Ġvirginia":13435,"Ġretourner":13436,"Ġrapport":13437,"lim":13438,"vest":13439,"Ġlush":13440,"veled":13441,"Ġstrap":13442,"illac":13443,"Ġrit":13444,"Ġflan":13445,"Ġslapped":13446,"Ġgenre":13447,"Ġsubcontract":13448,"Ġwarming":13449,"Ġforemost":13450,"Ġreminding":13451,"iko":13452,"Ġpumping":13453,"Ġhalls":13454,"Ġversions":13455,"Ġcynthia":13456,"Ġfeaturing":13457,"Ġtroubleshoot":13458,"Ġanalysis":13459,"Ġsensitivity":13460,"Ġunbearable":13461,"Ġmagnificent":13462,"Ġperuvian":13463,"hub":13464,"raint":13465,"Ġyan":13466,"Ġsolic":13467,"Ġwhites":13468,"Ġkath":13469,"Ġmai":13470,"Ġwaive":13471,"osure":13472,"Ġpatched":13473,"Ġnightclub":13474,"Ġparma":13475,"Ġpresents":13476,"Ġbeliever":13477,"Ġcountertop":13478,"Ġgyoza":13479,"Ġparker":13480,"Ġsinger":13481,"Ġsupports":13482,"Ġblends":13483,"Ġrocket":13484,"Ġfolk":13485,"Ġamericanized":13486,"Ġgoose":13487,"Ġvolvo":13488,"Ġprospective":13489,"Ġmoisturi":13490,"Ġunwanted":13491,"Ġsherry":13492,"Ġcadillac":13493,"waited":13494,"Ġshadow":13495,"Ġacai":13496,"Ġdiarrhea":13497,"uch":13498,"ugg":13499,"Ġian":13500,"Ġmul":13501,"Ġpf":13502,"llis":13503,"Ġinha":13504,"Ġreju":13505,"road":13506,"Ġrita":13507,"Ġvase":13508,"Ġnos":13509,"Ġquiz":13510,"Ġdisli":13511,"Ġclou":13512,"Ġbogus":13513,"Ġtimers":13514,"Ġexceeding":13515,"ucky":13516,"Ġheadlight":13517,"Ġgasket":13518,"Ġfootage":13519,"Ġlouder":13520,"Ġgrooms":13521,"Ġdescribing":13522,"Ġfocuses":13523,"Ġrecognition":13524,"Ġattraction":13525,"Ġarcadia":13526,"Ġrehearsal":13527,"Ġconnoisseur":13528,"Ġmemorabilia":13529,"Ġfern":13530,"Ġming":13531,"Ġhamp":13532,"Ġreiki":13533,"Ġbeau":13534,"Ġyam":13535,"Ġdeaf":13536,"Ġrn":13537,"Ġsued":13538,"Ġrience":13539,"Ġresur":13540,"Ġharbor":13541,"Ġskating":13542,"Ġwaterfall":13543,"Ġdiscovery":13544,"Ġmindful":13545,"Ġfiltered":13546,"Ġbudd":13547,"Ġimaging":13548,"Ġvanity":13549,"Ġchilly":13550,"Ġmacaroons":13551,"Ġgraduated":13552,"Ġtolerate":13553,"Ġneutral":13554,"Ġmanicurist":13555,"Ġreminiscent":13556,"Ġinfestation":13557,"Ġsnarky":13558,"Ġprairie":13559,"Ġtara":13560,"Ġamend":13561,"ounced":13562,"once":13563,"Ġallison":13564,"Ġconce":13565,"icken":13566,"Ġmaze":13567,"istry":13568,"Ġuncooked":13569,"Ġpod":13570,"ondale":13571,"Ġinvas":13572,"Ġvolley":13573,"Ġvert":13574,"Ġhybrid":13575,"Ġhurried":13576,"Ġexistence":13577,"Ġembarrassment":13578,"Ġdutch":13579,"Ġwipes":13580,"Ġutilized":13581,"Ġconcession":13582,"Ġfettucc":13583,"Ġswedish":13584,"brand":13585,"Ġtus":13586,"Ġfiesta":13587,"Ġmitc":13588,"Ġpors":13589,"Ġtoner":13590,"oman":13591,"Ġkw":13592,"Ġlodge":13593,"Ġproc":13594,"Ġwage":13595,"Ġhourly":13596,"bery":13597,"Ġattire":13598,"Ġreaders":13599,"gran":13600,"Ġgravel":13601,"Ġpedest":13602,"Ġdoubles":13603,"Ġprompted":13604,"Ġchristop":13605,"Ġformula":13606,"Ġgrills":13607,"Ġdissatisf":13608,"Ġhunter":13609,"Ġallevi":13610,"Ġmigrain":13611,"Ġcannoli":13612,"Ġmojito":13613,"Ġrevisit":13614,"Ġleisure":13615,"camp":13616,"Ġbison":13617,"Ġbeast":13618,"Ġsten":13619,"ira":13620,"Ġbutts":13621,"Ġcompact":13622,"Ġunk":13623,"Ġdefault":13624,"Ġfinishes":13625,"Ġblower":13626,"Ġcrow":13627,"Ġrepas":13628,"Ġwholeheartedly":13629,"ughan":13630,"Ġgroupons":13631,"Ġtravelling":13632,"Ġmelanie":13633,"rasion":13634,"Ġinconsist":13635,"Ġextractions":13636,"Ġaccompanying":13637,"Ġcockroach":13638,"lifting":13639,"Ġdistribut":13640,"Ġgordon":13641,"Ġnewspaper":13642,"Ġmigraines":13643,"Ġstacey":13644,"rip":13645,"Ġrash":13646,"perfect":13647,"unting":13648,"moon":13649,"Ġbuses":13650,"Ġblues":13651,"Ġreli":13652,"Ġautre":13653,"Ġprocesses":13654,"Ġsmokes":13655,"Ġbelieves":13656,"Ġcommunities":13657,"Ġairlines":13658,"Ġpetty":13659,"Ġbaba":13660,"Ġsleek":13661,"Ġodds":13662,"Ġdjs":13663,"Ġfestiv":13664,"Ġbustle":13665,"Ġhelen":13666,"Ġcottage":13667,"Ġbibimbap":13668,"Ġadapt":13669,"fresh":13670,"may":13671,"Ġdup":13672,"oran":13673,"Ġhaven":13674,"alia":13675,"thought":13676,"Ġgoodlife":13677,"Ġunrespon":13678,"Ġdisinterested":13679,"Ġcontains":13680,"Ġexcel":13681,"Ġrecovered":13682,"uccess":13683,"Ġlesser":13684,"Ġindie":13685,"Ġpresum":13686,"Ġpostal":13687,"Ġgrief":13688,"Ġunprofessionalism":13689,"Ġnonex":13690,"cheap":13691,"Ġdevast":13692,"Ġalternate":13693,"Ġillinois":13694,"onnaise":13695,"Ġchewing":13696,"Ġfiancee":13697,"Ġgowns":13698,"ennial":13699,"Ġreligious":13700,"Ġarchitecture":13701,"Ġrangoon":13702,"Ġmaneu":13703,"Ġballantyne":13704,"ben":13705,"Ġwiz":13706,"Ġreno":13707,"Ġhein":13708,"Ġplum":13709,"elines":13710,"Ġcrout":13711,"olone":13712,"Ġgene":13713,"Ġinclusive":13714,"Ġbelieving":13715,"Ġgraham":13716,"Ġstraps":13717,"Ġforgive":13718,"Ġunlv":13719,"Ġintroduction":13720,"Ġglobal":13721,"Ġvaughan":13722,"Ġgalax":13723,"Ġpropane":13724,"Ġgutters":13725,"Ġvalentines":13726,"Ġbritish":13727,"Ġpupusas":13728,"Ġjungle":13729,"Ġexorbit":13730,"whe":13731,"Ġcuff":13732,"Ġdice":13733,"omin":13734,"Ġforks":13735,"adel":13736,"Ġasia":13737,"Ġruth":13738,"Ġsage":13739,"Ġmolly":13740,"Ġcrate":13741,"Ġcorp":13742,"Ġmature":13743,"Ġcommute":13744,"Ġprize":13745,"Ġgrave":13746,"Ġcorrecting":13747,"Ġmalls":13748,"Ġunsuccess":13749,"Ġelevated":13750,"Ġnova":13751,"Ġkabab":13752,"Ġinefficient":13753,"Ġinevit":13754,"Ġnutritional":13755,"Ġintentionally":13756,"Ġchimic":13757,"Ġdynamite":13758,"Ġnovelty":13759,"Ġdetect":13760,
[...]
