#version: 0.2 - Trained by `huggingface/tokenizers`
Ġ t
Ġ a
h e
Ġ i
Ġ w
Ġ .
Ġ s
r e
Ġt he
e r
Ġ o
n d
i n
Ġ f
Ġ c
Ġ b
Ġ m
h a
o u
Ġa nd
Ġ Ġ
Ġ p
Ġt o
e d
Ġ d
Ġ n
in g
o r
e n
a s
o n
e s
Ġ g
l l
Ġ l
i t
o t
i c
Ġ ha
o m
v e
a t
i s
Ġ e
a n
Ġi s
Ġi n
a r
Ġw as
l e
Ġo n
Ġo f
Ġ re
u s
u t
Ġt h
v er
Ġb e
Ġw e
Ġn ot
l y
Ġi t
Ġ y
Ġ h
a c
Ġ !
Ġf or
a l
Ġ he
ha t
Ġm y
a y
o o
Ġs t
en t
Ġy ou
e t
l d
i d
o w
Ġthe y
Ġt hat
i on
m e
a ll
r i
it h
u r
Ġw ith
g h
Ġha ve
Ġ Ċ
i r
r o
Ġm e
s t
k e
Ġa n
Ġth is
ic e
c e
Ġ u
Ġn e
Ġa re
ver y
Ġd o
ou ld
a d
Ġa s
oo d
Ġa t
Ġon e
Ġb ut
Ġs o
i ll
Ġs e
Ġ j
us t
i ve
Ġe x
Ġp l
Ġha d
p p
om e
s e
t er
Ġ -
Ġd e
Ġw h
c t
Ġo r
z er
Ġt i
o re
Ġa l
b le
zer o
Ġ zero
gh t
es s
all y
an t
t h
he r
Ġ k
Ġl i
on e
Ġ r
re at
Ġf r
Ġa m
Ġwe re
c h
f f
Ġc om
Ġs er
es t
ac e
Ġt w
g e
Ġo ut
Ġs a
Ġ very
ĠĠ Ġ
Ġw ould
Ġw he
Ġg o
u l
Ġw or
Ġs he
q u
a in
ac k
Ġthe re
Ġtw o
Ġc a
Ġs h
as t
Ġs u
ou r
i l
Ġa ll
Ġl o
Ġg et
Ġp ro
er s
Ġu p
ou t
re d
Ġser v
Ġ us
v en
Ġpl ace
p e
Ġw ill
k ed
Ġti me
Ġa b
k ing
Ġi f
Ġg reat
Ġd id
Ġt r
ha n
at ion
Ġwhe n
a m
Ġfr om
p er
re e
o p
Ġg ood
Ġserv ice
re s
u n
at e
Ġthe ir
e nd
Ġ v
e l
Ġj ust
Ġb ack
Ġn o
i m
n t
Ġp r
Ġc h
Ġli ke
Ġo ur
in e
Ġthe m
Ġt a
Ġan y
Ġc on
Ġ qu
Ġc o
m ent
Ġf ri
it e
Ġw hat
Ġhe re
Ġl e
Ġab out
i e
s o
Ġf ive
ay s
ar t
Ġf ood
Ġcom p
ic k
i nd
Ġyou r
Ġm a
Ġof f
c a
Ġf e
is t
Ġbe en
Ġs ome
r ou
c om
k s
l o
Ġhe r
ou s
Ġk n
i ght
Ġe very
r a
Ġc an
Ġm an
Ġth ree
m p
Ġt han
Ġt e
Ġst a
Ġl oo
ic h
Ġfri end
Ġc all
Ġto o
Ġm o
t her
or t
us e
Ġo ver
Ġa g
Ġor d
f ter
a ble
Ġe ven
Ġs p
Ġc ar
Ġa fter
Ġb y
Ġne ed
Ġo ther
Ġkn ow
in t
Ġc he
Ġon ly
f ul
Ġha s
Ġw a
i g
Ġbe ca
c k
Ġc ould
Ġu n
p t
Ġbeca use
Ġse e
Ġp o
Ġwh o
Ġre ally
Ġw ant
Ġm ore
Ġwh ich
me nd
Ġd is
Ġre com
Ġwor k
ar s
Ġal so
i x
Ġrecom mend
Ġa pp
a g
i z
i en
Ġh ow
Ġ en
Ġp e
u d
Ġg ot
v ed
Ġsta ff
l p
it y
id e
Ġc ust
Ġne ver
Ġhe lp
w n
Ġd r
Ġcust om
on g
Ġ ro
Ġy e
Ġ :
a ge
Ġwa it
w ays
Ġc le
ou gh
Ġf our
Ġex per
as s
ac t
Ġc l
a nd
a il
c i
t e
Ġal ways
h ing
f e
Ġwe ll
m o
Ġlo c
Ġa d
Ġh is
Ġexper ien
v ing
Ġp re
u m
u y
ad e
ir st
it t
Ġne w
Ġm in
Ġa w
Ġn ice
Ġsa id
i gh
ow n
res s
u re
th ing
Ġfriend ly
Ġc ha
t y
Ġd i
Ġj o
ĠĠ ĠĠ
Ġw ent
Ġag ain
Ġthe n
e red
Ġst ore
Ġb est
Ġd ay
Ġf irst
Ġto ld
ar d
op le
ion s
Ġpe ople
i ous
Ġs al
Ġb us
u e
a b
ing s
Ġgo ing
o nd
l f
Ġma ke
i le
Ġo wn
a z
Ġtr y
Ġ ri
Ġexperien ce
a v
Ġcle an
Ġp h
Ġs c
ur n
Ġs pe
i es
ot her
Ġm u
Ġde l
Ġm ade
Ġcustom er
ff e
o int
Ġca me
f t
Ġa c
Ġlo ve
Ġord er
Ġn ow
Ġh igh
at ed
Ġwe e
ic es
Ġh im
a ve
ion al
Ġbe t
Ġc ome
in k
Ġde f
Ġmu ch
Ġs ay
a k
o s
Ġf l
f ore
Ġre s
Ġre st
Ġde c
he d
Ġta ke
Ġh ome
p l
Ġb r
at er
d ay
Ġ ve
t o
Ġbe fore
Ġw ay
Ġha pp
w e
r y
ou nd
i p
Ġdef in
ie w
Ġam az
ite ly
Ġa r
Ġp er
m s
i ent
is h
Ġf ind
rou nd
Ġe ver
Ġcall ed
Ġb o
Ġdefin itely
t ing
Ġpr ice
Ġmin ut
Ġm on
Ġloc ation
Ġamaz ing
Ġtoo k
in ess
Ġh our
Ġw al
Ġri ght
itt le
Ġc ou
Ġex t
Ġas ked
Ġfe el
Ġl ittle
ers on
Ġp art
p en
Ġ ke
b er
an ce
Ġs m
re nt
x t
Ġg ive
Ġye ars
v iew
Ġcomp an
Ġd own
u ll
ac h
i ly
Ġbet ter
Ġt ri
Ġd one
Ġt ast
ot h
Ġl ot
Ġp a
pe ct
Ġan other
Ġre view
Ġsu re
f ess
Ġha ir
Ġp erson
Ġs ix
Ġst ill
Ġbus iness
Ġca re
in ce
Ġin s
Ġfe w
e p
Ġjo b
Ġcon t
ad y
as on
u ally
l es
Ġti m
Ġg uy
Ġcha r
a ur
Ġa round
Ġv is
Ġp ay
Ġl ong
oo l
Ġs ince
Ġmo st
om et
fess ional
Ġevery thing
aur ant
Ġn ine
Ġrest aurant
m ed
Ġin st
Ġdo es
ct ion
Ġcompan y
Ġh o
l ed
Ġs omet
Ġd es
he re
Ġminut es
Ġf in
Ġwh ile
at ing
Ġb l
on t
Ġloo king
Ġin to
Ġtim es
Ġin c
Ġsh ow
g g
Ġord ered
Ġsh ould
Ġbe ing
Ġb re
Ġat t
Ġvis it
ul t
Ġne xt
Ġb ad
i an
he s
Ġc lo
Ġl ast
Ġmon th
ou ght
k es
Ġman y
nd er
Ġa ct
rou gh
Ġch ick
Ġre t
or s
Ġth rough
a ir
Ġe ight
Ġre ce
Ġre f
p le
Ġf ound
ud e
y e
Ġe l
Ġwant ed
Ġsh op
Ġex ce
Ġro om
Ġchick en
n ing
Ġwhe re
th is
Ġc han
Ġhigh ly
one y
Ġc r
Ġe nd
Ġpre t
Ġse ven
Ġi mp
Ġst art
Ġb ar
Ġg i
Ġp at
Ġh ot
al ity
Ġu nder
as e
Ġre p
Ġte ll
Ġare a
e ver
a re
Ġpro fessional
o l
Ġde al
b e
oint ment
Ġf am
Ġsu per
Ġre ason
ig n
Ġle ft
Ġsm all
Ġd ri
Ġloo k
Ġp le
Ġth ink
se lf
Ġn ight
es e
Ġdi ffe
Ġb u
Ġm oney
i f
iz z
Ġsa me
Ġp ut
Ġpret ty
Ġman ag
Ġl et
Ġc ut
Ġe mp
g er
Ġsomet hing
Ġw r
Ġneed ed
Ġad d
t he
Ġo ld
Ġm ay
Ġp ar
Ġthe se
u ct
Ġo pen
Ġqu ick
Ġapp ointment
Ġ ent
Ġp izz
a pp
o y
Ġs ha
Ġus e
Ġha nd
ou nt
Ġel se
Ġspe ci
Ġre g
Ġoff ice
Ġpr ices
s s
Ġaw ay
Ġm en
Ġown er
Ġhapp y
a me
Ġqu ality
ou se
Ġph one
Ġs l
c ha
av or
un ch
Ġret urn
ri ble
Ġth ings
Ġcomp le
an s
c ess
i re
pp ed
Ġb oth
id ed
Ġk ind
Ġfam ily
Ġf res
Ġg l
Ġche ck
a p
is e
Ġha r
Ġpro ble
Ġhelp ful
Ġpizz a
f ort
Ġt reat
Ġwee k
Ġdiffe rent
Ġb ig
v es
Ġm ar
is s
Ġg ave
Ġfres h
Ġl a
Ġg u
n er
Ġf ix
Ġis s
es ome
Ġb uy
f or
Ġb it
Ġt al
Ġget ting
i ld
Ġch o
as h
Ġmanag er
er t
Ġcon s
ic ious
Ġnot hing
Ġf o
Ġper fe
Ġp ur
Ġus ed
Ġtri ed
Ġve g
Ġre c
Ġs ur
Ġth ough
Ġex pect
Ġany thing
ar y
Ġd ays
so l
ll ent
Ġh ouse
Ġye ar
Ġg re
u ck
Ġs at
Ġthan k
Ġen ough
Ġf ree
u p
Ġdis app
ut e
Ġse c
Ġaw esome
u ce
Ġwh y
Ġe at
Ġit e
Ġdel icious
Ġany one
Ġsh o
Ġdo g
ain t
i o
Ġth ing
Ġa v
j oy
n e
re me
Ġb ur
Ġperfe ct
Ġfr ont
Ġen joy
Ġmen u
u b
ate ly
Ġa ble
us h
Ġse le
Ġhour s
Ġe as
Ġsome one
Ġrece i
ic ed
p on
en s
Ġc our
Ġemp lo
ar ly
m y
Ġr un
Ġc or
Ġhar d
Ġwor th
Ġf un
Ġevery one
Ġas k
Ġa p
g ed
Ġf ull
Ġp ic
Ġi m
Ġo pt
Ġr ude
Ġwith out
Ġk id
l ess
Ġd in
Ġon ce
Ġke ep
Ġl ater
Ġst e
Ġact ually
Ġb as
Ġpro d
Ġexce llent
oo k
Ġspeci al
Ġwor king
Ġre al
w here
i er
Ġext reme
Ġt er
ab ly
Ġpur cha
Ġas s
Ġo k
Ġemplo ye
Ġst ay
u c
ation s
Ġf ar
Ġha ving
ond er
re n
Ġp ick
Ġdisapp oint
Ġpl ac
ver s
Ġg r
Ġit s
Ġst ar
Ġhow ever
Ġcl ass
sol ute
Ġsa nd
Ġex pl
Ġp ast
i ble
Ġto p
Ġre l
or d
Ġextreme ly
Ġple as
Ġst ars
Ġe m
Ġth ought
Ġs we
ic al
Ġto day
Ġw onder
Ġcom ing
ro om
Ġs et
Ġl ess
Ġsu ch
ent ion
Ġknow led
Ġcomp l
Ġqu est
s ed
ail s
Ġc re
Ġh on
Ġs k
st and
Ġe ach
Ġsu pp
p r
ot t
u es
Ġproble m
Ġco st
Ġs ide
Ġdo ing
Ġw ar
Ġs im
Ġche ese
Ġguy s
ur ing
u ff
Ġw ater
o se
Ġse ver
Ġpo int
Ġc ra
Ġfriend s
Ġ es
Ġloo ked
i a
Ġsele ction
iz e
Ġab solute
Ġst y
Ġmonth s
Ġsever al
Ġcomple te
Ġu nt
Ġsand w
Ġm at
Ġco ffe
b s
c ed
Ġdec ided
Ġcustom ers
Ġcom m
Ġg ir
Ġar ri
Ġbe l
iz ed
i ed
Ġl ar
Ġprod uct
Ġpro v
mo st
pp ing
Ġl unch
g et
Ġme al
k en
Ġdo or
Ġcoffe e
Ġw o
Ġite ms
Ġm ed
Ġt urn
Ġneed s
c es
d y
Ġunt il
Ġf el
Ġs ign
Ġsa uce
a ut
Ġexpl ain
Ġwait ing
ul ar
ast ic
Ġl ist
s w
Ġf ast
Ġe t
w ard
Ġfel t
Ġs ou
Ġknowled ge
p s
Ġsal ad
Ġ est
oo ked
ent ly
Ġfin ally
Ġsec ond
Ġha lf
Ġcou ple
Ġan sw
Ġh or
Ġpo l
Ġtry ing
b and
Ġh us
i b
Ġbre ak
Ġwee ks
Ġreview s
Ġd a
Ġdis c
Ġs it
Ġhon est
Ġcar d
Ġal most
Ġl ine
Ġst o
Ġdel i
Ġhus band
Ġswe et
Ġta ble
Ġre pl
Ġd uring
i al
Ġrecei ved
Ġg rou
Ġi nd
Ġh u
it ion
in ks
Ġbe aut
Ġn or
or k
Ġplac es
Ġt y
Ġf avor
is ed
Ġwr ong
Ġwonder ful
Ġkid s
Ġwal ked
ment s
Ġsp ot
Ġin for
Ġme at
Ġpa id
at her
Ġg en
Ġdo ct
Ġco l
u al
ll ow
Ġwal k
at ive
Ġstart ed
Ġac c
Ġdri ve
re ct
d e
Ġwho le
Ġag o
v ent
Ġpat ient
Ġext ra
at es
Ġabsolute ly
i et
Ġgir l
Ġn um
Ġto t
Ġveg as
s ide
Ġd ent
Ġle ave
Ġm ass
Ġthan ks
Ġpr om
Ġqu ite
Ġoff er
Ġdisappoint ed
Ġrep air
Ġclo se
e w
Ġeas y
Ġle ast
Ġn ame
Ġto wn
Ġsc hed
ress ed
Ġbus y
Ġover all
g in
c er
on s
Ġw i
Ġf ill
Ġb at
Ġwor st
b o
Ġw ed
Ġpro b
Ġth ose
Ġsta nd
v ious
Ġst uff
Ġtast e
Ġinc l
t en
ic ally
ff ic
Ġp ie
et s
Ġex c
Ġlar ge
Ġre qu
Ġp ri
Ġp ain
Ġp m
s ive
Ġcom fort
i ful
ra nd
n g
Ġprob ably
Ġad v
Ġdr inks
Ġl ady
Ġa ut
u gh
Ġy es
Ġst op
Ġm or
Ġins ide
Ġb ill
Ġli fe
Ġpl ay
d ing
s p
Ġpro per
e m
Ġma king
qu e
Ġchar ge
he n
e ad
re ady
Ġunder stand
Ġbr ing
Ġal ready
Ġma kes
Ġdr ink
ve l
Ġl ive
Ġpro cess
r u
Ġhapp en
Ġinst ead
Ġreason able
Ġp ort
Ġmay be
i red
w ay
ci ally
Ġre nt
Ġte ch
Ġus ually
Ġs mo
Ġf lo
it ed
e f
n o
Ġemploye es
ro ss
u nd
ant astic
Ġd ro
l ine
Ġcon f
Ġquest ions
a red
g reat
Ġes pe
Ġsh ort
n ess
ic y
Ġhe al
Ġm iss
it her
Ġespe cially
c ked
o g
Ġm ess
Ġsal on
t ed
Ġli ght
Ġsur pr
at o
ra p
Ġd et
Ġloc al
ll ed
Ġf air
Ġbeaut iful
Ġhelp ed
m m
Ġhu ge
u res
or y
Ġm ust
Ġchan ge
Ġpl an
Ġp ack
Ġm us
Ġb ought
Ġw om
Ġc ur
Ġf act
Ġknowledge able
t s
g an
Ġinst all
r act
Ġsandw ich
Ġwi fe
Ġiss ue
Ġent ire
Ġdin ner
mo sp
Ġcont act
Ġcre am
Ġiss ues
Ġme m
Ġin ter
Ġat mosp
Ġsal es
Ġmy self
ent s
Ġc ash
n ed
Ġfri es
at ch
Ġfo llow
Ġf ac
Ġatmosp here
Ġf antastic
i ke
Ġre ad
Ġhor rible
Ġpl us
Ġsa w
Ġhe ad
Ġse en
rou ght
Ġserv ices
Ġwor ked
Ġst re
Ġincl ud
Ġch ild
Ġlo ved
Ġfavor ite
Ġw ind
Ġv ar
Ġc al
Ġse ll
f ast
id er
Ġp ot
Ġst ud
il ity
Ġm et
Ġdr y
Ġs ch
Ġp ass
Ġdoct or
Ġsee med
Ġb rought
r on
Ġopt ions
Ġy et
Ġp res
Ġbel ie
ll e
Ġwith in
ot e
Ġte am
Ġex act
Ġin te
c y
Ġsu b
Ġcomplete ly
Ġarri ved
Ġc ool
y s
Ġb ro
Ġout side
Ġr ice
Ġp ool
Ġs y
Ġb an
Ġst r
Ġs on
Ġm om
Ġta king
Ġl ow
ugh ter
Ġmor ning
n ter
Ġbreak fast
Ġmo ved
Ġcomfort able
Ġhot el
Ġloo ks
Ġap art
i v
Ġl as
Ġgi ven
Ġcomm un
Ġl ate
pen sive
h ip
n ot
Ġa ir
Ġke pt
Ġe ither
Ġpar king
g r
Ġrecommend ed
Ġheal th
Ġav ail
Ġda ughter
Ġquick ly
ur ance
us ed
re st
it s
Ġpo or
Ġman age
r ow
Ġe vent
Ġmass age
Ġmo ve
Ġs w
m an
o ve
pt ion
Ġgen er
Ġfl avor
n y
Ġd ress
u mp
Ġcont in
Ġwait ed
Ġbre ad
Ġre ady
Ġn ails
Ġro ll
u ly
Ġche ap
Ġcom es
Ġi ce
Ġg ar
Ġins urance
Ġfl av
Ġet c
Ġtr ain
b b
Ġres pon
Ġso on
Ġwed ding
Ġr an
Ġw ish
Ġd ue
Ġcour se
Ġho pe
Ġs ent
it c
Ġf ine
Ġend ed
Ġkn ew
Ġter rible
Ġco nd
Ġshow ed
Ġc ent
lo g
Ġo h
Ġph ot
u red
Ġsch ool
Ġbelie ve
Ġwe l
l ing
Ġm ention
Ġb ed
Ġon line
Ġnum ber
Ġsee ms
Ġbur ger
Ġsu gg
s ing
Ġar t
Ġsugg est
Ġinfor m
Ġre d
Ġco ld
Ġdec ent
Ġy el
Ġm ind
Ġta ken
k et
Ġam ount
a x
Ġo b
c ks
c c
Ġavail able
Ġcou nter
ert ain
Ġsee m
Ġoff ered
Ġcl ient
Ġs ize
Ġyel p
Ġtast y
Ġtr ust
Ġbo x
Ġgl ass
Ġc e
Ġmus ic
Ġne ar
u le
Ġpleas ant
Ġg y
Ġrec ently
Ġm ight
a le
Ġv al
Ġac com
Ġsay ing
nd ay
Ġbe er
Ġinc red
Ġpic t
Ġlot s
i que
Ġgu ess
u g
Ġde p
med i
Ġflo or
mo d
Ġres ult
Ġdeli very
Ġg one
Ġdo ll
Ġbe ef
Ġinte rest
Ġsou p
Ġreg ular
Ġfix ed
Ġmanage ment
Ġimp ressed
Ġex pensive
s it
Ġc red
Ġwind ow
Ġus ing
Ġin v
Ġtal k
Ġne igh
a ke
Ġapp re
Ġpo st
Ġbu ild
l ic
Ġneigh b
Ġrequ est
Ġple ase
Ġim medi
n s
Ġ +
Ġgl ad
Ġproduct s
b les
h ic
it er
Ġtr ans
Ġb ott
Ġdis h
in es
ul ous
is f
Ġpo ss
Ġbe h
Ġem ail
itt ing
b ers
Ġf it
Ġd am
Ġclean ing
id es
ce pt
Ġpurcha se
Ġe ye
c hed
Ġspe nd
Ġte a
Ġsc re
Ġstre et
Ġexact ly
Ġtw ice
Ġfri ed
th ough
a w
Ġpart y
ri end
Ġappre ci
Ġf an
Ġansw er
Ġser ver
Ġcol or
Ġf ish
ull y
g es
Ġ ed
Ġchar ged
Ġsp r
Ġtr uly
er v
Ġexplain ed
y ond
Ġre m
Ġo ri
Ġsp o
Ġsty le
Ġw all
Ġcred it
Ġbe yond
Ġgrou p
Ġcons ider
Ġbeh ind
os ed
Ġl ack
Ġwait ress
is hed
Ġe gg
Ġi de
Ġm id
Ġdent ist
Ġown ers
Ġother s
Ġav o
Ġal though
Ġfr id
Ġm il
al s
Ġg ri
Ġser ious
Ġimmedi ately
Ġle ar
Ġe ar
Ġpre p
ic an
Ġs ush
Ġdec or
Ġsl ow
ĠĠ Ċ
a h
fort un
Ġt ac
Ġtast ed
Ġbat h
m on
Ġve hic
Ġgre et
Ġenjoy ed
Ġg ra
Ġlong er
Ġof ten
Ġpr iced
Ġsat ur
Ġsush i
Ġw atch
Ġta kes
Ġle a
Ġst ra
Ġref und
Ġph o
Ġp ed
m ber
Ġth in
g ing
Ġwar m
Ġex p
Ġd ou
Ġab ove
ag es
ke nd
ir d
Ġd ir
c ome
Ġwom an
iet y
Ġwee kend
Ġtri p
Ġin t
Ġf ut
Ġs n
Ġcon cer
Ġe arly
Ġclo sed
c o
Ġo il
Ġsat isf
Ġl ou
Ġta bles
Ġdes k
Ġrel ax
am es
we en
Ġpurcha sed
is ter
c ri
Ġb rand
en ce
Ġserv ed
Ġbet ween
Ġdis hes
c ol
Ġun fortun
Ġget s
Ġf ace
l ish
Ġl uck
ĠĠĠĠ ĠĠĠĠ
at s
Ġhand s
Ġr ather
Ġfut ure
Ġch in
er g
Ġp ull
Ġen g
Ġb ag
Ġcon ven
Ġatt it
ib ly
Ġc up
Ġapp ro
Ġto m
id ent
p ro
ic s
Ġgi ving
c ut
Ġc ity
Ġle vel
l ist
Ġcl ot
Ġs ays
Ġsto pped
Ġk itc
un g
Ġkitc hen
Ġsp ent
Ġch oo
i or
Ġre me
Ġm ach
Ġac ross
d o
Ġfor ward
Ġpar k
Ġtr uck
Ġhe ard
Ġty p
Ġnor m
Ġso l
Ġme et
Ġpay ing
Ġho ld
Ġhe ar
Ġsatur day
Ġspe ak
Ġc ase
Ġc ooked
Ġf il
Ġe ating
Ġch ip
Ġsp ace
it ies
Ġd an
Ġm aint
Ġt ou
Ġr id
n a
Ġperson al
Ġc ook
Ġre mo
Ġne g
Ġpr act
o log
Ġl iter
Ġturn ed
Ġm ult
Ġs me
Ġsched ul
Ġsim ple
Ġaccom mod
Ġpre vious
Ġbo y
Ġcor rect
Ġm ain
ant ly
Ġminut e
Ġcan not
Ġc ertain
Ġmo d
l s
en se
Ġsy st
Ġj e
end er
ar k
Ġdog s
Ġal ong
Ġtot ally
Ġa ff
Ġdes ign
ver age
Ġori gin
Ġhappen ed
Ġn ail
Ġwor ks
Ġe qu
Ġatt ention
Ġwor d
z y
Ġimp ort
Ġsho pping
ant s
Ġs ing
ic ian
Ġcho col
Ġse nd
Ġw ine
Ġf a
Ġass ist
Ġsit u
Ġm ist
ic ation
Ġtal king
Ġvar iety
Ġcompl aint
Ġas king
Ġemploye e
Ġty pe
Ġw ings
Ġrepl ace
ow d
er y
Ġliter ally
Ġyour self
j e
Ġattit ude
Ġproble ms
Ġref er
Ġme an
Ġtreat ed
f ully
or ough
Ġknow s
it ional
Ġexce pt
Ġ z
Ġall ow
Ġdet ail
Ġd on
Ġp et
Ġb ow
Ġm ix
Ġsched ule
Ġo cc
Ġok ay
Ġb ir
Ġcall s
i me
Ġe le
g n
Ġany where
Ġup s
com ing
Ġrestaurant s
Ġd ess
Ġcho ice
Ġch r
Ġan n
Ġp an
rent ly
e x
Ġdess ert
Ġnot iced
an ge
Ġcan ce
Ġlist en
Ġunfortun ately
Ġwal king
Ġt est
Ġgy m
ill s
r uct
Ġup d
Ġpic ked
Ġca ke
Ġchan ged
Ġor gan
im es
Ġc reat
Ġsp icy
Ġs or
in s
ien ce
Ġtech n
Ġwe bs
Ġp ork
ent ive
Ġopen ed
Ġf ig
j ust
get her
Ġpa per
in ed
Ġsyst em
Ġb ook
Ġtot al
Ġste ak
Ġli ked
Ġj u
Ġcont ract
Ġf re
Ġtreat ment
Ġmo ving
Ġcou nt
Ġvehic le
Ġs itting
Ġst ep
ffic ient
ic ure
d d
ar ch
r it
ip le
Ġstore s
Ġfeel ing
ent y
b ur
h ood
Ġgo es
Ġinform ation
Ġapart ment
Ġth orough
ic ing
Ġpart ic
Ġco lle
Ġon es
Ġpot ato
Ġrun ning
Ġup on
Ġmult iple
pro fessional
Ġob vious
Ġsomet imes
Ġcha ir
Ġwas h
Ġdir ty
Ġrepl ac
Ġfrid ay
Ġbl ack
Ġchoo se
Ġsu mm
Ġchocol ate
Ġgre en
b y
Ġbas ed
Ġaff ord
Ġyou ng
Ġinclud ing
Ġbath room
Ġt re
Ġcompl ain
ter s
Ġsitu ation
Ġche cked
Ġb ri
Ġm ic
Ġst ri
Ġwebs ite
f riend
Ġwas te
Ġb lo
Ġd ate
Ġsupp ort
g o
Ġwh ite
p ly
Ġto gether
ot s
Ġresult s
Ġprov ided
pp er
Ġide a
f er
Ġbuy ing
Ġte xt
Ġavo id
re t
Ġproper ty
Ġbuild ing
Ġf urn
Ġsurpr ised
it ing
Ġatt entive
Ġun professional
Ġexpect ed
Ġposs ible
Ġst ate
Ġn on
at t
Ġsor ry
Ġpleas ed
Ġto n
p et
Ġinst ruct
Ġs ad
Ġspo ke
je ct
Ġ x
Ġacc ount
Ġdi rect
Ġsupp osed
Ġcl a
Ġsk in
r ant
Ġlo st
Ġcent er
Ġbir th
Ġap olog
Ġbo dy
Ġcl ub
Ġp op
ĠĠ ĠĠĠ
Ġcle ar
um b
Ġchild ren
bo dy
Ġo p
Ġsim ply
Ġclass es
Ġex am
Ġb ab
Ġbe gin
Ġcons ist
l ves
Ġcle arly
Ġsty list
Ġe fficient
ore d
Ġchin ese
Ġreme mber
Ġprom pt
s es
Ġgi ft
Ġconven ient
e y
Ġspeci f
Ġpie ces
Ġsh ri
Ġcomp et
Ġit self
Ġmar ket
Ġopt ion
Ġpri or
Ġpo sit
Ġse ason
Ġserious ly
ive red
Ġle g
Ġp aint
Ġsa ve
Ġcall ing
Ġveg et
Ġto ron
pp y
Ġtoron to
Ġshri mp
le t
Ġpict ures
Ġdel ivered
he ad
Ġy um
Ġpl enty
Ġneighb or
ren ce
Ġc as
Ġs ound
Ġt en
Ġn ood
Ġli ving
l er
Ġpie ce
Ġt an
Ġquest ion
Ġdoll ars
Ġser ve
Ġtr ue
Ġn at
Ġatt end
Ġdisc ount
Ġhair cut
Ġclean ed
Ġgreet ed
Ġwor ld
i um
Ġperfect ly
Ġlea ving
Ġcr owd
Ġv o
Ġb oo
Ġh ung
Ġte ac
Ġ er
Ġin f
Ġprov ide
Ġcon st
Ġh it
Ġto w
c king
Ġd ist
Ġport ions
Ġtou ch
Ġapp et
m a
Ġloc ated
ic ulous
Ġhonest ly
Ġapp e
Ġorder ing
Ġsmo oth
Ġsee ing
Ġti p
Ġrespon se
Ġpl ate
im ate
Ġsing le
Ġb ud
Ġst ick
Ġwill ing
el s
Ġfe e
Ġsme ll
ic t
ri es
ad a
g ers
Ġcla im
Ġbu ff
Ġmem bers
b r
Ġgrou pon
Ġb art
Ġwar rant
Ġval ue
ent ed
Ġa verage
Ġsa le
Ġg ent
Ġfin ished
Ġsu nday
Ġreturn ed
Ġsumm er
Ġansw ered
l i
w or
en cy
Ġla w
Ġite m
Ġeven ing
ic hes
Ġelse where
Ġha ng
Ġm as
Ġy og
Ġb ra
Ġh um
p ort
p ond
Ġcr is
Ġb en
Ġpho en
Ġg ame
Ġen c
Ġh op
Ġfl ow
Ġrece ption
Ġm is
Ġen v
Ġf ore
Ġcontin ue
or n
w are
are ly
Ġb ac
m ing
Ġposit ive
Ġstand ard
Ġroom s
Ġphoen ix
Ġnot ice
Ġord ers
Ġmat ter
Ġcar s
Ġapp a
Ġexc ited
Ġpart s
Ġsandw iches
c han
i zer
Ġreplac ed
Ġcon vers
Ġflav our
Ġun ique
Ġv ac
he t
Ġimp ro
Ġm all
Ġhelp ing
Ġfac ility
Ġclient s
Ġgirl s
Ġbas ically
Ġbro ken
is on
Ġhe art
Ġbirth day
Ġun less
Ġac cept
it ure
Ġop in
Ġf ro
Ġwr ite
Ġun it
Ġwel coming
in a
Ġfin ish
Ġban k
Ġwor se
Ġgent le
ward s
Ġschedul ed
z en
Ġres pect
Ġport ion
Ġt v
Ġtell ing
Ġg as
d le
Ġinfor med
Ġt ha
Ġaw ful
a king
Ġpr icing
Ġincred ibly
Ġres pond
Ġp ress
Ġgu est
Ġdi ffic
Ġsho es
Ġtr ave
Ġmin s
Ġneg ative
u ed
Ġreg ard
Ġfurn iture
m er
Ġcut e
Ġt our
Ġd ra
Ġchan ce
a f
Ġsc ott
w ork
Ġf ur
Ġcris p
Ġin g
Ġqu ote
Ġm other
et h
Ġta x
Ġdin ing
ist s
Ġstra ight
Ġsome where
stand ing
p h
p it
Ġpol ite
Ġf ab
Ġw in
Ġemp ty
Ġl ad
s h
Ġcond ition
Ġexperien ced
Ġmach ine
Ġin it
Ġdent al
Ġro ad
at or
Ġreturn ing
Ġd ow
se lves
ir m
c hes
ip ment
Ġli m
ri ed
Ġclot hes
Ġb all
ci al
Ġprep ared
Ġdow nt
Ġsatisf ied
te mp
Ġfo ot
Ġrece ive
ag ed
Ġstr ong
g ar
Ġmist ake
Ġ ver
Ġclo s
Ġafford able
Ġfor g
Ġwarrant y
Ġappreci ate
Ġso ft
Ġma il
Ġme x
Ġb b
Ġthe rap
c ing
Ġc at
Ġest ab
is ion
m ore
Ġchip s
Ġins pect
Ġtac os
u x
Ġdownt own
Ġocc as
Ġroll s
oo f
Ġmon t
ter n
uc ks
Ġgot ten
lo ve
Ġenv ir
Ġrid iculous
Ġimport ant
Ġb a
Ġlou d
w hat
st er
Ġappet izer
Ġafter no
Ġopin ion
Ġi d
Ġpa ir
Ġcou pon
Ġfill ed
Ġqu e
te ous
he nt
Ġadd ition
Ġobvious ly
Ġe y
Ġref used
Ġappa rently
ur t
Ġam b
us hed
Ġm ac
Ġmaint en
Ġenvir on
Ġh ig
Ġsm ile
re al
Ġtrain ing
Ġchar l
Ġso ld
Ġorigin al
Ġac cess
Ġf all
Ġh os
an e
Ġve gg
Ġsa fe
Ġvisit ing
Ġg rand
Ġme chan
Ġm ine
Ġm ot
Ġdiffic ult
Ġany way
Ġaccommod ating
v al
ha r
in o
Ġafterno on
Ġcour teous
Ġho st
Ġl ab
s a
Ġa head
Ġqu ot
Ġwhat ever
ie ld
Ġaut o
hent ic
h o
Ġb on
Ġneighbor hood
Ġmainten ance
Ġche f
Ġwe ar
Ġn one
Ġthrough out
Ġadd ed
Ġenviron ment
Ġnot e
Ġequ ipment
c le
am ed
Ġing red
e e
act ion
Ġsh ir
Ġphot os
Ġi gn
Ġingred ient
u it
l t
Ġbab y
Ġr ate
Ġsp a
Ġboy friend
Ġli ved
Ġvisit ed
Ġlad ies
Ġbb q
Ġs le
a per
Ġma j
ren ch
Ġres erv
Ġtha i
Ġaut hentic
Ġam er
Ġcre w
Ġti re
Ġhe ll
Ġbow l
Ġbac on
Ġmid dle
Ġb ooked
Ġsa mp
Ġcho se
Ġv iew
Ġs ort
p ar
Ġr a
Ġse ating
Ġincred ible
Ġsh i
Ġcl in
Ġpatient s
Ġthin king
is ing
Ġth ru
i ance
un k
Ġl ay
Ġco ver
y ing
Ġad m
w ent
Ġinstall ed
d r
Ġcar ing
re ad
b in
all ey
Ġchr ist
Ġout standing
Ġestab lish
Ġcour t
Ġconsider ing
Ġper for
Ġcash ier
Ġbut ter
ur s
Ġh y
Ġflav ors
Ġmaj or
Ġdes p
Ġv i
Ġstri p
on a
Ġf av
Ġcompan ies
Ġcommun ity
ed ed
Ġit al
Ġbur rit
Ġstud io
Ġteac her
Ġst or
Ġdeal ers
Ġfind ing
is m
i ally
Ġf rench
ow er
ain ed
Ġat e
Ġst ation
Ġwork ers
Ġd ont
Ġv alley
Ġb le
Ġpat io
ut s
Ġadd itional
and s
Ġexperien ces
ll y
Ġm ou
Ġpr int
Ġpa rent
Ġadv ice
Ġdis g
Ġw ow
in y
Ġ ur
Ġlo l
Ġbo ard
Ġsur ger
Ġconvers ation
Ġm ad
Ġbr own
Ġrepair s
Ġqu iet
ac hed
Ġs ess
Ġglass es
Ġb al
Ġshop s
ust r
Ġim ag
Ġtal ked
Ġst ated
Ġg el
gr am
c re
Ġital ian
Ġat temp
Ġimp ress
Ġro ck
Ġst ory
Ġtechn ician
Ġpull ed
ve red
Ġg ro
Ġpract ice
ter day
Ġdri ver
Ġn ic
Ġhos pit
pp ings
Ġmo nday
Ġfr an
Ġstay ed
Ġingredient s
t on
Ġinclud ed
it ch
an g
Ġhealth y
Ġmention ed
Ġde ep
Ġjo h
Ġb other
Ġlove ly
Ġrecei pt
Ġdro p
at h
d ale
ne y
d en
Ġp ub
Ġcontact ed
Ġt ick
Ġmou th
Ġdri ving
Ġdisg ust
Ġwom en
Ġpro ject
le x
Ġbott om
Ġdesp ite
er n
Ġappointment s
the y
Ġgener al
ac y
Ġmex ican
b all
Ġm c
Ġwait er
Ġyes terday
Ġco vered
Ġph ys
if ied
Ġto ppings
ver t
Ġpres cri
Ġrent al
Ġfur ther
Ġg room
Ġf ail
Ġb ike
Ġdeli ver
Ġtom ato
pe nd
Ġcar pet
Ġw est
Ġpro gram
r ic
ot te
Ġwa x
Ġlocation s
Ġsurpr ise
il i
am b
Ġcompl im
Ġo pp
Ġfr ustr
Ġsc r
Ġb ite
Ġmed ical
ack s
Ġs ense
Ġas so
Ġcertain ly
Ġs qu
Ġc u
ct ed
Ġte eth
Ġg em
Ġche aper
Ġfl at
Ġany more
Ġp our
Ġd ark
t ime
Ġsurger y
Ġasso ci
Ġbur gers
Ġcra zy
Ġwork out
Ġpro ced
Ġsl ight
he l
Ġcharl otte
Ġnat ur
Ġv an
Ġupd ate
Ġmat t
Ġdes er
Ġar r
Ġr ating
Ġa ri
Ġs our
Ġcar ry
if ic
re ed
Ġexpect ations
Ġproper ly
Ġsu n
Ġse arch
on es
ight s
Ġmiss ing
Ġadd ress
Ġmont real
t a
Ġ ven
Ġcomp ut
Ġpro ce
Ġpay ment
Ġfre qu
o ver
Ġfollow ing
Ġact ual
Ġpartic ular
ul arly
Ġmar k
Ġdou ble
Ġclin ic
Ġche cking
it a
us s
Ġnood les
Ġnorm al
Ġann oy
an a
h or
Ġan im
Ġdealers hip
Ġca use
Ġf ire
Ġyum my
Ġdoct ors
Ġg e
Ġr ing
Ġb arely
Ġestablish ment
Ġfor get
Ġha te
Ġsp ort
Ġcho ices
Ġtr ad
il ar
Ġped icure
it es
Ġdro pped
Ġread ing
Ġag ree
Ġbat ter
Ġeas ily
Ġf ol
Ġa z
Ġve t
Ġpast a
Ġre pe
Ġcr ust
Ġknow n
ke y
Ġups et
Ġag reed
Ġti res
Ġmess age
Ġre se
Ġforg ot
Ġfair ly
Ġo per
Ġshow s
l ier
Ġscre en
Ġele ct
Ġpack age
Ġmem ber
Ġbl and
Ġfor m
Ġcrisp y
Ġfore ver
Ġsto ck
Ġbart ender
Ġs ister
Ġgro cer
Ġnot ch
Ġb un
Ġdisappoint ing
Ġegg s
s dale
Ġcomple x
Ġs ite
Ġgra b
b est
Ġman ner
Ġdiffe rence
Ġnor th
Ġj ew
Ġpict ure
Ġhig her
Ġsou th
Ġl es
Ġsh ot
Ġbe at
Ġgri lled
Ġgi ves
Ġrep ort
Ġclo sing
Ġold er
Ġm er
Ġrefer red
Ġrem ind
is es
p or
Ġcomp ared
Ġinterest ing
Ġmeal s
Ġme ans
ain s
Ġvo ice
Ġscott sdale
Ġperson ally
Ġbas ic
Ġpre fer
Ġg ames
Ġdep art
Ġb ak
ha d
Ġfe et
Ġfill ing
Ġmom ent
Ġth ous
Ġcommun ication
ur ity
Ġsha re
Ġest imate
Ġdro ve
Ġplac ed
Ġc hat
Ġplay ing
Ġstar b
Ġbuff et
Ġt un
th y
Ġrec ord
Ġpack ed
Ġreason ably
i k
Ġal one
Ġdam age
Ġl at
nd y
Ġi r
Ġt att
Ġdi ag
Ġpress ure
le y
Ġey es
Ġinterest ed
Ġse ction
ic ated
ll en
Ġfa ult
Ġfro zen
Ġari z
Ġreg ister
Ġh id
Ġlear n
Ġtatt oo
Ġprom ised
Ġhe at
u ine
Ġsec urity
Ġrelax ing
pr iced
Ġare as
Ġca fe
oo oo
Ġpe pper
Ġse ated
Ġpri v
Ġgar age
Ġjoh n
Ġs ick
Ġse lf
Ġariz ona
Ġun l
Ġwant s
z e
Ġstarb ucks
it ive
Ġst ress
d s
c on
Ġpol icy
Ġfol ks
Ġb unch
Ġcor ner
Ġm ush
Ġgar lic
Ġm ike
Ġtac o
Ġmost ly
ic a
Ġpres ent
Ġn ur
Ġdep os
Ġoff ers
er k
Ġbl ue
Ġcont ro
Ġj ack
ill a
Ġco ck
ow s
Ġad just
Ġke y
Ġhe sit
Ġp ump
Ġad vert
ill e
Ġjo int
Ġto r
Ġperson able
Ġp ush
Ġown ed
w ise
Ġc oo
c he
bb y
l and
Ġtr ou
Ġfav our
Ġburrit o
Ġdes cri
Ġdo ors
re w
Ġreal ized
Ġmil k
Ġtyp ical
Ġparent s
Ġan t
Ġd en
er ing
Ġsh ut
Ġchair s
Ġp itt
Ġinter n
Ġjo ke
Ġlo ves
Ġcha in
n am
Ġp u
at ure
Ġsign ed
z z
Ġwindow s
Ġlim ited
Ġwe ird
ll ing
Ġth ird
Ġconcer ns
Ġnorm ally
ct ions
Ġwel come
Ġse at
Ġun e
Ġover priced
g s
Ġprice y
Ġgen uine
Ġca res
Ġguest s
Ġrequest ed
Ġjew el
Ġp en
Ġexpect ing
Ġw ood
m ade
Ġcomple ted
Ġgo d
Ġflow ers
Ġe ff
Ġspecial s
Ġbud get
Ġte mp
Ġwhe ther
Ġpotato es
Ġknow ing
or ge
Ġb ase
Ġimpro ve
Ġne arly
har m
Ġr ush
Ġappreci ated
Ġm r
Ġth ick
Ġother wise
Ġto ast
Ġda ily
Ġquot ed
Ġbe ans
os s
ar a
u me
b t
Ġamer ican
cess ary
Ġsc am
Ġma g
Ġthem selves
Ġp harm
m b
Ġdoll ar
Ġreception ist
s bur
ar ian
Ġcomput er
out ine
Ġput ting
ri f
Ġt ues
Ġen s
Ġair port
Ġorgan ized
Ġcost s
Ġfab ulous
in i
ber ry
Ġhung ry
Ġcor n
og rap
Ġfac ial
Ġserv ing
Ġsim ilar
id ing
Ġcor por
Ġluck y
ut ion
Ġtast es
Ġsk ills
Ġbro ke
Ġfo c
Ġind ian
Ġdisgust ing
Ġlo ad
Ġpitt sbur
Ġfin al
m as
Ġlear ned
Ġc op
Ġvisit s
Ġd ump
Ġext ens
Ġbott le
if y
Ġbe ll
erg y
Ġr u
Ġgener ous
com fort
Ġlow er
Ġmod ern
Ġstand ing
il ing
Ġspr ing
ill ed
l a
n es
Ġsmall er
Ġbu cks
Ġfun ny
Ġpol ish
Ġth row
Ġt iny
Ġreserv ation
Ġhospit al
a ks
Ġspecif ic
Ġbe ware
Ġ =
Ġsal mon
Ġbe come
Ġhid den
Ġimag ine
Ġdepos it
Ġser vers
Ġpittsbur gh
Ġhapp ier
Ġfr uit
Ġallow ed
Ġton ight
Ġus ual
n ow
Ġgr ow
Ġsle ep
Ġd ance
ca kes
Ġcons ult
Ġfig ure
as y
Ġle ase
am p
Ġnatur al
Ġphot o
Ġamb iance
Ġse par
Ġp ad
Ġdec ision
Ġran ge
Ġbl ood
d on
Ġdepart ment
Ġcomplaint s
Ġpleas ure
Ġmat ch
Ġstud ents
Ġr ide
Ġeff ort
f et
Ġfeel s
c u
Ġj ud
Ġsa us
Ġst uck
iz es
iv id
Ġmil es
Ġr d
Ġcom ment
Ġhand le
Ġeat en
Ġsha pe
Ġarri ve
Ġeng lish
h ile
Ġre sol
Ġdeal ing
Ġremo ved
Ġmechan ic
Ġt ender
Ġt end
Ġte m
Ġgo ld
Ġear lier
f irst
v is
Ġcard s
Ġprofessional ism
Ġnear by
Ġr oof
iz ing
Ġyog a
Ġb ou
Ġind ivid
Ġju ice
Ġslight ly
Ġconf irm
Ġas ian
Ġfig ured
Ġexper t
Ġg round
Ġscre w
Ġl ines
Ġfe es
Ġt ur
Ġsuggest ed
Ġbe ers
pp ers
room s
Ġvi be
u ght
Ġsu c
Ġme l
Ġsa ved
Ġta p
Ġtrave l
ffe ct
Ġsal t
Ġreg ret
g ress
Ġd u
Ġcur ry
Ġde ad
Ġcontro l
Ġmed ium
Ġmo v
Ġ ut
Ġfit ness
Ġs ides
ha ps
m in
ab les
Ġsol id
Ġcance l
Ġcha llen
Ġchar ges
y al
Ġy ard
Ġexcept ional
Ġman icure
Ġchan ges
Ġmin im
Ġc ir
Ġb i
Ġneed less
Ġar g
ĠĠĠĠĠĠĠĠ ĠĠĠĠĠĠĠĠ
ca re
Ġopen ing
Ġbegin ning
k y
Ġv ide
us ing
Ġv ia
Ġr and
Ġsal sa
Ġexc han
Ġgrocer y
Ġpr ote
Ġba ked
Ġstra w
Ġcorpor ate
am ing
Ġtell s
d a
i able
Ġevery where
Ġed uc
Ġcock t
Ġreplace ment
Ġr ushed
Ġvar ious
or ies
Ġhop ing
Ġe ast
air s
Ġhe av
ex ce
Ġd ie
Ġb es
Ġs il
Ġcr ack
Ġh ire
Ġan g
Ġw at
Ġmix ed
vel and
Ġ nd
Ġth urs
g ary
Ġcon c
Ġstay ing
r s
v in
Ġper haps
Ġinter ior
Ġart ist
t le
Ġcle veland
Ġf ile
Ġpaper work
Ġproced ure
ur y
Ġrep res
Ġlike ly
Ġf at
af ood
Ġp ower
ing er
Ġwr iting
Ġb urn
Ġe v
Ġdid nt
Ġch ur
Ġpl ates
Ġw ide
f r
Ġacc ident
p ri
Ġse afood
Ġshow er
Ġclot hing
Ġword s
Ġsp l
Ġmeet ing
Ġsell ing
Ġdes ert
Ġvegg ies
exce llent
ad o
Ġphot ograp
Ġfe ed
Ġcra ft
Ġtime ly
Ġwhen ever
Ġmiss ed
Ġsess ion
er ous
Ġu lt
Ġfavour ite
Ġcount ry
Ġdiag n
ent ial
b ed
io cre
Ġdis pl
Ġtues day
Ġr are
Ġpass ed
Ġc art
Ġdeal s
Ġnice ly
Ġm art
Ġto ns
Ġcrowd ed
iss ion
Ġped i
Ġwall s
now led
Ġevent s
k a
Ġw ra
Ġca mp
Ġsport s
Ġle ad
Ġunder st
Ġh ur
Ġtr ash
as ter
Ġem erg
Ġunderstand ing
Ġsha me
g est
Ġr ound
Ġg oo
Ġm ill
Ġnum erous
us es
ll a
Ġproce eded
Ġspot s
itt ed
Ġsp ac
Ġh ired
or ing
Ġdou bt
Ġw rap
Ġven ue
Ġc ant
b ack
Ġse ats
Ġcom bo
Ġtast ing
Ġon ion
Ġcontin ued
Ġun comfort
Ġle mon
Ġconst antly
Ġrese arch
ar ing
Ġgentle man
Ġindivid ual
Ġtr a
Ġbl ow
Ġr ot
re es
r ing
Ġa ck
Ġm ile
Ġexp ress
a fter
Ġl ic
i ves
Ġgir lf
Ġmed iocre
Ġbe gan
Ġrespon s
Ġsalad s
Ġlet t
Ġgirlf riend
Ġreal ize
ca ke
Ġup gr
b it
id s
Ġdet ails
Ġv ol
Ġl u
Ġde pend
Ġbe ha
Ġfood s
Ġinspect ion
g ood
el ess
b row
Ġno body
Ġgri ll
c her
g th
st airs
Ġex ist
Ġfollow ed
Ġag ent
ol i
Ġs an
Ġack nowled
Ġch ir
ree k
Ġhigh l
Ġho l
Ġye ah
Ġbri ght
Ġinit ial
Ġeye brow
r or
r al
Ġlett uce
Ġsa uc
Ġcal if
Ġg ross
Ġc ross
ri ght
Ġso cial
Ġboo ks
Ġun s
Ġmatt ress
ac hes
Ġsw itch
Ġen ergy
Ġstor age
il t
Ġdress ing
Ġuncomfort able
Ġt ill
Ġo dd
ove red
itt en
Ġsaus age
Ġth ri
i pped
Ġho le
Ġb age
op s
Ġagain st
Ġtrad itional
Ġcalif orn
id ence
Ġad ult
Ġspr ay
Ġhome made
Ġl en
Ġem ails
Ġfan cy
Ġsmo ke
Ġha m
Ġcra ving
Ġwatch ing
Ġaw are
Ġcon ne
Ġmach ines
Ġapp le
Ġbatter y
wor st
Ġind ust
Ġveget arian
h ouse
Ġd ad
Ġnight s
Ġdec ide
Ġexc use
Ġbel ow
Ġf ly
Ġfull y
Ġha ll
Ġbr unch
un e
Ġgre asy
a ired
w ar
b el
az ing
Ġper io
Ġ vers
Ġro ast
ber t
Ġcaliforn ia
Ġfe ll
Ġtrou ble
v y
Ġm ir
Ġprompt ly
Ġhim self
Ġrel iable
Ġplan ning
Ġteacher s
Ġd av
ir ing
Ġbig ger
Ġa ge
ro d
Ġwe ight
gg y
Ġe ase
Ġcra p
Ġcal gary
Ġsub way
Ġthous and
ation al
Ġwed nes
Ġarr ange
Ġpriv ate
Ġprescri ption
Ġh ist
g round
Ġr ub
Ġenc our
Ġout do
ri b
Ġbeca me
Ġbak ery
Ġbre w
Ġlight s
Ġemerg ency
Ġbo oth
Ġhol id
g able
Ġ ;
Ġjewel ry
Ġvac ation
Ġshe ll
Ġrec ent
Ġkind a
Ġpl ain
Ġa ve
Ġf ash
Ġcur rent
Ġde v
Ġinv ol
Ġsu gar
Ġsal ty
Ġstart ing
Ġthurs day
om en
Ġb ot
ag ing
Ġwor ry
Ġne ck
Ġrep aired
Ġmembers hip
Ġinstall ation
Ġto wards
Ġpl astic
n ers
Ġbr other
Ġri p
Ġk ore
f it
Ġk ing
Ġri bs
Ġchrist mas
Ġy ork
Ġref res
Ġremo ve
Ġd re
Ġwant ing
Ġgr ate
Ġinf o
Ġspe ed
Ġpass ion
Ġch ic
Ġc ig
Ġr ad
Ġlo ck
Ġco zy
Ġent ertain
Ġpost ed
Ġinv est
a i
h ow
en ed
Ġsu cks
Ġs us
end ed
Ġapart ments
Ġcra b
Ġconcer ned
Ġknowled gable
Ġs ens
Ġto oth
Ġbr an
Ġorigin ally
Ġcut s
m ar
h ol
Ġe ffect
Ġwork er
te red
Ġdeal t
Ġflavor ful
Ġsp in
ast y
Ġsuc cess
m and
ca me
Ġfash ion
b ar
don al
Ġkeep ing
Ġpl at
p a
Ġn erv
no v
h y
Ġtr ack
Ġve nd
Ġveget ables
il ities
Ġapp t
Ġspend ing
Ġrepres ent
Ġchr is
Ġj am
Ġr ich
Ġunl ike
Ġgrate ful
Ġregard ing
Ġnerv ous
Ġti ps
Ġassist ant
ak es
Ġm ater
Ġclos er
Ġp al
o le
Ġm ount
ar ant
Ġent er
Ġspecif ically
w hel
ru ction
Ġhope fully
Ġd ed
Ġca p
am azing
Ġp as
Ġent r
Ġrespond ed
Ġass ured
an ese
Ġchir op
Ġst ood
Ġrecommend ation
Ġoccas ion
Ġintern et
Ġor ange
Ġshir ts
Ġl amb
Ġpharm acy
Ġcook ies
hor rible
ib ility
Ġveg an
Ġbar ber
Ġexplain ing
Ġdispl ay
Ġli e
Ġbusiness es
Ġgener ally
Ġme as
Ġtreat s
Ġapp l
Ġturn s
Ġdel ight
Ġr am
Ġtri m
w as
Ġtr ail
Ġlar ger
Ġchur ch
Ġin j
Ġon ions
Ġchirop ract
Ġmin i
Ġmc donal
he red
Ġlo b
Ġinstruct ors
Ġc ry
Ġsu it
Ġflo ors
Ġch ill
Ġcommun ic
Ġc ow
Ġexchan ge
Ġin com
Ġdam aged
Ġbring ing
Ġj en
Ġshow ing
Ġset ting
Ġc ert
Ġf al
Ġwa ff
Ġben ef
Ġrelax ed
Ġs ca
Ġens ure
Ġk ick
Ġbox es
ort un
Ġperio d
Ġs izes
Ġrequ ired
av es
Ġpre m
Ġspe aking
Ġsuggest ions
Ġopp ortun
Ġyog urt
Ġfor t
Ġign ored
ant age
Ġtyp es
Ġheav y
Ġwin ter
Ġevent ually
Ġt ar
Ġj ap
Ġwednes day
Ġa ud
Ġinform ative
Ġhand led
Ġr is
Ġsauc es
orge ous
Ġcut ting
Ġstud ent
Ġind e
Ġclass ic
i qu
Ġmad ison
Ġal tern
Ġpub lic
Ġl and
Ġperfor m
Ġta il
Ġw ont
cha r
Ġj an
Ġrand om
Ġsho cked
Ġcare ful
Ġperfe ction
Ġgu arant
Ġaut om
Ġjo e
i est
Ġadv ance
Ġconsist ently
Ġdisc overed
Ġs ized
v ille
Ġti ght
m art
om b
Ġbo b
Ġmanag ed
Ġchan ging
Ġin ex
Ġpat r
Ġlas hes
Ġfail ed
Ġa f
Ġfl ight
il ed
Ġne cessary
Ġlisten ed
hen omen
y an
Ġshir t
Ġcol our
Ġkore an
Ġinit ially
ass ion
the se
Ġg orgeous
Ġr ain
Ġpizz as
Ġn a
Ġce ll
Ġposs ibly
er m
Ġoutdo or
Ġpurcha sing
i vers
s u
Ġtreat ments
Ġconcer n
Ġle ak
Ġk im
Ġt ough
ck et
Ġoccas ions
Ġh ip
Ġadv antage
Ġeng ine
w ood
Ġg ard
Ġins ist
Ġla ugh
Ġcoo king
Ġfin an
Ġappetizer s
Ġi ll
henomen al
Ġt ree
Ġn amed
c ooked
un t
Ġmed ic
Ġb and
Ġhapp ens
a u
bo ard
Ġbag s
ĠĠĠĠ ĠĠ
bel ie
Ġc ro
is hing
Ġti le
Ġn asty
Ġsepar ate
Ġany ways
Ġconf ir
Ġpoor ly
n ge
Ġdisapp ointment
on na
Ġp ets
Ġhand ed
Ġcont ain
Ġr ough
d ays
Ġd im
Ġtherap y
as ed
ab ility
Ġcomp assion
Ġret ail
Ġan ge
Ġvide o
k er
m et
Ġcorrect ly
am s
Ġdirect ly
Ġdra w
Ġinc on
Ġwr itten
Ġsha red
Ġinstruct or
Ġto ile
ak i
Ġact iv
Ġcomm on
if i
Ġkeep s
Ġca bin
Ġlou nge
Ġp henomenal
Ġcomplim ent
Ġdon uts
o d
Ġh om
Ġj ump
Ġcomp ar
Ġlo an
Ġchar ging
Ġbig gest
Ġdessert s
b age
Ġcol ors
uc ed
Ġr ac
Ġh i
Ġmater ial
h h
l iness
Ġc atch
Ġnood le
Ġmas ter
Ġter ms
a ff
Ġcan ada
Ġexam ple
w ow
Ġtal ented
Ġlo bby
Ġin qu
Ġcolle ge
Ġconsist ent
or row
Ġcompet itive
Ġtick ets
Ġpro s
Ġs ke
Ġnur se
Ġsh it
Ġansw ers
Ġpl umb
oo p
on i
Ġreg ularly
Ġd j
Ġd ough
Ġmo b
Ġmake up
t ies
Ġde g
or able
Ġb out
Ġd ig
Ġcur rently
Ġpoint s
Ġf ather
Ġres ched
Ġca kes
a a
Ġgoo g
Ġcr unch
Ġint rod
Ġpic king
Ġme ant
al a
Ġoffer ing
ph one
Ġb ars
Ġfe m
Ġf lex
Ġf irm
Ġgo lf
Ġrecommend ations
Ġche w
Ġf u
Ġsurpr ising
Ġtherap ist
Ġseason ed
l ies
Ġno ise
ag o
Ġ ess
c ent
Ġp ants
Ġn y
Ġgar bage
f ood
Ġprod uce
Ġsome what
Ġphys ical
Ġlob ster
Ġincon ven
Ġplumb ing
Ġj im
b ook
Ġsl ice
Ġdeser ve
Ġh oney
Ġfr ame
Ġcreat ive
Ġsamp le
het ic
n el
Ġst up
Ġevery day
Ġvegg ie
es y
Ġp in
Ġhas s
m en
Ġpleasant ly
Ġcon cept
Ġfrequ ent
Ġti red
Ġre mod
Ġrespon sive
Ġtor t
Ġmov ie
aw esome
Ġsc en
Ġtrans fer
Ġg all
Ġcom bin
Ġincom pet
Ġf ield
iz ation
Ġhist ory
Ġbran ch
id ents
Ġprevious ly
Ġlo yal
Ġaccommod ate
Ġindust ry
Ġacc ord
Ġanim als
Ġa u
Ġl az
Ġw ifi
Ġinc or
Ġpot ential
Ġpick y
Ġneighb ors
Ġre nov
gg ed
Ġgood s
Ġstup id
nd e
Ġrel ie
Ġthorough ly
Ġbr id
im ately
Ġl ands
Ġapolog ized
Ġca mer
Ġass um
rif ic
Ġcance lled
Ġbr ow
Ġdress es
ad ed
Ġreason s
us ion
Ġwas ted
Ġlo se
Ġli qu
Ġbathroom s
belie v
Ġre ach
Ġkn o
Ġdav id
Ġdam n
end ers
Ġdis p
Ġenjoy able
at ic
Ġtext ure
Ġassoci ate
Ġatt or
Ġmonth ly
Ġemail ed
Ġth rew
Ġo ct
Ġadv ised
Ġh urt
Ġrun s
Ġluck ily
Ġremod el
er c
Ġso ggy
Ġlist ed
um ber
Ġtick et
Ġtra ffic
Ġle aves
ha el
an k
Ġrel ative
Ġhang ing
r as
Ġco ll
Ġconf ident
Ġeyebrow s
Ġinvol ved
et ch
Ġdisc uss
Ġlands ca
Ġst ates
Ġman go
Ġla und
Ġr ings
Ġdeal er
Ġopportun ity
Ġfran k
w hen
Ġmess ages
Ġwe ather
Ġcas ual
Ġt ub
Ġru ined
Ġmod el
we ll
Ġh ill
ive ly
Ġch ili
Ġb um
Ġappe ar
in ary
Ġhelp s
Ġfr y
Ġm es
o k
Ġp ier
Ġinc re
ab solute
Ġbes ides
Ġk ill
Ġro ot
Ġpro fess
Ġlack ing
Ġsho ot
Ġa i
Ġma x
r ass
Ġannoy ing
Ġpoint ed
Ġb reat
Ġm ood
Ġshi pping
Ġg reek
Ġsl ices
res pect
Ġjap anese
Ġsa m
Ġp outine
Ġeas ier
Ġne at
Ġdo cu
Ġbed room
nd ing
Ġd ust
Ġex erc
Ġr ates
Ġany time
Ġpartic ularly
Ġes p
Ġcomplain ed
Ġest ate
Ġboo king
Ġwr ote
Ġconven ience
Ġg onna
Ġhell o
Ġk en
Ġjob s
Ġapolog y
Ġmeat s
Ġlight ing
Ġrefres hing
er ve
Ġmin or
Ġweekend s
Ġclean er
Ġbal ance
Ġcir c
Ġst one
Ġj uly
Ġsp ice
Ġo l
Ġdis respect
in ing
Ġbon us
Ġattemp t
b ing
Ġun able
Ġcal m
Ġplay ed
Ġimpress ion
Ġlear ning
Ġtun a
Ġspac ious
Ġgenuine ly
Ġqu al
Ġfl or
Ġfem ale
Ġhu nd
Ġw ays
Ġla ke
Ġa ug
Ġdist ance
Ġli ft
Ġun believ
Ġs oooo
Ġca nd
Ġhund red
Ġweek ly
Ġanim al
Ġman i
Ġwhe el
ar i
Ġsu ff
Ġbur nt
Ġon to
Ġca used
Ġstuff ed
Ġgl ut
Ġsqu are
Ġde mand
Ġce le
Ġsa ving
Ġam ong
friend ly
Ġca red
Ġcu is
Ġt ro
ain ing
Ġorgan ic
Ġstr ange
Ġhe y
Ġdetail ed
Ġover ly
n ight
Ġvehic les
Ġaccord ing
Ġc her
Ġd est
ne w
us hing
Ġrepe at
ter rible
et te
Ġblo ck
Ġwat ched
Ġj erk
Ġmess ed
Ġal co
Ġso da
Ġsign s
Ġover whel
Ġher self
Ġp est
ill y
Ġsh ots
Ġimp oss
Ġlen gth
Ġsm art
Ġschedul ing
ru pt
Ġcele br
Ġbeha v
Ġal ter
and a
iss a
Ġde ce
r ist
t es
Ġperson ality
Ġrent ed
Ġwel com
o or
p ing
Ġe th
Ġprov ides
Ġimport antly
Ġalco hol
Ġhe ld
Ġpe ace
Ġtoile t
Ġt art
Ġsa v
Ġtur key
Ġmo ist
Ġr aw
Ġhass le
il es
Ġus es
Ġm al
Ġla id
Ġpresent ation
Ġsupp lies
Ġconfir med
Ġas ide
Ġli ves
pl es
Ġb one
Ġem bar
Ġp age
Ġhear ing
n ice
Ġa lex
Ġtom orrow
Ġexce ption
Ġassist ance
Ġmot or
Ġo m
Ġste ve
Ġrepe ated
pl ace
Ġtyp ically
Ġhy g
Ġentr ance
Ġc ater
nd s
Ġro b
Ġgard en
Ġimposs ible
Ġimpress ive
Ġmanag ers
Ġhost ess
p es
Ġsal ons
Ġrepl ied
Ġmass ages
Ġconf used
ch i
Ġbill ing
Ġannoy ed
Ġdi p
Ġprov iding
Ġpop ular
i os
Ġcom b
Ġstart s
Ġsad ly
Ġbart enders
absolute ly
Ġpain ting
nd a
in ation
Ġb ull
Ġg lo
Ġpr ide
Ġbu ilt
Ġlaz y
Ġi ced
Ġb ul
Ġsales man
Ġsur round
Ġsound s
Ġne ither
Ġupd ated
Ġn ames
Ġneighb our
Ġpol ice
Ġholid ay
Ġcan ad
Ġh ook
Ġsho e
Ġex e
Ġju icy
Ġv ent
Ġbo ys
it as
Ġc y
Ġconsult ation
Ġp ink
an ced
Ġincl ude
Ġn ap
Ġp ound
Ġl it
or gan
Ġv a
u um
Ġp s
Ġsn acks
f u
Ġspe ct
is a
Ġcomplim ents
Ġexpl an
Ġcook ie
Ġs ong
Ġmic hael
Ġr arely
Ġj er
Ġsa fet
Ġv iet
Ġfoc us
an ces
Ġar m
Ġtrain ed
re ally
Ġbe an
ri l
Ġacc ur
Ġgoog le
m ission
Ġri pped
Ġr at
Ġtake out
Ġpatr ons
Ġun ac
Ġbed s
Ġattend ed
Ġst ating
Ġref ill
Ġpu ppy
Ġf ed
Ġsafet y
all ed
Ġh ub
Ġhard ly
in king
an y
Ġreal t
Ġglut en
Ġfix ing
Ġsy mp
ag er
Ġdo zen
t w
Ġprofess ion
Ġca ndy
Ġdir t
Ġd ave
Ġspl it
Ġavo c
Ġregard less
Ġlet ting
Ġfar m
Ġbr oth
i ot
Ġlet ter
Ġanswer ing
Ġattor ney
Ġear th
ad es
Ġdr ug
Ġfrid ge
Ġth reat
Ġf ool
Ġmo vers
Ġcup cakes
Ġsearch ing
Ġlat te
Ġvac uum
Ġcuis ine
un ct
Ġchic ago
Ġmob ile
il ies
Ġrequest s
on y
Ġsupp ose
Ġlab or
Ġthat s
Ġup stairs
Ġwelcom ed
ad ing
Ġgy ro
Ġsamp les
Ġhesit ate
ll s
Ġg ate
Ġsha dy
Ġadm it
Ġj une
Ġcha mp
Ġwear ing
Ġwor ried
Ġunderst ood
Ġpre gn
pri ate
Ġbl own
Ġgi ant
bb ed
Ġf ight
Ġpe an
Ġcanad ian
vel op
Ġhyg ien
Ġsome how
Ġo bs
Ġembar rass
Ġgr ass
Ġcom ments
Ġprom ot
a ven
Ġdi re
Ġd om
Ġco at
fe rence
fr ont
b ble
Ġli ed
Ġque en
Ġdisc us
Ġsn ack
Ġour selves
umb led
Ġclean ers
Ġi l
Ġjud ge
Ġp ita
il s
Ġsele ctions
Ġpa ul
Ġrequ ire
Ġsme lled
Ġfrustr ated
c ca
on est
Ġbeaut y
Ġafter wards
Ġsw im
o b
Ġm s
Ġim m
Ġr ay
Ġkind s
Ġrecei ving
Ġter m
Ġun its
m are
k i
Ġaw hile
Ġcr own
Ġsess ions
Ġfrequ ently
Ġpro gress
Ġtrans action
re ly
Ġbl ast
Ġinv iting
Ġsmo ked
Ġce iling
ed s
Ġto fu
Ġent rees
Ġincor rect
Ġbot hered
k ward
Ġco con
Ġn ut
Ġst om
n ce
Ġbott les
Ġhum an
Ġenc ount
Ġencount ered
an na
Ġpe ppers
Ġcream y
cept able
Ġappro ach
Ġconst ruction
Ġwal mart
Ġhe aven
Ġhon or
Ġpast ries
Ġrep ut
Ġvoice m
Ġdre am
Ġcocon ut
Ġwe t
Ġcar p
Ġl ang
Ġf ing
Ġnight mare
Ġfe at
ut h
Ġfl u
Ġap ril
Ġmaint ained
Ġrep ly
Ġthank ful
if ully
Ġcreat e
Ġinex pensive
Ġtoo ls
Ġcl erk
Ġn ach
d ed
Ġo ven
Ġres idents
u f
Ġsp an
iqu es
Ġfam ilies
Ġaw kward
Ġpush y
Ġca ught
Ġneed ing
Ġinter act
Ġappe ared
Ġpr in
bur ger
Ġide as
Ġstrong ly
o ke
Ġd uck
Ġfrustr ating
Ġunac ceptable
Ġran ch
Ġflavour s
Ġram en
Ġrelative ly
Ġb is
ag ue
Ġtomato es
Ġhom es
Ġten ants
Ġf ake
Ġlas er
Ġsmell s
Ġfor th
Ġta g
Ġpo cket
Ġloc ked
Ġke ys
or m
ll i
Ġj ason
Ġs que
Ġp i
Ġsign ific
Ġcomp are
Ġapolog ize
Ġarri val
organ ized
Ġtem pe
f l
Ġgra vy
Ġtem per
Ġdel ay
Ġmed ication
war ma
k in
ci ous
Ġsn ow
Ġthri lled
Ġbout ique
Ġnew s
Ġbeaut ifully
Ġpart ner
Ġan x
l in
Ġsta ir
Ġd ar
Ġinte gr
Ġphotograp her
Ġas h
Ġle ather
Ġma le
Ġplan ned
Ġlaund ry
Ġto dd
Ġsuper b
Ġsto cked
Ġm ort
Ġcha nd
y er
he st
Ġloo se
Ġpaint ed
Ġsecond s
y le
Ġtan k
Ġmush rooms
Ġh ous
Ġball s
Ġhur ry
Ġnic er
Ġavoc ado
Ġsu ck
Ġapp lic
Ġter rific
Ġre ar
Ġdi et
Ġsty les
Ġdry er
Ġinsist ed
p ed
Ġp iss
ick s
f a
Ġs ar
Ġl ux
Ġdi v
Ġmic row
Ġgu ac
Ġcoupon s
Ġminim um
az a
Ġmist akes
Ġm ent
Ġpart ies
Ġclaim ed
Ġt it
res so
Ġcons um
Ġcombin ation
st o
Ġbas is
Ġaug ust
Ġye lling
Ġi ron
Ġde velop
Ġph ones
e very
Ġreg ul
Ġless on
Ġcompliment ary
Ġv int
en ing
Ġsub st
Ġd ive
Ġent ree
Ġhighl ights
Ġleg s
Ġneighbour hood
Ġsuper vis
Ġmar ch
m es
an cy
Ġdi am
Ġtre es
Ġsmooth ie
Ġfor ced
Ġst at
Ġpl ans
Ġstraw berry
Ġang ry
Ġg al
Ġblo nde
Ġviet nam
r am
Ġfil thy
ili ar
Ġincompet ent
ha ppy
Ġl ens
id ers
Ġconf idence
ur a
Ġsu bs
it ary
Ġmar y
Ġfresh ly
get ic
Ġsmo king
Ġsol ution
Ġcolle ction
Ġdri ed
Ġn et
Ġv ou
Ġbrand s
Ġstandard s
Ġcockt ail
Ġlang u
Ġse pt
Ġaccess ories
Ġflex ible
Ġal right
as ing
Ġsil ver
w hile
Ġto ne
Ġgood ness
Ġcou ch
Ġdes per
Ġvis ion
iv al
um bs
a ly
n ger
Ġest im
Ġcond es
Ġtow els
ra id
mo nd
Ġwas hed
Ġcockt ails
Ġje ff
Ġvan illa
Ġp up
Ġlo ss
Ġco de
Ġsurprising ly
Ġfavor ites
Ġte x
Ġrecord s
Ġwas hing
Ġpro f
Ġdr inking
Ġwas her
og n
Ġtax es
im i
Ġaf raid
ri e
Ġvint age
l ings
ru gg
Ġb c
Ġpat ience
ame l
Ġsp read
Ġmar gar
Ġcas ino
Ġab ility
g y
er ved
Ġbo ot
Ġmcdonal d
t here
Ġt int
Ġs oo
Ġextens ive
Ġrel ations
Ġf est
i ers
ic ures
Ġmo ld
Ġreserv ations
Ġg un
Ġassoci ates
Ġexplan ation
Ġr outine
Ġas ks
Ġbel ong
Ġre ached
Ġfr a
be en
Ġbas ket
g re
Ġo me
Ġperfor med
Ġste al
Ġcow ork
Ġspect ac
Ġw ise
Ġst rugg
Ġsu m
itc hed
Ġelect r
Ġthe ater
Ġfr ames
Ġdin er
Ġt am
Ġs han
Ġde bit
ard s
ou d
Ġro se
Ġvers ion
Ġpur p
Ġele v
i res
Ġb omb
Ġpl ant
Ġri b
Ġsh ip
Ġbage l
ce nding
bo x
Ġur g
Ġprom ise
Ġdaughter s
Ġc ats
cha nd
Ġgroom ing
Ġoff ic
Ġdiam ond
Ġfac ilities
Ġclos est
Ġte en
fe ct
Ġbr is
Ġbu gs
Ġi ve
Ġspecial ty
Ġupgr ade
Ġtar get
le ct
ous ly
Ġent ered
Ġwar ning
Ġadv ise
Ġref use
Ġrespons ibility
ic ked
Ġsta ge
Ġsec ret
Ġw ild
Ġp ers
Ġpl aza
Ġr ack
Ġtr ade
Ġco s
Ġjo y
Ġsend ing
Ġcreat ed
Ġinstruct ions
Ġstom ach
Ġd ut
ac he
Ġw is
Ġbl ess
Ġprofessional s
Ġrec ogn
Ġchip ot
u ing
Ġleg al
Ġcolle ct
Ġcomplain ing
Ġ q
Ġbu bble
Ġcondes cending
Ġshould er
Ġcra ppy
Ġgift s
Ġmeas ure
Ġcar amel
Ġres ort
Ġsele ct
Ġass ume
Ġdeser ves
Ġmer chand
Ġpen ny
Ġpick up
Ġbehav ior
Ġpo s
Ġadvert ised
Ġlangu age
it ions
Ġsk ill
Ġart ists
m ary
Ġd ine
Ġsta le
ord ered
Ġfort un
Ġl y
Ġdis s
Ġto ys
Ġsc ar
Ġwra pped
Ġacknowled ge
Ġha w
Ġli kes
ig ning
Ġhappen ing
Ġinclud es
Ġma is
lo c
Ġbri an
g ant
at ives
Ġb ay
Ġlic ense
Ġfing ers
Ġset t
Ġgrou ps
ha m
Ġresched ule
Ġbl ind
Ġback ground
Ġin vent
Ġye llow
Ġmag ic
Ġamaz ed
Ġsto pping
Ġappro x
Ġspin ach
Ġchipot le
Ġble nd
Ġrealt or
st on
Ġr ow
Ġca b
Ġbill s
Ġroast ed
Ġesp resso
Ġqu es
Ġun happy
Ġbuy er
Ġr om
im p
Ġrude ly
Ġm i
Ġli br
Ġam en
Ġre le
Ġsk ip
Ġstre t
c ue
Ġse ve
r ict
al o
r is
Ġextens ions
out s
Ġshell ac
u ary
Ġfloor ing
Ġcontract or
Ġid ent
Ġatt ract
Ġpan cakes
ou red
Ġmay o
Ġguarant ee
m i
Ġs ink
Ġp ine
Ġcl ue
Ġdri vers
Ġcup s
Ġwax ing
im ent
Ġgre ens
Ġag gress
be at
Ġexpert ise
Ġadd ing
Ġrel ated
Ġless ons
Ġcon v
Ġun w
Ġlevel s
Ġve ter
Ġcr it
Ġremo val
Ġstylist s
Ġsp ir
Ġclean liness
rib ly
Ġvietnam ese
Ġf ount
Ġpres ented
Ġcop y
Ġb oss
itt y
Ġlo ving
are t
sh ield
Ġv ill
Ġs en
Ġp ill
Ġend s
Ġface book
Ġpain ful
Ġspectac ular
Ġapp ly
Ġfl ag
wor thy
Ġrespect ful
ri ous
Ġshi ft
ul es
Ġshort ly
Ġpa p
Ġsupervis or
Ġwind shield
Ġmic he
st ers
Ġmeat ball
Ġv ict
Ġbris ket
Ġenjoy ing
Ġsca red
y ou
Ġp ure
Ġbre ast
Ġpepper oni
Ġs lo
Ġr ic
Ġsha warma
Ġban ana
Ġun ne
Ġbu ck
Ġdepend ing
k ins
Ġr ud
Ġplat ter
Ġa ction
h us
ign ment
Ġc in
Ġh rs
Ġopt ed
Ġto ny
Ġnum bers
Ġclaim s
Ġwaff le
Ġris k
ri ger
Ġro cks
log y
Ġmerchand ise
se y
Ġall erg
Ġdecor ated
Ġinj ury
Ġyou nger
m ans
Ġsha r
Ġex ter
Ġbr ows
Ġvoicem ail
Ġpat h
Ġthank fully
Ġany body
Ġbl ame
Ġref riger
Ġbar bers
Ġact ed
ple as
Ġnic est
w al
Ġin fe
Ġremind ed
Ġir rit
i ff
Ġw it
Ġf le
am a
Ġamb ience
Ġaccur ate
f y
Ġput s
Ġmush room
ip s
Ġaltern ative
Ġins p
l aw
Ġqu ar
Ġfran ch
Ġintegr ity
Ġn ick
Ġprem ium
Ġnach os
Ġh ooked
Ġcar r
Ġche m
Ġhe nd
Ġas pect
Ġla pt
or a
ver se
Ġsk illed
Ġpri me
Ġload ed
Ġho les
Ġadult s
Ġunbeliev able
Ġf inger
Ġlist ens
Ġres ident
Ġexce eded
Ġbit es
Ġcarp ets
Ġmes a
Ġca es
Ġw ing
Ġlisten ing
ent ially
Ġscr atch
erv ice
i y
Ġi phone
ott en
Ġt as
at a
dd en
Ġdire ction
y ed
Ġno pe
uf act
j o
Ġb er
Ġmen us
Ġpean ut
Ġto pped
Ġattend ing
y ard
Ġhold ing
Ġmu ff
Ġqu i
Ġcal am
Ġpl ants
Ġs i
Ġman ufact
mb ered
m us
Ġpract ices
Ġgu ide
Ġdan cing
Ġsu dden
Ġrecommend ing
Ġfe b
n n
Ġtrain er
Ġimpro ved
Ġl isa
Ġrelations hip
hus i
Ġh un
Ġdec l
p an
Ġb tw
Ġs ash
Ġreme mbered
Ġcompassion ate
in ated
Ġu nd
Ġab s
Ġmot iv
Ġmedic ine
Ġchew y
c orn
Ġha ha
Ġl ed
Ġsupp ly
Ġpr oof
Ġwhat so
Ġchand ler
Ġhe ater
Ġatt ached
Ġminim al
Ġpack ages
Ġmount ain
Ġqu ant
Ġserv es
ide red
Ġstep s
Ġsound ed
Ġdescri be
Ġbi kes
Ġbenef it
c l
Ġin n
Ġfor mer
Ġwhatso ever
Ġre v
Ġfeed back
Ġm ild
Ġgr ad
Ġimprove ment
c ar
f in
ant ed
Ġg er
at isf
Ġre new
Ġtr uth
Ġro lled
Ġvend ors
Ġc ult
Ġset s
Ġto y
Ġal ot
Ġf are
oo ks
Ġcabin ets
Ġwe b
Ġso y
Ġv ir
Ġfam iliar
Ġelect ric
r ation
Ġattemp ted
Ġdump lings
sto pped
t i
Ġj ess
Ġbo ots
Ġreplac ing
o lo
Ġsw itched
Ġbuff alo
b an
o ff
Ġaccept ed
Ġamen ities
Ġre ci
Ġst ains
Ġdep ot
Ġas ap
z el
Ġear ned
o pe
Ġgrow ing
Ġbage ls
Ġth read
Ġer ror
g a
Ġcondition ing
pt ical
Ġday care
Ġcond o
Ġf ian
Ġth r
Ġleg it
Ġcalam ari
ac hing
Ġprep are
Ġke vin
Ġkid ding
Ġrent ing
Ġse x
Ġprofession ally
r up
Ġno on
Ġwar ned
Ġsash imi
h ill
uc ked
Ġlay out
Ġquot es
Ġproced ures
Ġapplic ation
g ot
Ġevery body
Ġome let
Ġsque e
Ġc ents
Ġj ul
Ġh r
Ġgot ta
Ġcomm er
Ġcent re
Ġtast eless
Ġent husi
Ġdesign ed
Ġbra kes
ac es
Ġper man
Ġsatisf action
Ġfr u
Ġun re
l or
Ġth umbs
Ġse w
Ġwh om
Ġreview er
Ġf aster
Ġg inger
Ġthere fore
Ġcro iss
Ġfian c
Ġcompet ent
Ġl in
Ġca pt
Ġje ans
Ġaccept able
Ġcontain er
Ġvou cher
Ġd ude
ro ll
ar ily
Ġtrust worthy
Ġthous ands
Ġse a
ign ed
Ġeng age
Ġrepresent ative
Ġinconven ience
er al
ut ions
Ġprote ct
Ġin ch
Ġcamer a
mans hip
Ġproper ties
Ġappro priate
Ġlibr ary
Ġsh out
qu et
Ġresol ve
Ġa is
Ġwal ks
Ġowners hip
t f
Ġcom fy
at ors
Ġtrust ed
Ġf i
Ġmet ro
it or
Ġye lled
Ġp or
Ġes ca
Ġp ushed
Ġk ar
Ġmean ing
Ġf itting
Ġrelie f
Ġpat ron
s on
Ġmechan ics
Ġexe cut
Ġbut t
Ġave c
Ġun he
Ġs out
Ġcar ne
Ġcourt esy
Ġc ate
Ġso ap
Ġsc all
Ġw es
Ġtrain ers
Ġge ar
Ġfl aw
Ġcons idered
Ġfab ric
Ġthe at
Ġn av
Ġexc uses
Ġresol ved
w est
ri er
Ġstress ful
Ġr ules
Ġappe ars
ll o
ca le
Ġsou ps
Ġlea king
Ġscrew ed
Ġhub by
Ġhend erson
Ġor th
Ġtri ps
os is
Ġtrans mission
Ġb bb
r om
Ġtest s
Ġj ames
Ġpurcha ses
Ġhead s
Ġbow ls
Ġpassion ate
Ġtemper ature
Ġpurp ose
Ġpre vent
Ġcrunch y
Ġjan uary
Ġun ivers
Ġcent ral
ath y
Ġencour age
Ġdisrespect ful
Ġre b
Ġdet erm
Ġseason ing
Ġr ays
Ġche es
Ġchallen ging
Ġlapt op
Ġo z
Ġsha mp
Ġaut hor
Ġg um
Ġhum mus
v s
Ġfil ed
o ber
Ġbar ist
Ġfinan cial
Ġgra bbed
Ġadvert ise
Ġvill age
Ġf ans
Ġhotel s
Ġshamp oo
Ġintrod uced
Ġbrid al
g i
ld er
Ġoh io
Ġtrave ling
Ġeffect ive
Ġscen e
Ġoct ober
Ġorgan ization
Ġj unk
Ġover char
Ġag ency
Ġtrans port
Ġproject s
h op
ha ve
Ġbreat h
Ġco ord
Ġpain less
ic king
Ġoff ices
Ġass ess
Ġtv s
Ġse al
Ġpop corn
Ġf und
Ġr yan
Ġcrack ed
Ġy a
Ġover cooked
n ie
Ġsub m
Ġfall ing
Ġopp os
Ġbe lly
Ġwa re
ian ces
g age
Ġdo c
Ġphys ician
Ġs igning
Ġdis m
Ġchallen ge
Ġf ired
Ġe ur
Ġmic ro
Ġinvent ory
Ġgel ato
Ġst umbled
ud es
Ġed ge
le ts
ge on
Ġhead ed
Ġw on
Ġp il
amp ed
Ġentertain ment
Ġregul ars
p ret
Ġv ib
Ġassum ed
Ġb ird
Ġback yard
Ġbun s
Ġhop es
Ġwor n
ar ched
Ġequ ally
i el
Ġc ri
Ġcig aret
s ervice
Ġdece mber
Ġloc ks
Ġchar ac
Ġcar ol
Ġbr ings
su per
Ġca using
Ġsy rup
Ġsh own
Ġcost um
Ġhas h
Ġim pe
Ġh ills
Ġom g
Ġs ons
Ġappl iances
Ġfount ain
Ġevery time
p erson
Ġpat ty
Ġunfortun ate
Ġalter ations
lo s
Ġfil ter
Ġj our
ious ly
o ld
Ġun c
Ġinc ons
Ġpe el
Ġveget able
Ġg il
Ġr out
Ġins ane
Ġreg ist
Ġswe at
Ġhighl ight
Ġfal se
Ġinc ident
Ġst ren
un ks
Ġbad ly
Ġsign ature
Ġh ood
Ġas ada
Ġmain ly
Ġwas ting
Ġte ach
Ġsha ke
Ġla ug
Ġd ressed
Ġinv o
st al
Ġappro ached
Ġpos ition
Ġchoo sing
Ġteac hing
Ġcheese cake
Ġb ust
Ġto pping
Ġte as
Ġun lo
Ġune ven
Ġdr unk
Ġsc ore
Ġstat us
Ġfe llow
Ġtech s
st aff
Ġloc ally
Ġcomp ens
Ġprint ed
Ġfra ud
Ġprov ider
owd er
Ġha t
Ġche cks
Ġbu mp
Ġpar ked
Ġspan ish
or ia
Ġcommunic ate
t om
Ġnow here
Ġign ore
Ġactiv ities
Ġunne cessary
Ġfe ar
Ġmac ar
Ġa ch
pt ions
Ġtechnician s
Ġstair s
Ġd il
Ġgreat est
am ole
Ġgr an
Ġstick s
Ġfoc used
Ġn ous
Ġscr at
Ġdiagn osed
Ġs ont
Ġref ills
Ġsoon er
Ġwaitress es
Ġocc ur
Ġwit ness
ill as
Ġserv iced
Ġo y
Ġwe ak
Ġsp ices
Ġcur t
Ġme h
Ġhonest y
ron ic
Ġcamp us
Ġac ry
Ġarrange ment
Ġded icated
n ic
Ġde b
Ġle e
Ġsc an
Ġcheap est
Ġli f
app ed
Ġmed s
Ġconfirm ation
Ġrespons ible
Ġmiche lle
g on
Ġdon ut
Ġliqu or
Ġarrange ments
Ġimpe cca
Ġe p
Ġta it
ug s
Ġmill ion
Ġguac amole
Ġacry lic
Ġdown side
Ġbel t
u ction
Ġste pped
Ġdiscus sed
Ġhaw ai
Ġt out
Ġf iance
Ġtow el
her n
Ġass ort
Ġadd ressed
Ġent ering
Ġpiss ed
Ġrefer ral
Ġo w
il ian
Ġbro cc
Ġshi pped
Ġas se
Ġcr u
if ication
Ġdirect or
Ġjen n
Ġp ip
Ġd ans
Ġscre ens
Ġl ying
Ġperform ance
Ġchem ical
Ġt all
d es
Ġchiropract or
Ġste am
Ġgold en
Ġfranch ise
Ġappe al
Ġvi ol
Ġy rs
Ġca f
Ġinde pend
Ġdown stairs
Ġlast ed
Ġoppos ite
Ġag es
Ġcheck out
Ġmet al
Ġamer ica
z ing
Ġb s
ho ld
Ġol ive
o very
Ġgr ade
ĠĠĠĠĠĠĠĠĠĠĠĠĠĠĠĠ ĠĠĠĠĠĠĠĠĠĠĠĠĠĠĠĠ
Ġw ip
Ġreview ers
Ġes c
Ġey el
Ġmicrow ave
Ġv ip
Ġfal af
Ġv s
w w
Ġcert ific
Ġre ass
Ġmet ho
Ġappl ied
Ġexter ior
iy aki
Ġw tf
Ġp am
Ġmaterial s
Ġun friendly
Ġori ented
Ġconvenient ly
Ġu pper
Ġc ous
Ġgroom er
Ġjo sh
Ġdish onest
Ġhundred s
Ġc ub
Ġth us
Ġsome body
Ġpay ments
Ġske ptical
Ġl ash
Ġst ations
Ġa h
ar m
Ġspecial ist
Ġhig hest
Ġcompet ition
Ġne v
Ġsmooth ly
Ġchat ting
Ġn uts
Ġte le
Ġsmooth ies
Ġsk y
Ġaggress ive
v d
r id
Ġm use
Ġbra z
Ġw ines
Ġh iring
Ġgo at
Ġups cale
Ġra ised
e le
Ġout let
Ġro bert
Ġsm iles
Ġpri mary
Ġcash iers
f ield
Ġdr ain
o x
Ġta ught
al ways
ond a
t han
ĠĠĠĠ ĠĠĠ
az z
Ġdentist s
Ġstick y
Ġtr ick
Ġpr oud
ul ty
Ġtop s
em ber
a ked
Ġco ach
Ġten ant
olo getic
Ġbrocc oli
n is
ot i
Ġhapp ily
Ġcare fully
Ġout ra
pect ed
Ġpol itely
Ġdesign er
Ġconst ant
Ġsept ember
l ass
as p
gg ing
Ġstand s
Ġche er
Ġburrit os
Ġcin nam
Ġk at
Ġca m
Ġo u
Ġhe ck
Ġdisapp e
Ġsuggest ion
Ġmel ted
Ġdocu ment
Ġspr ink
Ġsens itive
y y
Ġc uc
Ġmass ive
mon y
Ġexerc ise
Ġr ick
Ġprior ity
Ġlaw yer
Ġrepeated ly
ent ious
Ġup front
Ġla wn
Ġinde ed
Ġpine app
Ġna an
Ġtr ucks
Ġv ous
Ġce re
Ġshut tle
Ġchin a
Ġwaff les
Ġappro ved
Ġp it
Ġflavour ful
Ġmajor ity
Ġdut y
Ġcinnam on
Ġo s
Ġj ala
Ġca v
pl ant
Ġset up
Ġsell s
Ġdist rict
Ġc ore
or ary
Ġcon vin
uff y
Ġflow er
Ġlat est
Ġhous es
pleas ant
Ġarri ving
Ġult imately
Ġlandsca ping
Ġcater ing
ad as
Ġgu it
Ġmust ard
Ġbra ke
Ġover l
Ġjack et
Ġelectr ical
Ġrest o
Ġsm iling
Ġwall et
Ġd umb
Ġwas nt
ant ic
Ġoper ation
Ġm ars
if er
Ġmanufact ure
Ġnev ada
Ġun us
Ġdelight ful
Ġa pt
Ġbo at
o c
ed ing
Ġurg ent
nd ays
Ġlocal s
Ġsuper ior
Ġste amed
Ġpl umber
ord er
Ġsou l
Ġh int
Ġr on
Ġsp ark
Ġlaugh ing
Ġtech no
Ġadm in
Ġbe ach
Ġcompar able
Ġv ine
Ġsout hern
c an
er ie
Ġis land
Ġsu ite
Ġinst antly
Ġsec ure
Ġheal ing
Ġdescri bed
Ġdeg rees
Ġlet s
Ġpool s
Ġmar ried
Ġinf l
Ġacknowled ged
Ġs no
Ġgre ase
Ġden ied
Ġeduc ation
Ġpass ing
e k
Ġrest room
Ġamazing ly
Ġdes ired
Ġind oor
Ġtan ning
Ġcaes ar
Ġbr ides
Ġmuse um
a is
Ġb ent
Ġb oring
ll ar
Ġmort gage
w s
Ġclo ck
Ġter min
Ġsk etch
Ġju ices
m ont
Ġk ara
Ġad vent
Ġblo cks
h ib
o h
Ġr ust
Ġbase ment
Ġtit le
Ġm int
Ġad op
at ory
Ġsh red
Ġnur ses
t ion
Ġr ated
Ġlo s
Ġsc oop
ic he
Ġsu ns
Ġcontin ues
Ġstor ies
Ġsu its
Ġtri es
b al
Ġst un
Ġres erved
Ġe ater
Ġno v
Ġad e
Ġhead ing
t own
Ġcontact s
Ġpregn ant
le nd
Ġfact ory
Ġs ight
Ġn u
Ġsl iced
Ġgreet ing
Ġassist ed
Ġmas hed
Ġagree ment
ist ic
Ġdi pping
Ġcontract ors
Ġhygien ist
Ġun pleasant
Ġins ult
Ġsur f
Ġs es
Ġse am
Ġgo als
Ġcomm it
Ġworkout s
Ġjo in
Ġscr ub
Ġstret ch
Ġt iss
Ġe ager
Ġno ve
ic ate
Ġgreat ly
Ġrub ber
Ġoverwhel ming
Ġpineapp le
Ġbr us
Ġer ic
as m
st e
Ġter iyaki
Ġtrail er
Ġshe lves
Ġsales person
Ġimpecca ble
Ġhaircut s
Ġco verage
Ġcompar ison
Ġdeg ree
Ġi p
Ġs in
ac le
Ġcan al
Ġhand ling
Ġmess y
Ġrefriger ator
ul ting
Ġmar ked
Ġma nd
Ġthr own
Ġquant ity
b on
Ġlo sing
a it
Ġgr ac
Ġwonder ing
Ġad orable
Ġadm itted
Ġgil bert
Ġso le
Ġesca pe
d el
Ġdown hill
Ġunivers ity
b ow
Ġcl im
Ġri ver
Ġar ts
f ish
ain e
Ġar ms
Ġneg oti
Ġco les
Ġcan cer
Ġext ended
Ġble w
Ġconne ct
Ġa y
Ġgu ard
Ġdesign s
Ġbl ah
Ġdro pping
Ġfac es
Ġprefer red
Ġglo ves
Ġdecl ined
lo ved
Ġtro p
Ġclos et
Ġrad io
Ġstud y
Ġnat ure
Ġch op
Ġentire ly
Ġtechn ique
Ġmov ies
Ġr v
iz on
Ġpre c
Ġfin ishing
c les
Ġph il
Ġcard io
Ġnove mber
Ġl am
ber ries
Ġun ex
Ġcut ic
Ġclub s
Ġware house
Ġlaug hed
Ġoutra ge
Ġhe l
Ġreturn s
Ġti l
Ġwho ever
Ġke lly
Ġburn ed
l ight
Ġinc hes
Ġun f
Ġcra ig
Ġdesper ate
Ġcoles law
Ġclass y
Ġdisc over
Ġtoast ed
l ie
en ess
Ġan th
Ġpic s
Ġhook ah
Ġc it
Ġe lder
Ġash ley
Ġst ain
us ive
Ġact ive
Ġint imate
Ġlim it
Ġpair s
Ġwes tern
Ġcontact ing
Ġfalaf el
Ġto es
Ġgr own
Ġoffer ings
Ġcert ified
Ġg our
Ġh ut
un te
mm m
Ġexp ired
Ġanx iety
Ġo li
Ġpr a
Ġfu el
Ġw anna
Ġli me
Ġch unks
Ġsc ary
Ġsha ring
Ġsele cted
Ġmis er
Ġbooth s
Ġo we
Ġp ud
Ġint im
Ġmaint ain
Ġwra ps
is y
Ġle asing
Ġste llar
Ġbab ies
Ġinvo ice
Ġli king
Ġtreat ing
Ġground s
Ġb ree
Ġn ar
Ġdis aster
Ġturn ing
Ġpull ing
Ġsupposed ly
Ġcher ry
Ġto ss
Ġout come
Ġinter view
Ġcas es
Ġview s
Ġt u
oint ed
Ġcl ar
Ġsoo o
l ig
Ġsho pped
Ġtun e
Ġli fet
Ġgre w
Ġtechn iques
Ġr ap
Ġve al
Ġbre aking
Ġdra ft
Ġn erve
ol en
Ġrefund ed
Ġstren gth
Ġsol utions
Ġmcdonal ds
r ors
Ġli es
Ġres cue
Ġsen ior
Ġbe ver
Ġarg ue
Ġguarant e
ot a
Ġha l
Ġtort illa
Ġmat ters
Ġach ie
Ġy r
Ġar ro
ru ary
Ġpast ry
Ġge orge
Ġhesit ant
Ġpharm ac
Ġvol unte
ve t
han ie
ist ent
Ġcha ins
Ġques ad
Ġlifet ime
o on
Ġex ha
Ġshe lf
Ġk ud
Ġcour ses
Ġdan ger
Ġmir ror
Ġquar ter
f antastic
Ġro yal
Ġste aks
Ġtre as
Ġattend ant
Ġbob a
Ġfeb ruary
Ġnot es
Ġbut ton
iv ity
Ġeur ope
Ġsp are
Ġped icures
Ġsett led
y es
Ġf et
Ġwe ndy
Ġad am
Ġqu it
l ers
ic o
Ġamaz on
Ġeas tern
me an
ul ate
Ġbr ide
Ġscre aming
Ġaddition ally
ed y
Ġbre aks
Ġfest ival
Ġde ath
Ġshe et
av a
Ġhand y
Ġp c
or ter
Ġtal ent
air y
Ġfam ous
less ly
Ġcup cake
Ġtou ched
Ġjess ica
Ġdi ed
Ġlack ed
Ġconsist ency
Ġk etch
Ġli p
Ġdel ish
Ġtre ndy
mar ket
Ġseve re
Ġfru its
on ge
qu ate
Ġour s
Ġsho ck
Ġthrow ing
b a
ot ic
ro s
Ġal mond
Ġallow s
Ġeduc ated
Ġchiropract ic
Ġl bs
Ġjenn ifer
Ġsong s
an n
Ġfro st
Ġketch up
Ġm ur
Ġbou n
Ġconc l
ha nd
an ged
im ited
Ġco ke
Ġglad ly
Ġdiagn osis
Ġgu id
Ġconvers ations
Ġst olen
Ġlo g
Ġforg otten
atisf ied
Ġcommer cial
Ġengage ment
Ġd airy
Ġspo ken
go ing
Ġlab el
Ġvol ume
Ġd ates
Ġhe ating
Ġv it
Ġegg plant
Ġexha ust
Ġa est
Ġb f
Ġmil itary
Ġdocu ments
Ġfeat ures
Ġhand ful
Ġpract ically
b read
Ġme lt
Ġde mean
Ġdisgust ed
Ġcere mony
Ġre de
Ġlast ly
Ġbu g
Ġne cess
Ġwait ers
Ġsupport ing
Ġre im
Ġpro p
Ġupd ates
Ġco ast
ak y
Ġprint ing
Ġembarrass ed
on ed
Ġsuccess ful
Ġcost co
Ġhead ache
Ġgrad u
om a
me l
Ġch i
Ġmin us
Ġtemp ura
Ġt ad
ing y
Ġo ak
Ġis h
Ġu ber
Ġk ab
Ġban g
Ġapprox imately
t r
Ġs her
ri g
Ġun ion
Ġcir cle
Ġrec overy
Ġdiscount s
Ġperman ent
Ġgour met
Ġj on
Ġca bb
Ġsur geon
Ġpartic ip
Ġstate ment
Ġth o
Ġbas il
Ġmarket ing
o ot
Ġb m
Ġde fect
Ġlens es
Ġd y
Ġbe verage
ul ed
Ġcha se
Ġtre mend
Ġunl imited
Ġreim bur
er ies
Ġbraz ilian
Ġwh is
Ġfrustr ation
e ms
s er
t ook
se ll
c ers
Ġf ence
Ġp ace
Ġk rist
Ġstaff ed
Ġkind ness
Ġlux ury
m ark
ac ha
Ġno se
Ġrem ote
end ing
Ġbri ef
Ġappear ance
Ġinfe ction
Ġcharac ter
ow ing
Ġeat s
Ġlay ers
Ġbelong ings
Ġelder ly
re nd
Ġthe me
Ġfor ce
Ġso fa
Ġqu aint
Ġann ual
Ġexplain s
Ġtest ing
Ġwar n
Ġinter action
Ġbes ide
Ġn ational
Ġwal gre
Ġslo ppy
ic ip
Ġjoint s
Ġspir it
Ġkud os
b l
val u
Ġnap kins
Ġconvin ced
Ġw ire
Ġchar ming
Ġadvert ising
Ġf t
Ġmed ia
Ġcorrect ed
u nder
Ġbud dy
Ġremind s
Ġocc up
Ġex pen
Ġkn ee
Ġridiculous ly
Ġj ac
int e
Ġgy ms
Ġsl aw
uc c
Ġid iot
Ġassum ing
Ġta pe
Ġph illy
ens ive
Ġval u
Ġb ien
Ġon t
Ġess entially
z a
Ġp ushing
Ġe ars
ver n
Ġus eless
Ġjo se
Ġfa ith
Ġbar g
Ġpe ar
har d
Ġc ree
Ġpo pped
Ġpri x
Ġfacial s
Ġsignific ant
Ġl v
Ġstep hanie
li est
li ance
irst y
Ġent ry
i fe
Ġh onda
Ġhar ass
Ġfun ction
Ġnot ed
ul a
Ġmar ks
Ġclient ele
Ġo ily
i us
l ike
Ġtheat re
ack ed
Ġefficient ly
ven ue
Ġset tle
ig ate
Ġintim id
Ġd read
Ġhe ated
st ay
Ġref lect
Ġam ple
Ġdis organized
Ġcur ly
Ġphotograp hy
Ġbum per
in ate
Ġat m
Ġam y
Ġmo ves
Ġtow ed
Ġconc ert
Ġf ax
Ġapp liance
Ġgentle men
ar io
Ġadjust ments
d er
Ġann ivers
Ġunex pected
Ġin e
Ġu g
Ġpro fit
Ġpatient ly
Ġed ible
Ġvend or
Ġrec all
Ġcra w
Ġprom ises
Ġmem orable
Ġstr uct
Ġex cess
Ġimmedi ate
Ġaccess ible
Ġreput ation
Ġgre g
Ġfly ing
Ġtiss ue
Ġb are
Ġpe ak
Ġattemp ts
Ġholid ays
Ġcompl icated
Ġo re
Ġtext ed
Ġprescri ptions
Ġva pe
lp ful
Ġplan et
Ġcertific ate
Ġses ame
is ions
Ġal ignment
Ġmid night
Ġsatisf ying
n ut
it ors
Ġbe ar
Ġte ars
Ġt ucked
Ġreview ed
Ġconf using
Ġfor d
Ġap ologetic
Ġsketch y
Ġp ressed
Ġl an
Ġth inks
Ġen ch
Ġprocess ed
Ġprote in
Ġcry ing
Ġkno ck
Ġconne cted
Ġtransfer red
Ġre loc
id a
Ġbr ush
Ġste el
Ġcu z
Ġkara oke
v o
Ġli mo
Ġweek day
Ġgr at
Ġant icip
Ġanth ony
Ġf if
at ically
Ġde ck
Ġmo zz
Ġpick les
Ġide al
Ġhop ed
Ġgrocer ies
Ġny c
p y
Ġc ast
Ġfl ood
Ġinter rupt
Ġlaw s
Ġreport ed
Ġhesit ation
Ġdism iss
Ġtechno logy
r ont
Ġwork manship
ren ces
g al
Ġy o
as es
Ġnot ified
Ġst ays
n ever
Ġj ay
Ġlu ke
Ġincre ase
Ġmargar ita
Ġc vs
Ġper m
Ġgre y
ct ic
Ġcance led
Ġfrank ly
Ġsee king
an o
Ġj es
Ġtherap ists
Ġp ig
log ist
Ġench il
Ġa st
Ġover d
Ġfl uffy
Ġexc iting
Ġcond itions
er ia
Ġbu bb
o vers
Ġcance ll
Ġmeatball s
Ġth om
on ne
Ġext ract
Ġmem ories
y i
Ġn c
Ġr asp
Ġregard s
Ġfile t
il a
Ġun cle
Ġfil ing
Ġshould ers
Ġexist ing
Ġp un
Ġto ward
z ed
Ġe valu
Ġhard ware
Ġmiser able
er a
ian o
for m
Ġcre pe
Ġra ise
Ġtattoo s
Ġcross fit
Ġoverwhel med
Ġguit ar
d ated
Ġf its
as hed
Ġem ot
s as
Ġjim my
in os
Ġl ane
gh ter
Ġat h
Ġsar ah
st ore
Ġmem or
Ġac up
Ġunder cooked
Ġpol ic
Ġmet iculous
Ġmag az
Ġoutrage ous
he art
ou nter
Ġp ies
Ġex hib
ct ional
Ġbl ank
Ġsha de
Ġoccasion ally
del icious
Ġoli ves
Ġs ir
ur al
Ġsc al
Ġsymp tom
se ls
Ġtw ist
Ġgr ace
Ġsle e
Ġtodd ler
Ġse mi
Ġadjust ment
Ġbever ages
Ġs ne
Ġp owder
Ġh ide
Ġma ple
Ġguarante ed
d i
Ġspe aks
Ġbar re
Ġpar mes
Ġswe ar
no st
Ġfre aking
Ġver izon
ul ation
Ġshe ets
um st
Ġut il
Ġbenef its
Ġpolic ies
it ation
Ġfor ms
Ġno isy
Ġaccom pan
Ġdist ract
Ġnut r
Ġtex as
Ġexp and
Ġhum or
Ġfoot ball
Ġdest ro
d om
Ġtas k
Ġcou ples
are n
Ġdri ven
Ġske w
ing ly
ag ne
Ġr av
Ġnew ly
Ġcabb age
t t
Ġk ay
Ġfo ld
Ġdest ination
Ġd ated
Ġche esy
Ġtort illas
Ġunus ual
Ġannivers ary
Ġgo al
Ġsm ith
het ician
ie ce
Ġgr anted
ug a
Ġdiag nost
Ġange l
Ġwho se
lass es
Ġshred ded
Ġg ut
Ġj ar
Ġag ents
Ġsour ce
Ġparmes an
Ġflav ored
cre te
Ġsubst it
f c
Ġc reek
Ġr ace
Ġca ble
Ġunderst aff
Ġpap ers
Ġunhe lpful
Ġwalgre ens
h i
ve y
Ġgall ery
k ers
Ġstop s
Ġf ond
Ġbr ain
Ġbill ed
Ġcool er
ha s
Ġbit ter
ci es
are lla
Ġsudden ly
a res
Ġsp ag
Ġsupport ive
Ġenc ounter
Ġb id
Ġact ing
Ġdescri ption
Ġswim ming
Ġg f
Ġg ig
Ġco vers
Ġfil m
ri an
Ġtw enty
Ġown s
Ġnatur ally
Ġirrit ated
Ġassort ment
Ġta b
Ġperson nel
Ġsha ved
Ġpi pe
Ġacup unct
Ġcr an
Ġi cing
Ġcon crete
Ġsurround ing
Ġelev ator
o ons
Ġt act
Ġc one
Ġbed side
het ti
Ġp pl
en e
Ġlo ver
Ġquestion ed
than k
p ass
st r
Ġsomet ime
Ġthought ful
Ġmus cle
pr ise
r r
Ġle an
Ġkind ly
Ġdirect ed
Ġarr anged
Ġre ality
Ġtheir s
Ġrout e
w ill
Ġadv anced
Ġc el
Ġnew er
ens ed
Ġbree ze
Ġsa ke
Ġman ger
Ġar c
Ġexception ally
Ġreput able
Ġmanufacture r
pret ty
Ġh ort
st one
Ġexp ressed
Ġcraft s
Ġhe nce
Ġwhe els
Ġass igned
Ġcol ored
Ġc ul
Ġexc l
Ġcount y
Ġmis o
Ġnet work
Ġcos met
Ġtr uff
Ġhome less
Ġcowork ers
ke ep
Ġve ts
Ġcho pped
Ġcult ure
Ġres our
Ġmem ory
Ġupgr aded
Ġjour ney
Ġfind s
Ġz one
Ġsu cked
Ġfe ature
Ġsl am
Ġsyst ems
c is
Ġb ure
Ġro aches
ap s
Ġexerc ises
Ġcroiss ant
Ġbarist a
Ġunderstaff ed
Ġand rew
or i
ul f
Ġdan iel
Ġentertain ing
Ġindepend ent
Ġover night
Ġaccom pl
Ġf yi
Ġbr ick
Ġbar be
Ġmom ents
Ġbal anced
Ġmozz arella
c alled
l ord
ha b
Ġout s
Ġcal i
Ġdirect ions
Ġcondition er
Ġade quate
Ġfill ings
Ġhigh way
Ġchar m
Ġfree zer
Ġp unct
Ġsupp le
olog y
Ġay ce
d ge
Ġl b
Ġug ly
Ġspag hetti
uc king
ott ed
mm mm
Ġlay er
Ġsymptom s
Ġp ays
ust er
Ġpat hetic
Ġspot less
Ġspo on
Ġdec isions
Ġho a
Ġsleep ing
ac ity
Ġcont r
Ġchan ces
Ġpast or
Ġslow ly
Ġremo ving
Ġwitness ed
Ġb ist
om y
Ġco in
Ġstud ios
Ġpres ence
Ġpo ke
Ġac ade
Ġsure ly
Ġste ep
Ġflor ist
Ġw ished
Ġrenov ated
Ġcowork er
j u
Ġout dated
Ġjo ined
Ġfall s
un a
ol a
Ġbe coming
Ġpress ured
s ome
Ġf uck
Ġlow est
Ġcoo ks
Ġactiv ity
Ġcancell ation
Ġc ott
Ġste w
Ġded uct
Ġscall ops
w onder
Ġp oop
Ġpro ve
Ġval id
Ġint ention
Ġfortun ately
Ġla ure
Ġind icated
Ġe con
Ġhair d
Ġspr outs
i ved
Ġtri al
Ġrid ing
Ġencour aging
Ġbm w
ro it
aur a
Ġbuy ers
Ġrequ ires
Ġinstall ing
Ġstr an
Ġter ribly
ik i
Ġpedi at
Ġcabin et
ac ed
Ġu m
Ġall e
Ġhealth ier
Ġallerg ies
Ġso re
Ġpost ing
Ġjoh ns
k ka
t ried
ill ing
j a
Ġl ately
Ġche dd
Ġbit s
Ġbou quet
Ġps y
Ġoy sters
m at
Ġd ur
Ġst ir
Ġtr ay
Ġinst ruction
Ġred o
Ġver ify
Ġcirc umst
Ġinstall er
Ġtest ed
n ings
ot ive
Ġout lets
Ġplay ground
Ġcuc umber
Ġbrides ma
ke e
re p
Ġin ject
was her
Ġdi me
o id
Ġdiscount ed
Ġb ands
Ġtim ing
Ġpur se
Ġcreat ing
Ġoper ated
Ġliqu id
Ġarro gant
Ġw ond
Ġre wards
Ġwe ights
Ġso c
Ġrel uct
Ġpromot ion
Ġgran ite
Ġst ressed
Ġnew b
Ġmat ched
Ġwi pe
Ġger man
Ġto e
Ġve l
Ġho lly
Ġworth y
Ġadjust ed
m other
Ġse arched
Ġal arm
Ġrem aining
Ġign or
Ġblind s
Ġca pp
Ġconf ront
Ġi lle
ĠĠ ĠĊ
Ġto ng
Ġg ary
Ġv ap
wonder ful
Ġsu ndays
Ġcond uct
Ġdish washer
Ġattit udes
Ġje ep
Ġallow ing
c ons
f ound
est yle
Ġv in
Ġvis ible
Ġavail ability
ot to
at hetic
Ġre he
d own
Ġsc ri
Ġleft overs
Ġmel issa
Ġlemon ade
Ġp unch
Ġstr ict
Ġran g
issa uga
am ic
Ġte ar
Ġbar b
Ġtow ing
Ġaccident ally
Ġindividual s
Ġdisplay ed
Ġpud ding
Ġchedd ar
in ct
Ġth ie
Ġli nda
Ġun organized
it o
Ġexperien cing
Ġhard er
Ġseason al
is hes
Ġy onge
Ġsal ted
Ġtri ple
Ġphys ically
Ġwell ness
ber g
cu its
Ġbrow se
y on
ad s
Ġbl an
Ġcount less
Ġstri ps
Ġchef s
Ġstun ning
Ġp int
Ġh its
Ġmiss issauga
Ġadmin ist
Ġpar ad
Ġpump kin
Ġspac es
m ate
Ġhe m
im ents
Ġco aches
Ġcr amped
Ġrem ark
Ġasse mb
g l
in is
Ġr ave
ch ool
Ġcon temp
Ġdrive way
Ġroll ing
Ġham burger
Ġbrother s
Ġsignific antly
Ġhaird ress
ic ted
Ġover s
Ġpo ison
Ġmis le
Ġpeace ful
Ġpe e
Ġye ll
Ġbow ling
Ġsort s
Ġautom otive
ly n
ust om
Ġex it
Ġch ow
ig ent
Ġfun eral
Ġvine gar
Ġgood ies
pect ive
Ġj un
Ġdes ire
bb ie
Ġi v
Ġto ler
Ġcar n
Ġdentist ry
Ġguid ance
d og
r ane
ks ha
Ġstar ving
het to
Ġfortun ate
Ġhe ather
Ġch os
Ġwater y
Ġg ather
ri a
Ġlo vers
Ġch or
bb ing
Ġant ib
Ġsus pect
Ġk o
Ġjust in
Ġst er
Ġcar ried
Ġcou ches
Ġmar ia
Ġben ed
Ġt ack
Ġland lord
Ġdec iding
Ġdemean or
Ġthe r
Ġc c
Ġg m
Ġinvest ment
Ġmetho d
Ġdanger ous
it al
Ġst all
Ġam anda
Ġsatisf y
Ġhospit ality
gi ving
g u
Ġme in
Ġca ve
Ġcry stal
Ġbist ro
b i
Ġk icked
Ġsh orter
the ir
Ġstar ter
Ġpound s
Ġcle ared
Ġblow ing
Ġtoy ota
Ġed ges
Ġvalu able
Ġe ve
Ġshow room
Ġtell er
ut ed
Ġguess ing
Ġsca le
Ġcous in
Ġp iano
Ġsw ing
Ġinqu ired
Ġdisp os
Ġfact or
Ġdiagn ose
Ġinqu ire
Ġrat ings
Ġd ying
Ġg am
Ġsol ar
Ġproce ed
Ġcig ar
Ġu gh
Ġk it
Ġma gn
Ġsha ve
Ġcomput ers
Ġnar row
d ie
f all
he w
Ġfor k
Ġbu zz
Ġplac ing
Ġschool s
Ġob t
Ġgrand mother
Ġg hetto
gg ie
Ġmat h
Ġpet er
Ġfurn ace
Ġarg uing
Ġde mo
Ġshe l
ate red
Ġv ale
Ġtend ers
od ont
Ġincorrect ly
Ġpill ows
Ġbarg ain
Ġrav i
Ġpass en
Ġgener ic
Ġpersonal ized
Ġprogram s
inte rest
m ith
Ġmo on
Ġh unt
Ġsta ple
Ġsee k
Ġcarol ina
Ġquesad illa
Ġadd s
Ġbuild ings
Ġrain bow
Ġc ad
it ter
Ġti ff
Ġcar ries
Ġachie ve
c key
Ġt ay
Ġmar c
Ġsur v
Ġcomm ission
Ġhor se
Ġaccount s
Ġintern ational
Ġantib iot
d ro
Ġhe n
Ġpat ch
Ġsw iss
Ġcu rious
Ġt id
Ġwhe at
Ġbr ace
Ġprin ci
Ġbis cuits
Ġcigaret te
g en
Ġa venue
Ġy u
Ġfri lls
Ġextra ord
Ġenter prise
Ġru in
Ġback ed
Ġdis pen
Ġmed iter
Ġqual ified
Ġestim ates
Ġw atered
Ġshow ers
Ġadv is
a ign
Ġin ten
Ġout fit
Ġun if
Ġexpl ore
Ġind ic
Ġbrown s
Ġcamer as
Ġconsum er
Ġcarr ots
Ġover p
Ġpregn ancy
Ġs om
Ġb ored
al es
Ġcl ut
Ġwo ke
Ġtrans ition
ir t
Ġsu ng
we ar
Ġfix t
Ġcheese burger
Ġsol ve
Ġele gant
e en
Ġadd ict
Ġdeli vers
Ġthri ft
yan i
Ġinten se
r ay
Ġf ulf
Ġl aura
Ġbro ad
Ġcommun icated
Ġshar p
Ġpil ates
rane an
d ies
hen sive
Ġgroom ed
Ġsaving s
Ġsav ory
Ġchees es
Ġb ik
Ġp itc
Ġre ct
Ġst roll
Ġm ig
Ġwill i
Ġhor rend
Ġrad i
Ġcontain ers
Ġenthusi astic
Ġchos en
Ġp ile
oo ps
Ġover he
Ġflaw less
Ġch uck
Ġfil ip
Ġtap as
Ġa unt
Ġv ra
Ġclo ses
m all
Ġbo ston
Ġinst it
Ġimp l
Ġeng aging
Ġur ban
b ought
c het
Ġg ta
Ġwh im
Ġr ushing
um my
Ġcompet itors
Ġuns ure
Ġmeasure ments
Ġsquee ze
Ġthreat ened
Ġacupunct ure
Ġt at
Ġsub ject
Ġow ed
t op
ing ton
Ġy ay
Ġnic ole
Ġjul ie
Ġbened ict
Ġo d
ien ced
Ġmar in
Ġmus cles
Ġstre ets
Ġpan cake
Ġtrim med
Ġestim ated
Ġmediter ranean
Ġsl iders
Ġmor nings
Ġdet er
Ġear n
Ġtemp orary
e er
Ġc reme
Ġv ast
Ġcou n
Ġrefer ring
Ġkno cked
Ġcomb ined
Ġhawai ian
Ġcutic les
is ha
Ġde e
Ġsl ide
Ġcheer ful
b oy
Ġha ul
Ġup town
Ġcould nt
ag le
iz o
Ġpur ple
Ġcre pes
Ġconne ction
Ġcan yon
Ġtoo l
Ġfin ance
Ġmar ri
Ġbit ch
Ġfo am
Ġloud ly
Ġarg u
Ġd ata
ri al
ag ues
Ġcha i
Ġdin ners
Ġb ond
Ġpar m
Ġbother ing
Ġarg ued
Ġwh it
Ġsu e
Ġch unk
Ġbr aces
Ġsha kes
Ġamong st
Ġchamp agne
Ġg ab
Ġopen s
Ġinspect ed
Ġbrid ge
le cted
Ġre nter
Ġse ars
Ġbr ad
Ġsince rely
Ġbread s
Ġtext s
Ġclear ance
Ġmargar itas
Ġa aa
Ġs illy
Ġre hab
Ġdoes nt
Ġmod er
Ġparad ise
Ġp t
Ġd er
Ġg own
at ient
ar on
Ġh ors
Ġde mon
Ġli l
Ġdi verse
Ġdecor ations
Ġpad s
Ġstrugg ling
Ġthread ing
Ġdisappe ared
Ġro d
Ġunder ne
Ġant ique
Ġlock er
Ġincre ased
b et
Ġf usion
Ġb orn
Ġl ing
Ġinst ru
Ġexp ed
j i
ic ier
Ġro ots
Ġbl amed
Ġemplo y
Ġmush y
Ġvide os
Ġlead ing
pp ies
Ġsa mo
Ġreview ing
Ġappa rent
Ġopp osed
Ġtor n
Ġcomment ed
Ġdeterm ined
Ġunderne ath
Ġand y
oo king
Ġli ar
Ġsha ped
ump y
Ġp ou
Ġun p
Ġcl ips
Ġdi ff
Ġpart ial
rif ied
Ġrasp berry
ent al
Ġcontin u
Ġlea f
Ġdemand ed
b or
n on
Ġst ained
et he
lo ad
Ġwa nder
Ġim age
Ġsto ve
Ġpan ini
Ġvo d
Ġvac c
Ġsun ny
Ġrele ase
u v
Ġcon ference
Ġunderstand able
Ġrandom ly
Ġd m
Ġval ent
Ġbrow sing
Ġkill er
Ġchor izo
Ġs ant
Ġf ade
ed ible
Ġso d
Ġje an
Ġs ang
Ġcan ned
ach i
Ġtay lor
Ġst icking
if ying
Ġconsider ation
Ġboard ing
Ġomelet te
Ġcostum er
Ġd uct
Ġch ronic
Ġspo iled
Ġsatur days
Ġult imate
Ġoverchar ged
Ġcoord in
Ġha ted
Ġv iny
Ġsweet s
Ġvir t
Ġhorrend ous
u el
Ġpl ent
ous y
Ġlack s
Ġbrand on
Ġaud io
Ġrest rooms
Ġnon ethe
j un
s c
z one
Ġti pped
ul ent
il ant
Ġar ch
Ġcare er
Ġho ckey
Ġunder whel
Ġste er
no x
Ġrot i
Ġais le
Ġnonethe less
Ġm ut
Ġch ipped
Ġunderstand s
Ġtre ad
Ġult ras
Ġsoc cer
Ġg rap
Ġbut cher
Ġdisc onne
Ġstick er
Ġm t
ar ound
Ġfl ash
up s
Ġhor ribly
Ġswitch ing
Ġa ka
pe l
Ġcomfort ing
Ġspr ings
Ġpan el
Ġstraw berries
su ch
Ġfight ing
Ġflu id
Ġplent iful
Ġf uss
Ġal f
Ġfriend liness
Ġro ss
to day
Ġmax im
Ġconcl usion
ag ram
Ġmil ksha
Ġp red
Ġsk imp
Ġint ended
Ġsouth west
Ġut ter
Ġrough ly
Ġcelebr ate
Ġultras ound
Ġn er
Ġbac hel
Ġeurope an
Ġf ucking
Ġdelay ed
Ġpharmac ist
Ġsh itty
ind er
Ġdis e
Ġess ential
com es
Ġwa ke
Ġcust ard
Ġrent als
Ġprep ar
Ġpest o
Ġdar n
Ġappeal ing
am i
Ġob lig
Ġbul k
i ors
s hip
Ġreci pe
Ġa id
Ġinst agram
Ġsto le
Ġmot el
Ġreb u
Ġg ee
Ġon s
Ġfriend liest
Ġmus sels
Ġcap able
Ġlandsca pe
i pping
Ġd un
Ġg ain
Ġall ergy
Ġv ary
Ġpract ition
Ġmark ham
Ġsubm itted
Ġip ad
Ġvod ka
Ġinstall ers
Ġbure au
Ġravi oli
Ġand re
Ġp ist
Ġpl ug
Ġr ule
app ro
Ġris otto
Ġw il
Ġse an
Ġr oo
Ġup beat
Ġfl our
Ġlist ing
Ġthom as
Ġb iz
se qu
Ġmo cha
Ġag ed
cle an
Ġcorn ers
Ġrecogn ize
Ġexpen se
Ġvale t
om g
Ġres erve
Ġho ly
Ġinv ited
Ġchocol ates
Ġprec ise
e ch
Ġit aly
Ġsc rap
Ġsl im
Ġopt omet
Ġmat the
Ġdetail ing
Ġfilip ino
Ġha irsty
Ġcont ent
no c
Ġprep aring
Ġexist ent
Ġchemical s
g ment
u ri
Ġ ll
Ġr ail
Ġpro ps
Ġjer ry
Ġoccur red
Ġlif estyle
g ie
Ġk aren
Ġsu p
Ġpack aged
Ġresol ution
Ġburn ing
Ġwont on
Ġcapp ucc
Ġg ou
Ġwh ipped
Ġcig ars
Ġin edible
Ġsh y
Ġro s
Ġpack ing
Ġprescri bed
Ġfashion ed
Ġre ly
Ġbon ne
Ġremodel ed
Ġnutr ition
Ġl ink
Ġad ore
Ġsit es
y l
Ġin k
ay a
Ġimp act
li fe
Ġbrown ie
Ġfinan cing
Ġt ir
Ġw ig
Ġp itch
um bers
Ġlas ag
Ġdist ur
Ġarr ay
Ġprote ction
Ġs ans
ian s
Ġfun ky
Ġpriv acy
Ġcircumst ances
Ġma ker
Ġper cent
Ġunbeliev ably
Ġs ed
Ġapp les
Ġcl u
xt reme
Ġarri ves
Ġrequest ing
Ġeng aged
Ġassist ants
Ġfool ed
Ġtransport ation
Ġdefect ive
re g
Ġup coming
Ġmatch ing
Ġlic ensed
Ġautom atically
Ġcri min
it ude
Ġr az
Ġpe u
iet ies
Ġdeliver ing
Ġric hard
Ġcarr ot
as hes
Ġst ool
Ġr acks
Ġpr ay
Ġun eth
Ġdou b
Ġbless ed
en a
Ġti e
Ġher s
Ġd ash
se l
Ġta gs
Ġmat cha
Ġlight ly
Ġb order
Ġg ates
Ġre ward
Ġfour th
ens ion
Ġsweet ness
Ġbon es
Ġblue berry
Ġjer sey
Ġscri pt
p al
Ġd erm
Ġbe ats
st ery
Ġli ghter
Ġser ies
Ġsu v
Ġman icures
Ġbl vd
Ġpic nic
Ġpier cing
Ġp uff
Ġtr ails
Ġpick le
Ġban king
Ġhall way
Ġjump ed
Ġclu eless
Ġt ina
Ġp oured
est ed
Ġwa ist
Ġhome own
for med
Ġcarry ing
Ġoper ate
Ġwis dom
Ġw ore
Ġli ber
Ġsp ar
Ġsing ing
Ġapolog ies
Ġben ch
Ġrede em
Ġtong ue
ch o
Ġpr icy
Ġstaff s
Ġwonder fully
Ġsit s
Ġthanks giving
Ġhy pe
Ġcl oth
Ġmas se
Ġdev ice
Ġgrac ious
Ġpitc her
Ġmiss ion
Ġsell er
Ġpres chool
Ġmult i
Ġst ones
ir ation
Ġche st
Ġche ers
um s
Ġlar ry
Ġform al
Ġscrat ches
Ġfr ag
be ware
Ġroof ing
Ġloyal ty
Ġrenov ation
Ġath let
Ġtiff any
Ġn ons
Ġpe as
Ġlot ion
Ġenjoy s
Ġcal ming
Ġgrand ma
Ġblood y
Ġinvest ig
Ġbasket ball
Ġrom antic
Ġlasag na
Ġkn ife
ra is
Ġob nox
Ġpl ays
Ġval ued
Ġcart s
Ġspeed y
Ġmedic ations
Ġpip es
lend ale
Ġfrost ing
r ain
Ġha n
Ġend ing
Ġbas ics
Ġban ks
Ġdealership s
Ġst ad
st ar
Ġse es
Ġpret zel
Ġval ve
Ġrem ain
Ġavo ided
Ġnav igate
e es
Ġa uss
Ġbe ard
Ġart work
Ġimag ined
Ġcommit ment
Ġl un
Ġl ousy
Ġcool ing
Ġwax ed
Ġuneth ical
Ġc ilant
Ġy uck
Ġcomple ment
Ġtal ks
Ġsus an
Ġrud est
Ġreimbur se
Ġg lendale
it z
Ġup sell
Ġta i
Ġgl ue
Ġwash room
Ġclaim ing
Ġsung lasses
w all
Ġg noc
Ġh itting
Ġloc ate
Ġrec ie
Ġmean while
Ġmail ed
Ġnecess arily
nd ered
Ġha ts
Ġrec over
Ġplan e
Ġscr amb
Ġtreas ure
Ġcilant ro
Ġh ilar
Ġr ides
Ġbefore hand
Ġcolle ctions
Ġrat io
Ġtoss ed
Ġille gal
n i
Ġhold s
Ġlu gg
Ġdiagnost ic
Ġl ent
Ġh v
Ġcor d
Ġblo or
Ġtax i
Ġles lie
la im
Ġattract ive
Ġorth odont
Ġc d
en cies
Ġcomp ress
Ġfl ip
Ġinsp ired
at own
Ġca pit
Ġord inary
Ġconsider ate
Ġattemp ting
Ġmart ini
Ġchamp aign
Ġjala pe
d is
Ġre med
and er
Ġdef i
Ġresched uled
l ished
Ġso cks
Ġal tered
Ġapp s
Ġinst ant
Ġhusband s
Ġamount s
Ġsuns et
Ġso aked
Ġk ios
est e
ci a
Ġsty ling
Ġpunct ual
m bers
Ġti les
Ġinc ome
Ġend less
wor king
Ġstad ium
Ġa qu
fe rences
Ġdec ade
Ġcour ts
Ġann ou
Ġfire place
Ġn i
Ġg ay
Ġr um
act ions
Ġsl ip
Ġyelp ers
Ġkim chi
Ġdevelop ed
Ġco le
be aut
Ġfa j
Ġpatr ick
Ġtremend ous
Ġpoison ing
az e
Ġaccommod ated
Ġestablish ments
c ra
f o
ha nds
or ation
as is
Ġh ike
Ġcan s
ag ger
Ġbr itt
Ġfresh ness
Ġvar ieties
Ġrenov ations
Ġp ac
Ġgu ided
Ġdam ages
Ġsol ved
Ġmir acle
b ab
Ġc ush
Ġe agle
Ġli z
Ġca jun
Ġcr ooked
Ġfac ing
Ġfre ak
Ġdeterm ine
Ġhairdress er
Ġn ative
Ġal as
Ġrep s
Ġcomm itted
Ġart ic
Ġdiscus sing
h igh
re ne
Ġm oo
Ġpre ference
Ġcoffe es
Ġtour ist
Ġencour aged
Ġk ale
Ġk fc
Ġres idence
Ġsummer lin
Ġstrong er
Ġdeser ved
Ġobs ess
Ġlugg age
h onest
k n
Ġp anda
Ġresult ed
Ġincons istent
Ġde pt
Ġfree zing
Ġnu gg
Ġr ab
Ġpick led
Ġdra gon
Ġcree py
Ġf red
Ġca ul
Ġel ite
Ġconf usion
Ġconv ince
Ġcompens ation
Ġfet a
u ries
Ġa aron
Ġm ri
Ġre action
Ġst ro
Ġj azz
Ġcha l
Ġsuper market
for d
Ġsign age
Ġcond iments
Ġdou g
Ġje lly
Ġten nis
Ġrac hel
Ġpin ch
Ġdefi antly
m t
ant e
Ġdin ers
Ġsub par
Ġkat ie
Ġle x
Ġres ist
Ġpat ties
Ġstar ing
Ġbott led
Ġfa uc
Ġsitu ations
Ġba it
Ġfat ty
wal k
Ġm g
Ġtail or
Ġgyro s
Ġimm ac
Ġw ound
Ġexpect ation
Ġdiss atisfied
Ġaspect s
Ġadvent ure
Ġoccup ied
Ġalf red
Ġgnoc chi
p ut
Ġsu ites
Ġkn ots
Ġsince re
Ġact s
Ġbe a
Ġst rand
ore t
Ġal ert
Ġsc oot
Ġmar inated
Ġacc ent
Ġconsist ed
Ġdrug s
Ġscrat ched
an as
Ġcr ooks
Ġass ure
Ġred uced
Ġlea ks
Ġcover ing
Ġspray ed
Ġmotor cy
Ġjudge ment
Ġbarbers hop
e al
Ġl ap
Ġca fet
act ory
Ġplay ers
Ġmas ala
Ġchrist ian
Ġelect ron
Ġwip ed
acha ble
Ġdemon str
r ics
w ater
re my
Ġpret entious
Ġproce eds
Ġtrou bles
Ġindust rial
Ġanx ious
Ġc ough
Ġgreat er
Ġfun ctional
Ġappet ite
Ġpra ise
beaut iful
Ġo x
Ġoil s
Ġbis c
Ġvel vet
Ġha llow
Ġinte ll
Ġfran cis
Ġir ish
Ġnur sing
Ġcrit ic
Ġl uc
Ġapp alled
Ġmat s
pa rent
Ġrelie ved
Ġsoooo o
Ġrud eness
Ġfund s
Ġmisle ading
a id
d ate
v l
Ġont ario
Ġscal p
f un
i ven
ci er
Ġpa pa
Ġspeak er
Ġpump s
Ġwood en
Ġbase ball
i ge
Ġt ent
Ġange les
Ġlocks mith
Ġdestro yed
Ġha bit
an ne
Ġr ug
Ġsa ms
Ġsurround ed
Ġfarm ers
v ision
Ġb our
Ġin appro
am is
Ġdefin ately
in er
Ġby e
Ġpa ired
Ġvar i
Ġaud ience
en er
ie ux
Ġhealth care
Ġbatter ies
Ġhist or
Ġw y
Ġf ave
Ġb ass
Ġas ha
ore s
Ġwor ries
il ton
Ġhome work
Ġtow er
Ġbal con
Ġtid y
Ġus a
lle y
Ġremodel ing
Ġprepar ation
in um
Ġp ant
Ġd ye
Ġl ame
ir ty
Ġr uss
Ġcar ib
Ġpe ach
Ġbu cket
Ġfree way
Ġdra g
Ġallerg ic
Ġvib es
Ġall ey
Ġdefin ite
Ġret ired
Ġimprove ments
p oint
Ġa im
Ġyour s
te en
Ġext ras
Ġstor m
Ġpu zz
Ġsuff ering
Ġcy cle
Ġd unk
Ġan na
Ġma p
Ġcent ury
Ġcolle agues
Ġrac ist
l ines
Ġd rew
le ep
Ġman ners
ak en
Ġaccom od
char ge
Ġvra iment
Ġhilar ious
ul ated
Ġserv icing
pe lled
Ġint ent
Ġbud s
Ġprint s
Ġp oo
Ġre n
Ġcontin uing
Ġappro val
Ġbrew ery
Ġcom ic
Ġpro x
Ġsha wn
Ġuse ful
Ġrefund s
Ġpal m
Ġinconven ient
Ġdiv ine
Ġn v
lo in
ra v
Ġref illed
Ġrespon ses
Ġmeas ured
in al
Ġpa wn
Ġreal ty
Ġflavor less
Ġbri lli
att le
Ġwat ers
Ġdepend able
Ġsex y
Ġignor ant
Ġhairsty list
Ġf en
Ġbo iled
Ġopt im
ced es
Ġcard board
Ġchin atown
Ġpu ppies
Ġskew ers
Ġhv ac
Ġhallow een
is se
Ġsh r
Ġend roit
be ll
Ġsweet est
Ġoccas ional
Ġcafet eria
e ll
Ġa le
Ġlo go
Ġthan ked
Ġsc or
Ġimp atient
Ġais les
Ġassess ment
Ġw re
re c
Ġbe comes
Ġher bs
Ġemp has
Ġinstruct ed
Ġsmell ing
Ġut ens
Ġdre ams
Ġinj uries
b orough
Ġcra ve
Ġmom s
Ġdan cers
Ġble eding
Ġcappucc ino
Ġc ind
Ġbread ed
Ġboard s
Ġtir amis
Ġa j
Ġco d
Ġdra wn
Ġep ic
Ġasha med
Ġl amp
Ġex agger
Ġho se
Ġsho ppers
Ġspr int
Ġign oring
Ġfail ure
Ġt l
Ġa ffect
Ġch im
pt on
ple ase
Ġmeet ings
Ġviny l
Ġn ancy
Ġthem ed
Ġsp as
Ġhar sh
mm ing
Ġur ine
Ġfurther more
Ġdepend s
Ġfle w
our s
av oid
Ġref in
Ġtechn ical
Ġflor al
Ġsurf ace
Ġdise ase
Ġc ass
Ġk yle
Ġfrid ays
Ġcoo per
Ġalfred o
Ġs ac
Ġo t
Ġm ud
Ġd are
Ġste re
Ġhair s
Ġest hetician
Ġbir yani
Ġcigaret tes
Ġtiramis u
h n
Ġl att
Ġso ot
Ġsta ples
Ġsar c
re r
pe ople
Ġhalf way
Ġplay er
Ġshoot ing
Ġmemor ial
Ġo asis
Ġk illed
art s
Ġdis comfort
Ġexper ts
Ġexp osed
Ġsaus ages
Ġseve rely
Ġnons ense
Ġobnox ious
Ġt es
Ġli v
Ġdis ab
Ġgr ub
Ġpop s
Ġsus p
Ġmuff in
Ġmuff ins
k o
Ġa fr
Ġf er
Ġhe els
Ġas leep
pe red
Ġen er
be an
Ġthought s
aw ful
Ġreme mbers
Ġjohn ny
Ġb ould
Ġm cc
ow ed
ats u
Ġtour s
Ġbutter y
Ġauss i
e xtreme
Ġg ast
al ed
Ġpain s
Ġmer cedes
Ġdie go
Ġcoll ision
Ġprox im
Ġdo z
Ġsu cc
Ġpr ot
Ġcon ver
Ġcomp re
Ġdry ing
Ġmod els
Ġheart y
Ġmechan ical
n uts
u a
en n
Ġg est
st ate
Ġal ber
Ġwould nt
Ġback s
ud ge
Ġpre cious
Ġprod uction
Ġdan ny
Ġjala pen
Ġre in
Ġde bbie
Ġsim pl
Ġtouch ing
Ġdiffic ulty
Ġembarrass ing
Ġlan es
Ġe c
Ġprov iders
Ġpass port
wor ks
Ġcop ies
fr om
Ġdiscuss ion
Ġcate g
Ġu h
Ġr x
qu is
Ġatt ack
Ġopin ions
Ġenchil adas
b ag
Ġi ls
Ġre ference
Ġse ctions
Ġho ag
Ġste ering
Ġdress er
Ġce v
Ġrand y
b re
Ġj et
Ġtre k
Ġwin ner
Ġbeha lf
Ġjam ie
Ġvict oria
h s
Ġvisit ors
Ġsl ot
Ġdep th
Ġspeak ers
Ġmex ico
Ġdelight ed
Ġinex per
Ġment al
e z
u u
Ġth ro
Ġpro pri
Ġgood will
Ġdisc our
Ġsurpr ises
Ġfort une
Ġthreat ening
Ġsubst ant
Ġpers pective
Ġo un
Ġc iv
Ġn est
Ġne p
Ġk athy
Ġr h
Ġr ag
Ġdis ag
ian a
Ġfound ation
Ġred one
Ġbeh old
Ġinspect or
Ġsuff er
fin ally
Ġbird s
Ġdm v
Ġye a
br id
Ġafr ican
ter y
Ġam ber
lo sed
Ġcustom ize
Ġdi ab
Ġact ions
Ġbox ing
Ġrecogn ized
a way
Ġjo kes
Ġdel ux
Ġhar ris
up date
Ġgra pe
Ġraz or
Ġt ed
Ġc ities
ot ch
Ġh ib
Ġdec ades
Ġhor ror
Ġblo cked
Ġreceipt s
Ġargu ment
d id
Ġe b
Ġe ffic
et er
Ġlay ing
Ġcroiss ants
Ġtermin al
Ġdoz ens
ag us
ien cy
Ġsty lish
Ġsecond ly
Ġquestion able
Ġesc al
Ġeyel ash
Ġutens ils
Ġb ake
Ġst ink
ter ing
Ġsh ine
Ġpar ks
Ġsl ab
extreme ly
d ings
w ould
Ġc act
us hes
Ġsh ru
Ġloo p
Ġho ll
Ġcontract ed
Ġsafe ly
Ġoper ating
Ġprin ter
Ġbrilli ant
v i
Ġm ills
ke l
Ġca ution
Ġma id
Ġdis gr
um ble
Ġclean est
Ġhand les
Ġed it
Ġcop s
Ġwat ches
Ġrot ation
Ġresident ial
Ġacade my
Ġhe ro
Ġpay ed
Ġdro ps
Ġje remy
Ġfall en
Ġelect ronic
Ġautom atic
Ġchees este
ha ul
Ġn iss
Ġlou is
Ġer rors
Ġcate red
n els
ur d
Ġsh iny
Ġcomp on
Ġsal v
Ġbr am
Ġcons cious
Ġsty led
Ġfa it
Ġhum id
Ġcand les
Ġproxim ity
Ġn iece
Ġg ap
Ġab und
mp t
ne ys
Ġtot s
Ġcal ories
Ġeffort s
Ġsuc ce
Ġrequire ments
Ġtex ting
Ġcrit ical
Ġtruff le
s ion
ar ies
id ently
Ġte e
Ġcar rier
Ġspeci ally
an i
Ġal ive
Ġcom me
ie lle
Ġwell s
Ġban gs
Ġsqu id
Ġscar borough
Ġpip ing
iven ess
Ġt ut
Ġn ation
Ġde ar
res pon
Ġjust ify
Ġeven ings
Ġbr ook
for ce
Ġextraord inary
Ġwater ing
Ġsou vl
Ġener getic
Ġr ou
Ġquick er
Ġdin ed
Ġrespond ing
Ġlead s
Ġdig ital
Ġgall on
Ġblend ed
m ers
y a
Ġs q
Ġj r
Ġdef ensive
Ġins ight
Ġob ject
Ġchat ted
Ġbum mer
b uy
Ġa ce
Ġfl ies
Ġdifferent ly
Ġpast e
Ġele ment
Ġgroom ers
Ġmattress es
Ġtrack ing
orm ous
Ġseal ed
Ġstruct ure
Ġt ux
Ġmon ro
Ġread s
Ġupd ating
Ġassoci ated
vis ited
Ġcommunic ating
Ġcav ities
c ou
w a
Ġbe g
Ġco ats
Ġemp an
Ġdisc ri
Ġpass es
Ġschedul es
Ġinspect ions
Ġded ication
board s
Ġdevelop ment
Ġanticip ated
Ġlaure n
Ġtread m
ason able
Ġincompet ence
Ġso ph
Ġch ile
be ing
cha ir
Ġcrowd s
Ġa k
le te
Ġre ve
Ġpoint ing
de fin
Ġmas k
Ġhip ster
Ġcombin ations
chet ta
m al
st icks
Ġheav ily
Ġmart in
Ġdisp ute
b ro
b ye
i pp
ast e
Ġspe ech
Ġbar n
Ġport ug
Ġsumm ary
Ġcock ro
Ġinappro priate
in ity
ir y
Ġcart e
every thing
Ġb als
Ġph x
Ġequ al
Ġbegin ner
Ġball oons
Ġring ing
mb re
Ġdy nam
Ġderm ato
Ġdelux e
Ġniss an
Ġor al
Ġpr icier
ick y
ag ers
Ġar row
Ġcharl ie
Ġlift ing
Ġso ak
Ġrec y
bur g
Ġsupple ments
t z
Ġun ited
Ġclean ings
Ġhouse hold
Ġacc used
Ġhead aches
Ġdry wall
Ġseem ingly
Ġbot ox
Ġy ar
Ġsm iled
Ġim ages
sa fe
ok ay
Ġbalcon y
Ġcind y
Ġsouvl aki
r ated
Ġg aming
Ġat l
Ġcom edy
Ġcomb os
re l
Ġst ack
me al
Ġco co
Ġle ague
Ġlar gest
Ġshort s
Ġsw i
Ġrid ge
Ġoct op
Ġsquee zed
Ġsole ly
Ġdiscri min
h u
Ġun in
Ġlu be
Ġseam less
Ġcul inary
Ġt z
Ġs igh
Ġac ne
Ġassist ing
Ġcolle ague
Ġbull sh
Ġhawai i
Ġpassen ger
Ġkios k
c ute
p ark
il ty
Ġro ses
Ġri m
Ġgr ain
Ġclose ly
Ġpack aging
Ġvar ied
cons in
Ġbe e
Ġgo vern
Ġoff ended
Ġfact s
Ġcontin ually
Ġpan era
Ġtrad ition
Ġwis consin
d ra
Ġn ik
Ġat ro
ch ini
Ġwa ve
Ġdi pped
Ġfill s
Ġrem ains
a ult
Ġp ages
Ġas par
Ġdec ently
Ġcost ing
Ġregist ered
l an
Ġp ak
Ġh ust
am ent
Ġsp iced
Ġmanag ing
uc ing
Ġz uc
ph ones
Ġver b
Ġsister s
Ġtra um
Ġvers us
Ġdiss ap
Ġbarbe cue
Ġd c
Ġta nd
Ġrec come
Ġter ry
Ġrepair ing
Ġdisconne cted
reg ard
Ġoctop us
Ġb ound
Ġcha pel
Ġbarist as
Ġaspar agus
i i
Ġsc ience
Ġturn around
cle ctic
Ġrese arched
Ġmag ical
mar ily
Ġinj ured
Ġsuff ered
Ġgun s
Ġexecut ed
defin itely
m ble
Ġs ip
Ġe ll
Ġso ci
Ġpro ved
Ġgood bye
Ġgr out
Ġind ul
Ġnotice able
Ġconc ord
Ġvent ure
Ġcosmet ic
Ġpsy ch
Ġli ars
Ġfl aky
Ġref uses
Ġlet ters
Ġstar ters
Ġturn over
og i
Ġpack s
Ġcounter s
Ġfa ulty
Ġconv ention
Ġveter an
Ġcit iz
Ġpractition er
c ustom
m ic
ou l
Ġl ined
ck ets
Ġpo pe
Ġbo l
Ġcare less
Ġrem ained
Ġdon ate
Ġcompet itor
li ft
Ġregist ration
Ġjes us
rec ently
is c
Ġtw e
Ġno vel
Ġqu art
Ġfeel ings
Ġret ire
Ġwed dings
Ġran ging
Ġhur ting
Ġdesper ately
Ġabs urd
Ġpeel ing
Ġk al
Ġaw ard
Ġroom mate
Ġpar is
Ġmot ion
Ġperfor ming
Ġtur f
Ġult ra
Ġintrod uce
Ġvit am
Ġarc ade
Ġadvis or
Ġdunk in
Ġreccome nd
Ġe clectic
Ġgra bbing
Ġange la
Ġbent o
Ġcrimin al
r als
Ġha y
Ġpri marily
Ġsn ap
Ġpet e
Ġdispl ays
Ġmir rors
Ġtact ics
high ly
l ast
Ġj ones
Ġsta re
Ġfin est
Ġshan non
Ġcompress or
Ġbals amic
b ad
Ġb in
ar ms
Ġj aw
Ġk itty
Ġsu is
ther n
Ġhot dog
Ġeas iest
Ġter r
Ġtrans l
Ġtrans actions
Ġequ ipped
Ġoptomet rist
Ġimmac ulate
Ġo at
Ġsu fficient
Ġcor ned
Ġrel ig
Ġremind er
Ġev ident
Ġelectr ician
Ġinsane ly
Ġreass ured
Ġantibiot ics
c r
ay ed
et y
Ġj ill
Ġac qu
Ġbl at
itc hes
Ġver m
Ġant i
Ġmotiv ated
Ġaccompan ied
z ard
Ġan k
Ġle ash
Ġun safe
Ġph oned
Ġdel ays
Ġcolor ing
Ġdist rib
Ġsafe way
Ġmr s
Ġbless ing
Ġb io
Ġme gan
Ġmo de
Ġcomple tion
Ġsho cking
Ġgr ay
Ġneg lected
Ġpan eer
i ri
i ving
Ġbe ck
Ġthere s
el ine
Ġcl am
Ġbr un
ign on
Ġbook store
Ġreception ists
Ġwin ning
ho st
Ġrock y
Ġregister s
Ġsens or
Ġoffic er
Ġexcess ive
Ġal b
Ġfl ights
Ġfo is
Ġsubm it
Ġhort ons
Ġmarin ara
Ġliber ty
Ġmasse use
Ġfrancis co
Ġzuc chini
Ġag g
Ġdr am
Ġcreat ivity
Ġclim bing
Ġremark able
i ppers
Ġex otic
Ġch ops
Ġins ulting
Ġadd icted
Ġstri ke
Ġdist inct
Ġadm ission
Ġbell a
Ġjud gment
Ġinexper ienced
un fortun
Ġjo king
Ġke ith
Ġbelie ved
Ġpet it
Ġid i
Ġra ved
Ġchrist ina
war m
Ġaltern atives
Ġflex ibility
Ġflor ida
n ced
Ġwas hes
Ġk er
Ġen han
Ġdep ress
Ġchiropract ors
a ved
Ġd or
Ġtr an
Ġcar l
Ġdef ense
Ġprocess ing
Ġskin ny
Ġvan cou
Ġload s
Ġber ry
Ġrubber y
Ġintimid ating
Ġelectron ics
u an
Ġw ard
Ġal to
Ġsa una
ab i
Ġdel icate
Ġper mission
Ġinst ance
Ġret ain
Ġweek days
Ġjen ny
Ġpill ow
Ġmars ha
Ġco bb
ra pe
Ġret ro
Ġsmall est
Ġwarm ly
Ġfore ign
Ġheart beat
Ġscam med
Ġang ie
Ġprof ile
Ġpist ach
Ġvancou ver
re y
Ġbe et
Ġke bab
Ġsha ll
Ġdan ielle
Ġer in
li able
Ġaccept ing
keep ing
Ġlatt es
l ong
s y
at han
Ġres et
Ġlast s
Ġdri pping
Ġpick s
Ġhon ored
Ġda wn
Ġstr ate
Ġstick ers
Ġconsult ant
Ġbro ker
bur gers
Ġev idence
Ġpal ace
Ġbram pton
Ġf ails
Ġen ro
for ward
Ġcent ers
Ġken nel
kn own
Ġatro cious
f ty
Ġn ute
Ġj ord
Ġcr acks
Ġpret end
Ġfo x
Ġlow es
Ġhang out
Ġtrave led
Ġur ge
Ġupgr ades
Ġunw el
p oor
Ġb ib
Ġl ave
st ick
Ġti kka
Ġk a
Ġben ches
Ġtend s
Ġcelebr ation
Ġhous ing
Ġcoordin ator
Ġcact us
z o
Ġi e
Ġh ilton
Ġcom pelled
qu es
Ġsp ine
Ġrelax ation
Ġincor por
c al
s ince
Ġg a
ct or
Ġk ens
Ġout f
Ġbr u
ap y
Ġyear ly
Ġchild hood
Ġsamp led
Ġlen g
Ġcand le
Ġunw illing
Ġunre asonable
Ġj a
Ġsp it
Ġappro achable
Ġmart ial
Ġcolour s
Ġcar los
Ġdr ank
ol is
Ġapolog izing
Ġfixt ures
Ġidi ots
s he
Ġn our
Ġtr acy
Ġwait staff
Ġsc iss
Ġhu h
Ġgen ius
Ġart ific
Ġrefer rals
Ġtan ks
ict ion
Ġvolunte ers
Ġsne ak
Ġcott on
Ġscramb led
unfortun ately
Ġnute lla
Ġsu nda
Ġneed le
Ġbo om
ott a
Ġsub ur
Ġart ich
Ġeduc ate
Ġques o
Ġvirt ually
c s
Ġnot ify
ge e
Ġhome y
Ġt so
Ġg ained
Ġme ets
Ġatt ic
Ġdri ves
Ġsho pper
Ġsweet heart
Ġbuild er
Ġmain s
Ġpan els
Ġmail box
wal ked
Ġtrick y
interest ed
Ġbisc uit
Ġscor p
Ġp om
Ġcame l
Ġvis a
Ġsand y
Ġmist aken
Ġbuff ets
Ġhum ble
Ġreci pes
Ġbullsh it
r us
Ġal be
ite ment
io ca
Ġval ues
olog ist
Ġcount ing
br is
Ġstraight forward
Ġinject ions
Ġandre a
Ġc ried
Ġwe ed
Ġun imp
Ġins ert
Ġel im
Ġadop ted
w ith
Ġha b
Ġin nov
Ġhe ights
Ġne ur
Ġnew est
Ġcr am
Ġposs ess
Ġblo om
pri ately
Ġrich mond
Ġtele phone
Ġmagaz ine
Ġsoot hing
c ase
Ġa x
Ġc er
ir l
Ġdo dge
Ġjust ice
Ġsta red
Ġsl ush
Ġtu be
Ġwhis key
honest ly
Ġd ill
ll er
Ġre aching
Ġas u
Ġli mp
Ġfollow s
Ġmix t
Ġestab lished
Ġheaven ly
c ont
Ġle m
Ġreal izing
Ġhor rific
de cent
Ġce il
Ġtan g
Ġradi ator
Ġmotorcy cle
Ġf itted
ot y
ac o
Ġbr as
Ġgu ilty
Ġstr ing
Ġdon na
Ġexam s
Ġclin ics
Ġeth ics
Ġfed ex
Ġpup s
Ġsubstit ute
Ġcontemp orary
Ġm ous
Ġpo ckets
Ġdis regard
um es
Ġac id
ple te
Ġem ily
Ġappreci ation
che ck
Ġdom in
Ġsteal ing
Ġbutt ons
v ant
Ġs ara
Ġban h
Ġtan gy
Ġunif orm
Ġsamo sas
Ġmonro e
ist a
Ġpre f
Ġdry ers
Ġsub tle
ific ations
Ġstrugg le
Ġther most
Ġn it
Ġl akes
Ġr otten
Ġcom ics
Ġup side
Ġcost ume
Ġnor thern
Ġfac ed
Ġcolor ful
Ġtou ches
Ġsqu ash
Ġden ny
Ġsepar ately
Ġsan it
Ġmagaz ines
Ġoverp ower
Ġbour bon
Ġgovern ment
Ġtr icks
Ġye p
are st
Ġinv is
Ġmis under
Ġceil ings
Ġis nt
et t
Ġde bris
ess a
Ġfr action
Ġtr unk
Ġcar bon
Ġext end
Ġcons ignment
Ġtap ioca
Ġmill er
hh h
Ġsilver ware
Ġdil ig
Ġslam med
Ġdisab led
Ġd ingy
ice lli
Ġsh ipment
Ġapp rais
Ġcustom ized
Ġbre ed
Ġret rie
Ġgr as
Ġdet e
Ġmc d
Ġteen agers
Ġemot ional
Ġkens ington
m un
s is
s im
Ġe h
Ġtr ays
Ġsha king
Ġsatisf actory
Ġpen n
Ġlead ers
Ġgirlfriend s
Ġcheeseste ak
Ġin ner
Ġth irty
al though
ct ure
Ġdis like
Ġdi es
Ġsc he
Ġrest oration
Ġpres ident
Ġneck l
Ġhandy man
Ġthro at
Ġg host
Ġl ord
al og
Ġtime line
Ġro ber
Ġpol ished
Ġmont r
Ġgrow th
Ġapply ing
Ġsang ria
Ġagg rav
r ician
s l
Ġm am
Ġm im
Ġyou th
Ġk ent
Ġtr av
op ed
Ġun real
Ġpe oria
Ġold s
Ġgl ance
Ġmar ie
Ġfix es
Ġcomm and
Ġz ip
Ġtour nam
Ġdemand ing
Ġcrown s
Ġoffic ial
Ġoffic ially
Ġdiab et
Ġhib achi
custom er
Ġex quis
act ive
ab eth
Ġsc at
Ġbr it
Ġvisit or
Ġdri p
Ġim per
Ġsend s
Ġjam a
Ġqual it
Ġwashing ton
Ġbridesma ids
Ġf art
Ġwe igh
Ġr in
Ġfl aming
Ġbr uce
Ġinf ant
Ġtam my
Ġcontinu ously
Ġobsess ed
ac ent
Ġbat ch
Ġlaw rence
Ġtues days
Ġblan ket
Ġp ha
Ġk iss
Ġab rupt
Ġcomp aring
Ġwait s
Ġcha d
Ġunder ground
Ġste ven
Ġartist ic
Ġperfection ist
Ġfauc et
v ia
it i
Ġspecial ists
Ġgr umpy
Ġind ia
Ġlow e
Ġavoid ing
Ġsil k
Ġeth ic
Ġshan e
Ġbubb les
Ġstran gers
Ġunderwhel ming
o cc
Ġg in
Ġne ut
Ġprom ising
Ġmind s
Ġscrew s
Ġconfront ed
o f
ou p
Ġp ills
Ġst amp
Ġan aly
ass y
Ġdel ic
Ġpot entially
Ġmove ment
Ġchrist ine
Ġwheel chair
Ġluke warm
Ġcarib bean
Ġalbe it
Ġl ori
it os
Ġha tes
Ġover fl
Ġmention ing
Ġspend s
Ġflat bread
Ġjump ing
Ġms g
Ġcapit al
Ġnugg ets
Ġd vd
Ġst iff
ace y
Ġgo ss
Ġv iv
Ġwr ist
pr int
Ġtrust ing
Ġchallen ges
Ġbone less
Ġpean uts
Ġverm icelli
Ġalto gether
Ġc es
Ġe lle
Ġli ps
Ġcan n
um ing
Ġgre ets
Ġpol it
Ġbread ing
Ġmother s
Ġball oon
Ġextens ion
Ġmacar oni
Ġeater y
Ġresour ce
c ling
on ly
Ġro y
Ġtim er
Ġsl iding
Ġpost s
Ġfly er
Ġmicrow aved
Ġoverchar ge
Ġwire less
Ġwond ered
Ġsup reme
l ava
w ord
Ġbe lle
ig hed
Ġbr ushed
Ġdown right
Ġcat fish
Ġeffect s
Ġchill i
Ġspark ling
Ġinsult ed
Ġmarri ott
Ġeffic iency
g ia
i ffe
Ġam ate
ch y
Ġwhat s
Ġen ormous
Ġpour ing
Ġven ues
Ġautom ated
Ġaccompl ish
Ġre e
al th
Ġpo pping
Ġunt r
Ġfish y
Ġcri me
Ġgrap hic
Ġartific ial
z els
Ġj acks
Ġk inks
Ġma z
Ġrem ar
Ġexist ed
Ġdiv or
Ġsod as
Ġa ux
Ġl id
Ġel iz
Ġhand made
Ġgl owing
Ġjack ets
oret te
Ġsusp icious
y o
Ġback wards
Ġneed les
if l
Ġfil es
Ġbak er
Ġfeat ured
Ġfaj itas
Ġoat meal
d dy
u ity
x x
re ts
Ġref using
Ġprod uced
Ġreass uring
e lla
Ġm d
Ġme ad
Ġsp illed
os es
Ġcont rib
Ġsk i
Ġcomplim ented
Ġdust y
Ġfif teen
Ġhors es
Ġcev iche
Ġa er
ha ving
Ġus er
Ġna ked
mel on
Ġdisag ree
l ar
y ers
Ġho bby
iss ions
Ġsew ing
Ġmetho ds
Ġnep hew
m ates
se c
Ġserv ings
Ġco ating
Ġpart ners
Ġhand ic
Ġpet ite
Ġrespond s
Ġaccording ly
Ġeth ical
Ġsno b
v as
Ġwhere ver
ider ate
Ġopportun ities
Ġurg ency
Ġunf air
Ġjord an
v a
Ġfr ites
Ġv ot
Ġco aching
we ed
Ġar oma
Ġbl t
Ġcant on
Ġbreat hing
every one
Ġvict im
Ġbrus chetta
Ġhal ib
Ġmixt ure
Ġth ier
Ġca ge
Ġcl ip
Ġwalk er
Ġban anas
Ġslow er
Ġfa ire
Ġboo ze
ho le
Ġoverl ooked
Ġkab ob
Ġsarc astic
Ġpl ugs
Ġlo af
Ġman ic
Ġri g
Ġdri zz
Ġty ler
Ġflo ating
Ġsub sequ
Ġsw ap
Ġwash rooms
Ġimpro ving
Ġteen age
Ġvir gin
Ġcraig s
u ese
Ġan ne
ate ment
Ġv om
Ġany how
int on
Ġri pping
umb ling
cre am
Ġfu rious
Ġincons iderate
Ġcru ise
Ġreloc ated
s mall
Ġf as
Ġin put
Ġr ugs
own s
Ġchar les
Ġmar ble
Ġside walk
Ġsmo g
Ġpan ic
Ġcontract s
ow ered
Ġne arest
se e
ru it
Ġut most
Ġeduc ational
Ġresour ces
Ġhalib ut
z zy
Ġar th
Ġchan nel
Ġtell ers
Ġsha des
Ġwar med
Ġteam s
Ġz en
Ġtail ored
Ġtand oor
b ird
he ll
Ġv w
Ġclass room
Ġtrans form
Ġview ing
Ġhur ts
Ġpets mart
ram i
Ġpediat rician
Ġobt ain
Ġbritt any
w y
Ġdo ggie
Ġpl ague
Ġfood ie
com mun
gg er
Ġass et
Ġsk ate
Ġju ke
Ġbal d
Ġquar ters
Ġod or
Ġbachel orette
Ġt ension
Ġd ense
Ġde m
Ġal ike
Ġad j
je ction
Ġbra ised
Ġge ms
ik a
Ġresearch ing
Ġauthor ized
Ġcompens ate
Ġrust ic
Ġassemb ly
Ġrect ify
Ġb ing
ha l
Ġab use
Ġbo ld
Ġmon itor
Ġvict or
Ġpam pered
Ġstool s
Ġintell igent
Ġleng thy
Ġthermost at
t u
Ġa hold
Ġw oo
Ġm ama
on ia
Ġj um
Ġpo ker
Ġro ach
Ġfl ush
Ġcur ds
Ġtour ists
Ġaud i
Ġill ness
Ġbum med
Ġcostum es
Ġeyel ashes
Ġspar se
Ġportug uese
ood le
Ġqu ir
Ġdr astic
Ġred uce
Ġwarm er
ret te
Ġbak lava
Ġcross ed
Ġcap acity
Ġcub an
Ġcontr ast
Ġcaul ifl
Ġverb ally
Ġs care
Ġl ump
Ġk ate
Ġv ents
Ġrest rict
Ġpret zels
Ġap r
Ġdisappoint s
let te
Ġer rand
Ġunre liable
Ġecon omy
in arian
Ġn om
Ġg amb
Ġca ffe
Ġte qu
Ġafter ward
Ġmon it
Ġcompan ion
Ġfil ters
Ġheart s
Ġbrew s
Ġmeant ime
Ġau ction
Ġimm ense
Ġenthusi asm
Ġpor ch
Ġpistach io
Ġcraigs list
i pper
p o
en ces
Ġth umb
Ġk ris
ven ir
Ġord eal
Ġcar b
Ġexce ll
Ġbur st
Ġfar go
Ġinterest s
Ġload ing
Ġsuccess fully
Ġeliz abeth
r ick
Ġb icy
ic ia
Ġan est
Ġpl ats
Ġcl er
ĠĠĠĠ ĠĠĠĠĠ
ye ar
Ġmar i
Ġexc itement
Ġgar n
Ġexam ination
Ġhost s
Ġconc ent
Ġuns atisfied
Ġtar o
Ġfield s
Ġcoll ar
Ġmilksha ke
Ġlex us
n at
w ho
Ġg ord
Ġpart ially
Ġchar ger
Ġsurger ies
Ġround s
Ġreluct antly
g us
Ġp ens
Ġk ung
ca p
Ġste pping
Ġnum b
Ġmind ed
Ġnail ed
Ġjewel er
Ġdump ling
Ġoutf its
k ets
n c
Ġl ining
Ġcl ay
Ġwater melon
Ġinform ing
Ġsle pt
Ġra ising
Ġreport s
Ġoverhe ard
Ġcaulifl ower
Ġb aking
Ġto b
Ġon going
Ġk et
be c
Ġsha d
Ġhouse keeping
Ġgr its
ather ine
Ġnic kel
gre g
Ġstrugg led
Ġveter inarian
Ġrev ol
Ġscoot er
Ġre ne
Ġhe ight
ur ist
ad ia
Ġr ant
Ġspecial izes
Ġcreat es
Ġbegin ners
Ġsamp ler
asm ine
Ġlabel ed
Ġsams ung
Ġh oo
est ic
Ġdr ama
Ġsk irt
Ġblo nd
Ġreport ing
Ġhun ting
Ġcoun se
Ġvalent ine
as hing
Ġde an
ch ing
ud ed
Ġdi ane
Ġri be
Ġgl am
over all
Ġtack y
Ġrenter s
Ġw iring
Ġd ick
Ġab and
Ġher b
Ġbl izz
Ġpat tern
Ġob st
Ġsqu ir
Ġsport ing
Ġoy ster
Ġremote ly
Ġbrace let
her s
Ġkn ees
Ġsm h
Ġpar fa
Ġsk ipped
Ġappro priately
Ġcraving s
Ġplat inum
Ġident ified
Ġthie ves
Ġn ig
Ġex ists
Ġca ut
Ġwal nut
Ġjap an
ste in
Ġarch ite
c ul
Ġle ge
Ġlast ing
Ġbegin s
Ġaest het
c il
c ided
Ġi mo
Ġf udge
Ġb ind
ha w
mp l
Ġro bbed
Ġcomple ting
ub s
Ġroll er
Ġlack l
Ġint rig
Ġmaint aining
rit ure
Ġcav ity
Ġparticip ate
Ġgoss ip
p ha
Ġm gr
Ġm ignon
Ġshe s
Ġfriend lier
Ġbo bby
Ġchar ity
Ġref lex
Ġcance lling
Ġver ified
Ġlaund rom
Ġident ify
b ic
Ġp ul
Ġg ina
Ġti ed
Ġri ms
Ġbl ows
Ġiss ued
Ġbag u
Ġsteak house
ph y
Ġra ving
Ġjud ging
Ġaud acity
Ġcatch ing
Ġincre asing
Ġeth nic
Ġperman ently
Ġdismiss ive
Ġdistract ed
Ġse eds
Ġcomp rom
lo aded
Ġher tz
Ġair line
Ġart is
Ġprep aid
Ġslow est
Ġblank ets
r an
Ġthe ft
Ġb day
Ġb orrow
ed ly
Ġg ps
Ġl av
Ġh ong
Ġli ver
Ġall en
Ġcl ick
Ġfo ster
Ġworth less
Ġmail s
Ġbrew ed
Ġstretch ing
Ġnewb orn
Ġgather ing
Ġbould er
Ġoun ce
b ably
all ing
Ġsmo ky
Ġint end
Ġble ach
zz i
Ġsucce ed
ro p
ce l
Ġsu ited
Ġro bin
Ġdown s
Ġcont ained
Ġold est
Ġopen er
Ġrun ny
Ġbed rooms
Ġunderst atement
Ġtart ar
Ġelev ators
beat able
Ġslee ve
Ġdeduct ible
Ġwas abi
al d
Ġst ingy
Ġpast rami
Ġju an
Ġtre nd
Ġbank rupt
Ġhy dr
Ġinteract ed
Ġlam ps
Ġvolunte er
Ġjes se
Ġadj acent
Ġt res
oo o
Ġst am
out standing
Ġche at
Ġun known
Ġdis ci
Ġind iffe
Ġstre am
Ġboo st
Ġden nis
Ġens ured
Ġtoile ts
Ġinfl u
Ġlun ches
Ġexquis ite
c ool
i ver
r ude
Ġb ully
Ġd ull
ut es
Ġshe d
Ġcon cess
Ġco x
Ġcho ix
Ġter rified
Ġpost er
Ġlat ter
Ġthick er
Ġsea weed
rid ge
Ġprec ision
Ġtremend ously
w in
in c
at hered
Ġbe loved
Ġstaff ing
Ġhard wood
Ġmeat y
Ġappre hensive
Ġed die
Ġdeep ly
ili ated
Ġwra pping
Ġmacar ons
Ġcarn itas
Ġwander ing
Ġw ww
Ġcon cier
Ġun beatable
Ġcl ams
Ġbra vo
Ġlat in
Ġoverd ue
Ġstran ger
Ġreluct ant
Ġyar n
c ur
Ġh ud
ome nd
app ing
Ġappreci ative
Ġbou nce
Ġhi king
Ġprin cess
Ġdispos al
Ġank le
Ġoverpower ing
il it
Ġcost ly
Ġdan g
Ġdeliver ies
Ġvib rant
Ġrap id
Ġexhaust ed
Ġinterrupt ed
Ġremed y
b es
Ġa ffe
Ġi ke
it an
Ġab ilities
Ġta vern
Ġoff s
Ġres id
Ġemp athy
Ġreg ional
Ġgre edy
Ġreal istic
Ġpleas ing
Ġbat tered
Ġlive ly
Ġrespect ed
Ġround ed
Ġcow boy
Ġrehe ated
Ġsubstant ial
Ġth y
Ġsc oops
Ġcool est
Ġce real
Ġsn apped
Ġwebs ites
Ġteac hes
Ġpriv ile
Ġgard ens
Ġcapt ured
Ġexecut ive
Ġutter ly
r ings
Ġ ^
Ġno stal
Ġun be
Ġun app
Ġbar rier
izz a
Ġopt ical
Ġcol on
Ġtom my
Ġgrand e
ho ot
Ġoper ator
Ġentertain ed
Ġsuit able
Ġexecut ion
Ġpear l
Ġexcl us
Ġs not
Ġm m
Ġm unch
Ġnot ary
Ġdi vers
Ġwi res
Ġfavour ites
Ġens uring
Ġwilli ams
Ġtandoor i
Ġt uc
ar in
Ġaw e
Ġlong est
ub en
Ġscre am
Ġden ise
Ġspl ash
Ġconfir ming
Ġcapt ure
Ġore o
Ġstrict ly
Ġsurv ive
Ġchal k
Ġre ject
Ġpo nd
Ġbr yan
Ġav ons
Ġsmo key
Ġsuggest ing
Ġconst ruct
Ġdraw er
Ġalcohol ic
Ġtart are
Ġwis hes
Ġselect ing
Ġgrat uity
Ġrebu ild
Ġtai w
Ġpac ific
f ather
Ġc i
Ġst acked
Ġu don
Ġgood year
Ġdown fall
Ġsha ck
pro bably
Ġcount ed
Ġaccompl ished
Ġholly wood
Ġgest ure
Ġribe ye
w ide
ha ra
Ġsome place
ig an
Ġsal sas
pl an
Ġhand ing
Ġsho ddy
Ġseason s
Ġinf ested
Ġappet izing
Ġrecord ing
Ġutil ize
Ġpropri et
Ġnour riture
Ġb ins
Ġj ane
Ġpre ferences
Ġfab rics
Ġhid ing
Ġfeed ing
Ġenchil ada
Ġmaxim um
Ġshru gged
r ays
Ġh d
Ġj asmine
Ġde bt
Ġvis ual
be cca
Ġleft over
Ġsha ving
Ġhygien e
Ġecon om
Ġrecie ved
Ġmy stery
ie ces
Ġby ob
ab or
Ġchar t
Ġdisc ont
Ġban ner
not hing
Ġtun ed
Ġsepar ated
Ġvacuum ed
ival ent
Ġdismiss ed
Ġbridesma id
Ġinstru ment
Ġcanton ese
Ġt in
it is
Ġk ir
Ġv ague
Ġdr own
Ġhis pan
Ġhar m
Ġflo at
Ġmis commun
Ġvent il
t ops
v an
Ġd ot
Ġg ang
Ġj amb
Ġlo ft
Ġplace ment
Ġch owder
Ġmo ndays
az ed
Ġmon ica
Ġmanag es
Ġadv oc
Ġmus ical
Ġneg lig
Ġdesign ers
Ġinit i
Ġbrown ies
Ġhall ways
Ġesc ort
Ġcutic le
Ġshel ter
at z
Ġti pping
Ġfr aming
Ġcha let
Ġrec omend
Ġswe ep
Ġcompet e
Ġmas ters
Ġjack ie
Ġjewel ers
Ġland ed
Ġeb ay
e ment
l ights
Ġg als
Ġre verse
Ġnot icing
Ġsa int
Ġpro ven
Ġman ual
Ġcr ushed
Ġdri ll
Ġpast as
Ġsuck er
Ġveter inary
Ġspir its
Ġacrylic s
d os
o e
Ġa ust
Ġk ong
Ġk its
our se
Ġco pper
Ġma ki
Ġsp otted
Ġjo ining
Ġrun ner
Ġstud ying
Ġimport ance
Ġtechn ically
Ġspl ur
Ġsan itary
Ġons ite
Ġdivor ce
Ġf ir
Ġl c
Ġhe el
ad os
Ġk atsu
Ġpe op
Ġro le
Ġbr on
Ġcut est
Ġsur pass
Ġfre ed
Ġhy und
Ġdark er
Ġupset ting
Ġir rig
Ġinvest ed
Ġprem ises
Ġnegoti ate
Ġflood ed
Ġempan adas
Ġcamel back
Ġtequ ila
Ġconcier ge
p ot
Ġb om
Ġse attle
ul pt
Ġco ated
Ġpo le
Ġsign al
Ġgri pe
Ġwilling ness
Ġamerican o
Ġcraft ed
Ġtreas ures
Ġjon athan
Ġsciss ors
t able
w hy
Ġha zard
Ġwith dra
Ġse ed
Ġk i
Ġshe p
Ġpa le
Ġpic o
Ġnat han
Ġver de
Ġodd ly
Ġlake wood
Ġtart s
Ġb ord
ar re
ur cha
Ġwh ip
Ġpe p
Ġro de
Ġtri mming
Ġsto cking
Ġsent ence
Ġele ments
att entive
Ġlaw yers
Ġhospit able
Ġdesert s
Ġmile age
Ġbul g
Ġphotographer s
Ġruss ian
c hat
ri r
ur ous
Ġme rely
ci ent
ile y
Ġwr ink
Ġcomfort ably
Ġpract icing
Ġdump ster
Ġbreat he
Ġdom ino
Ġdiamond s
Ġsew er
los ure
Ġjohns on
m ike
Ġm op
Ġha zel
Ġwe eds
Ġse ared
Ġmo j
Ġcha os
Ġatt ent
Ġcontin ental
Ġmot ors
tw o
Ġpromot ions
Ġdisci pl
Ġs ust
or se
ac les
Ġr ye
qu ick
Ġlo ans
pl ed
Ġmar io
Ġsales people
Ġstr uck
aw are
Ġear rings
Ġmount ed
Ġsav our
Ġrealt ors
Ġbis que
Ġq t
Ġadminist r
Ġcler ks
p izza
u gged
Ġme ille
Ġj j
Ġsu z
art en
ci ut
Ġstore front
Ġsur vey
Ġeas ter
Ġemplo yed
Ġbat tle
Ġfig uring
Ġnat al
Ġrepres ented
Ġdig ging
Ġbul bs
Ġtint ed
Ġmotiv ating
Ġsant a
Ġenro lled
Ġexcell ence
Ġm ash
le e
id i
Ġal an
Ġta o
Ġco des
rou s
os ing
Ġpa ws
Ġfail ing
Ġcop ay
Ġblow out
Ġcand id
Ġexhib it
Ġbarre l
o bs
ge ons
Ġwa ndered
Ġpo ses
Ġref le
Ġkind erg
Ġsou venir
Ġconf lic
Ġhit ch
hh hh
Ġclim b
Ġtuc son
in ations
an ie
Ġj ake
Ġmon te
Ġbu nd
Ġfres hest
Ġcons erv
Ġpur ses
Ġfree ze
Ġswe ater
Ġguess ed
Ġintern al
Ġchallen ged
Ġjose ph
Ġcali ber
Ġcaut ious
Ġa ld
ou st
Ġp es
Ġp iz
Ġn urs
Ġdo s
Ġde er
Ġup hol
Ġres ulting
Ġsk im
Ġtrans formed
Ġdecor ation
Ġdon ation
Ġrecord ed
Ġpil ot
Ġadmitted ly
Ġtrop ical
Ġwilli am
Ġhyund ai
b u
j ours
Ġd v
Ġre uben
Ġun i
Ġpo llo
Ġcour ty
Ġexp iration
Ġaccount ability
Ġeffect ively
Ġrele ased
Ġrenew al
Ġtele vision
Ġevalu ation
Ġmatthe w
Ġhomeown er
Ġhoag ie
Ġlackl uster
Ġc ider
Ġn ord
Ġst ub
Ġv ina
Ġcon es
Ġle ur
Ġnever the
Ġfo ie
Ġexam ined
Ġposit ives
Ġsoft ware
Ġprem ier
Ġinqu iry
Ġpros ciut
Ġattor neys
fo am
Ġpeop les
Ġirrig ation
Ġneverthe less
h ot
l ery
Ġi pa
Ġm ong
Ġre op
Ġbe es
Ġpe can
Ġmar g
for th
Ġdin ning
Ġsupp er
Ġprom o
Ġsun r
Ġshut ters
Ġbul b
Ġassort ed
Ġdocument ation
Ġfulf ill
n it
r um
Ġsa ves
Ġca lend
im m
Ġrecom mand
Ġbo lt
Ġexpl oring
Ġcreat ions
Ġmer chan
Ġdev ices
Ġobs c
iff y
Ġcurt ains
Ġgradu ation
Ġfif th
Ġdisgr ace
Ġhe ctic
il ia
Ġtr ap
Ġsc ulpt
Ġver bal
Ġhost ing
Ġlab els
Ġdump ed
Ġburn s
Ġaltern ator
Ġlegit imate
Ġscall op
Ġcrafts manship
Ġstrand ed
Ġmous se
Ġhispan ic
Ġl inks
Ġre act
Ġh omet
aint ed
Ġcur ries
Ġaccount ing
Ġenc ore
Ġid k
Ġpers ian
Ġcompre hensive
i our
Ġl one
an other
ar u
pp e
Ġbl iss
Ġtre nds
Ġstate ments
ee ee
Ġretail er
Ġmars h
Ġclar ify
Ġthie f
Ġjalapen o
Ġcateg ory
g as
Ġdan a
Ġcrack ers
Ġinteract ions
Ġbulg ogi
Ġvina ig
u rious
Ġs hat
Ġc ine
Ġl ender
Ġad a
Ġbus ier
Ġrest ored
Ġho list
Ġent it
Ġcal zone
Ġbath t
Ġlou ng
Ġque bec
Ġpen ne
Ġpatron ize
Ġfunction ing
Ġner ves
Ġdistur bing
Ġartich oke
b id
f ra
t ot
ha i
st rom
Ġcon gr
ous es
Ġste ady
Ġmat ches
Ġcur ls
Ġair y
Ġpost ers
Ġconcer ning
Ġpract ical
Ġequ ivalent
ath on
Ġpier ced
Ġconsum ers
Ġsunda e
Ġlaundrom at
Ġprosciut to
w ash
Ġb os
Ġp iled
ad or
Ġcl ark
Ġsc ent
Ġar om
Ġright s
Ġperson s
Ġfill er
Ġmess ing
Ġpot s
Ġint ake
Ġkill ing
Ġtl c
Ġmaz da
Ġn an
Ġu haul
Ġsc ru
Ġbo ast
ott i
Ġaccom p
Ġx rays
Ġhos p
Ġdead line
Ġcommunic ations
Ġalter ation
Ġdissap ointed
Ġike a
as se
Ġnot re
al thy
Ġv ic
Ġwho les
Ġen e
Ġgl ow
Ġbreak down
Ġtou jours
Ġrot ors
ĠĠĠĠĠĠĠĠĠĠĠĠĠĠĠĠĠĠĠĠĠĠĠĠĠĠĠĠĠĠĠĠ ĠĠĠĠĠĠĠĠĠĠĠĠĠĠĠĠĠĠĠĠĠĠĠĠĠĠĠĠĠĠĠĠ
Ġmand arin
Ġjac u
Ġinstru ments
Ġcompon ents
Ġsoci ety
ar ium
ad ays
ff in
fter s
Ġpe ep
Ġcounter tops
Ġlea ked
Ġtemp s
Ġhistor ic
Ġstere o
nd on
Ġf ant
Ġbe nd
Ġh ic
Ġh mm
Ġr ue
Ġapp ointed
Ġnow adays
ol ine
Ġwed ges
Ġdan forth
Ġauthor ity
Ġcit rus
Ġhen ry
Ġfart her
c ings
g rap
r un
le ast
Ġh mmm
Ġde le
av ail
ak er
Ġdec line
Ġke e
Ġconsist s
Ġbran ches
Ġqual ify
Ġment ally
Ġreflex ology
an cing
st ep
Ġcon gee
Ġqu el
Ġover head
Ġdi ana
be e
Ġneg atives
Ġsil ence
Ġoutdo ors
Ġadvent urous
mat ched
Ġstall s
h ops
w r
Ġd udes
ag n
Ġad s
Ġjo ey
Ġsur g
ren ched
Ġsupp lier
Ġcur b
Ġhold er
Ġlab s
Ġcourt ney
Ġlock ers
Ġboun cer
Ġbiz arre
Ġaccomod ating
Ġhomet own
Ġw ha
Ġs f
Ġre becca
Ġca uses
Ġmon ster
Ġhor rid
gr own
ls on
Ġz oo
Ġinf used
Ġcirc uit
Ġsurround ings
Ġobs erved
Ġvoicem ails
Ġhal al
Ġflaming o
Ġmiscommun ication
Ġdec re
Ġban quet
Ġsitu ated
Ġexam ples
Ġbal ay
Ġmark ets
Ġge or
Ġprogress ive
Ġintimid ated
at ures
Ġst an
Ġne on
Ġat least
Ġche vy
Ġun avail
Ġrel atives
Ġbox ed
Ġsor bet
Ġindivid ually
Ġrepresent atives
Ġlux urious
Ġdil igent
Ġmand atory
Ġchi pping
ser iously
Ġcoin c
Ġvinaig rette
er o
Ġl or
Ġal i
Ġwor ship
Ġret our
Ġav id
Ġemplo yer
Ġposs ibility
Ġyoung est
Ġtemp ted
Ġtur k
Ġyard s
Ġrip off
Ġdough nuts
Ġexe mpl
Ġextract ion
Ġcran berry
Ġwond ers
Ġmoder ate
Ġmim os
Ġdiscont in
Ġene my
Ġt j
Ġo c
Ġh k
Ġnew sp
Ġbr ule
Ġtri o
Ġind ication
Ġcool ant
Ġsy nt
Ġru ining
Ġbehav iour
Ġadminist ration
Ġclut ch
Ġg au
Ġun aware
iss erie
Ġsty ro
Ġwo k
Ġmod est
Ġfurn ishing
Ġsmell y
Ġhy p
Ġwre ck
Ġjama ican
Ġli nd
Ġaw a
Ġrest ur
Ġda le
Ġice berg
Ġcat ers
Ġhost ed
Ġcorn bread
Ġdraw ing
Ġcand ies
Ġdom estic
Ġflu ids
Ġly nn
Ġphysician s
Ġaest hetician
Ġstroll er
Ġneckl ace
Ġcourty ard
Ġscru mpt
he ast
Ġf aded
Ġso aking
Ġcha p
Ġar ug
Ġins ulation
uc oup
Ġhost ile
Ġforget ting
Ġrepresent ation
Ġadvertise ment
Ġinfl ated
Ġindic ating
d an
l ied
Ġto st
it ly
Ġth igh
ur st
Ġare na
Ġk y
Ġk ia
Ġshe er
Ġdec ad
Ġhapp iness
Ġlunch time
Ġcance ling
Ġscam mers
Ġrain y
Ġlift ed
Ġsprink ler
Ġhort on
Ġimpl ant
Ġinnov ative
Ġhosp ice
Ġstyro foam
n ity
re am
Ġe co
ion ed
Ġma ids
Ġoff ensive
Ġche v
Ġche ated
Ġdr um
other apy
Ġheal ed
Ġbud dies
Ġimpress ions
Ġsett ings
Ġlave nder
Ġamate ur
Ġunavail able
Ġc us
Ġd und
Ġg ated
Ġj us
Ġsa f
Ġte ens
Ġreg ion
Ġbreak er
Ġline up
Ġtrans parent
Ġlim its
Ġrefres h
Ġgoog led
Ġreimbur sed
Ġtrav is
b orn
Ġs ally
ut ing
Ġdis ney
Ġbelie f
Ġcorpor ation
Ġarrow head
Ġterr ace
Ġscat tered
Ġerrand s
Ġexclus ively
u ous
Ġf id
ar o
Ġy i
Ġh ue
im a
Ġen force
Ġstore d
Ġden y
Ġfed eral
Ġwasher s
Ġident ical
in ating
Ġun ass
Ġway ne
Ġcr ick
Ġmor al
Ġwarm th
Ġgift ed
Ġfraud ulent
Ġtz atz
Ġbalay age
z es
re k
re ction
Ġc s
Ġg an
Ġl g
Ġl ug
an itary
ir ts
ro se
Ġme ga
Ġj iffy
Ġout going
Ġhot t
Ġdesign ated
Ġspecif ied
Ġpal ate
Ġpier cings
Ġinteract ive
Ġveter ans
Ġrenew ed
Ġhem med
Ġmatthe ws
Ġbea ucoup
Ġsnot ty
Ġjacu zzi
e lle
g ic
Ġb ern
at i
Ġyou tu
ack ing
Ġfirst ly
os ity
Ġwhere as
Ġbas kets
Ġsand als
Ġur b
Ġobs erv
Ġprinci pal
Ġskimp y
Ġpope yes
Ġc p
Ġd renched
Ġre vis
Ġqu and
Ġsp ite
Ġins ured
Ġran go
Ġoper ations
Ġbi ased
Ġric otta
Ġirrit ating
Ġfreed om
Ġholist ic
l ene
Ġc m
ic ations
ve lo
Ġso lo
Ġr app
Ġfr amed
Ġus ps
Ġtr acks
Ġdefin ition
Ġfres her
Ġmid w
Ġpaint ings
Ġchat ty
Ġspin ning
Ġdraw back
Ġloan er
Ġdom inos
Ġment or
Ġcam per
urcha sed
Ġkinderg arten
Ġscrumpt ious
Ġdund as
Ġb ail
ing e
Ġsa hara
res pond
ved a
Ġext ent
Ġsha bby
Ġind o
og ies
Ġscre amed
Ġbank er
Ġbell s
Ġexchan ged
Ġken ny
than ks
Ġslee ves
Ġdispen s
Ġroo ft
Ġleaders hip
Ġtob ac
Ġbatht ub
Ġyoutu be
f ly
f oot
g han
g ate
Ġm ich
Ġam p
Ġsa ver
Ġpro active
ap ers
Ġav is
Ġspecial ize
Ġneg lect
Ġfore st
ino a
che e
Ġlu is
Ġtro y
Ġcharac ters
t c
Ġo xt
Ġg ently
Ġe in
Ġh ush
Ġback p
Ġfe ars
Ġbre nda
Ġpot tery
Ġemail ing
Ġcolor ado
Ġshrimp s
Ġdough y
Ġsymp ath
Ġsucc ulent
Ġarug ula
h ine
Ġw id
as a
Ġin fer
Ġj ared
Ġk icking
per ing
im b
Ġman g
Ġclo gged
Ġbri e
Ġjud y
Ġess ay
Ġunimp ressed
Ġsavour y
Ġs izz
Ġthe rape
Ġb amb
Ġpr on
Ġqu inoa
Ġgl azed
ub lic
Ġspecial ized
Ġclass ics
Ġsales men
Ġce as
Ġrem a
Ġer a
Ġvan essa
Ġgum s
Ġbust ed
Ġcub es
Ġfold ed
Ġsynt hetic
Ġtzatz iki
en ne
as ha
Ġse ctional
Ġgl itter
Ġrec reat
Ġhu g
Ġsub aru
Ġuns anitary
Ġcaes ars
Ġsupple ment
Ġwil ted
Ġanest hes
Ġtherape ut
c op
n orm
s ible
Ġl ion
ic ial
Ġha ired
Ġr mt
Ġsh ook
Ġsh isha
ud o
Ġpa w
Ġel vis
de cided
Ġprom ote
Ġaccommod ations
Ġwood s
Ġcuc umbers
Ġstun ned
Ġslim y
Ġmg m
Ġtournam ent
Ġlege nd
c or
f ruit
Ġd d
Ġwe alth
Ġst itch
Ġti er
Ġal t
Ġk ra
Ġsa u
Ġmo s
Ġover c
and o
Ġbr ut
Ġsl ides
Ġcor respond
Ġbread sticks
Ġflav oured
Ġsn ag
Ġappro ve
Ġmix ing
Ġwont ons
Ġnap kin
Ġcush ions
Ġretrie ve
re se
un ken
Ġmo i
ci entious
Ġpa vers
Ġchan nels
Ġfire stone
Ġcrust y
Ġgoo ey
Ġinsist ing
Ġhygien ists
loc ated
Ġoverl ook
Ġperm it
Ġinstit ution
Ġnig iri
inc red
nit zel
es h
ver ing
Ġan ger
Ġan ts
Ġr amp
Ġsp ider
Ġexp lo
Ġje well
Ġcelebr ating
jo hn
cl ub
Ġine pt
Ġquir ky
Ġstam ps
f ree
h l
Ġd ug
Ġu mm
Ġde ux
Ġch it
Ġjo el
Ġcons cientious
ne eded
Ġfar mer
Ġbeat en
Ġretail ers
Ġcirc us
Ġcritic ism
c ard
Ġdo se
Ġti es
Ġgo sh
Ġv u
Ġmo l
Ġpo ached
Ġdr s
Ġri o
Ġexce ed
Ġacc idents
Ġmail ing
lin er
Ġviol ation
Ġsno bby
Ġconver ted
Ġnik ki
Ġapprais al
Ġartis an
Ġpiz zer
Ġcalend ar
g io
j am
Ġc ure
Ġp ir
Ġg or
Ġme re
st ress
Ġpl umbers
Ġde lect
Ġr al
Ġca ps
Ġsp ic
ud s
Ġtaste ful
Ġread er
Ġbed ding
Ġtodd lers
Ġpurp oses
Ġexpen ses
Ġcraw l
Ġjacks on
Ġturk ish
p urchased
w ish
Ġs inks
is er
Ġso ir
se a
ry s
Ġadd ic
Ġsupport ed
Ġcontro lled
Ġbrew ing
Ġdev il
Ġkick er
Ġperform ers
Ġdisp at
Ġsecret ary
Ġexpand ed
Ġlent il
Ġdies el
v it
ro id
Ġch ore
Ġac oust
Ġdec ides
Ġbl u
Ġpat ches
Ġbel ts
Ġcur ric
Ġpersonal ities
Ġfro yo
Ġbak eries
Ġdav is
Ġbot ched
Ġinfe cted
Ġjun ior
t aking
Ġb ible
Ġh ind
Ġk os
ind a
Ġche z
and ra
Ġatt ach
Ġkid dos
ps on
ins on
Ġblo cking
Ġcollect ing
Ġfet t
Ġjuke box
Ġrefle ction
Ġe u
ar r
le en
Ġma ps
Ġrep ublic
Ġcut ter
Ġcut lery
Ġplan ner
Ġcream s
Ġson ic
Ġgri nd
cut s
Ġlab our
Ġtrad er
pa id
Ġdraw ers
Ġauthor ization
Ġdoc s
Ġpha se
Ġrema inder
v als
Ġa veda
Ġshe a
Ġv ul
Ġco z
Ġcomp ed
Ġtable t
Ġpull s
Ġattend ants
Ġlead er
Ġhomeown ers
Ġcord ial
Ġhust le
Ġket tle
Ġbagu ette
Ġaust in
r ate
Ġo ly
Ġf oul
Ġd q
le ment
Ġy up
Ġcon co
Ġfe ver
Ġapp are
Ġres ume
ple x
Ġsha pes
Ġbel g
Ġque ens
Ġrepe ating
Ġscen ery
Ġnav y
Ġinstit ute
Ġannou nce
r ad
Ġin attentive
Ġcom for
Ġv ista
Ġsc ones
ffe e
Ġmar gin
Ġsat ay
Ġhard est
Ġmeat lo
Ġsmo ker
ump tion
Ġz omb
Ġquesad illas
Ġbrief ly
Ġchunk y
Ġmoder ately
cra ft
fun ction
Ġpuzz les
Ġrooft op
w at
he y
Ġp ony
ot ed
Ġbe th
Ġsh ield
Ġpe ps
Ġpur s
Ġcor rection
Ġdon ated
Ġfre on
Ġimpro per
Ġaddress ing
Ġven et
Ġsus pen
Ġrelationship s
Ġvoucher s
Ġharass ed
Ġsir loin
Ġgig antic
Ġjum bo
Ġnurs ery
Ġunass uming
Ġtherapeut ic
p iece
Ġs s
Ġb k
ill o
Ġpa o
Ġbl aming
Ġhon our
Ġhor chat
Ġbill y
Ġred uction
Ġrem ake
Ġint uit
Ġstep hen
Ġtrave ls
Ġprote cted
Ġwednes days
Ġrac ing
Ġscan ned
Ġseam stress
Ġemot ion
Ġrebu ilt
Ġventil ation
i ant
t an
Ġs r
Ġhe fty
el ed
ol itan
Ġtint ing
Ġprotect or
Ġtruff les
Ġvap ing
Ġabund ance
Ġblat antly
Ġgamb ling
b rought
Ġf ont
Ġb log
or ms
Ġbe gging
Ġan a
Ġdo sa
Ġdo ggy
ter ns
Ġr ats
Ġno ises
lo ck
Ġun ap
Ġmore over
Ġres c
Ġper f
Ġinter se
Ġquestion ing
Ġexpert ly
Ġassemb led
Ġrestrict ions
Ġaffe cted
Ġmy ster
Ġdo l
Ġpro port
Ġchar cut
Ġsim on
Ġexp ans
Ġfur ry
Ġcrack ing
Ġinvol ve
Ġpal ms
Ġkrist en
Ġrab bit
Ġcockro aches
Ġbol ts
Ġretire ment
Ġtobac co
Ġpeps i
h ome
o za
Ġp ate
ic ans
Ġk oh
Ġli ly
Ġr ise
Ġgo dd
iz able
Ġbar k
Ġbuy s
Ġsell ers
Ġtrans it
cept ive
Ġchocol at
Ġhum ans
Ġflow ing
Ġhy per
Ġunlo ad
Ġf b
Ġd ign
Ġd yed
Ġn ort
Ġl inger
Ġin jection
Ġse ph
Ġk itt
Ġlo ndon
Ġun com
ag io
Ġad o
Ġar ise
Ġar my
Ġgr ows
Ġrequ iring
Ġinv al
pro s
Ġenv ision
Ġver d
Ġsamp ling
Ġang le
Ġjerk y
Ġlit ter
Ġthreat en
Ġteen ager
Ġaest hetic
Ġcram med
Ġentit led
Ġd ing
Ġg ag
Ġfr ys
ul um
Ġcon se
Ġman ip
Ġmo le
ix ie
Ġapp alling
ol ian
Ġrepl ies
wor th
Ġrefres hed
Ġmater nity
Ġnach o
Ġcurt ain
Ġphil os
Ġprop os
Ġbarb ara
Ġpou let
Ġborder line
Ġathlet ic
Ġdemonstr ated
Ġbrook lyn
Ġrestur ant
n et
u i
Ġt ummy
Ġs ought
Ġp end
ir able
Ġal um
Ġv ince
Ġco ins
Ġche l
Ġri bb
Ġac he
Ġsm ashed
Ġvis ibly
Ġhead phones
Ġran ges
Ġce ment
Ġir s
Ġfry er
Ġdisrespect ed
Ġexcl usive
Ġpediat ric
Ġbik ini
Ġox y
Ġliv id
Ġbicy cle
Ġindiffe rent
i op
l icious
p ical
Ġp owd
ic ient
Ġnot ification
ro be
Ġman e
Ġsc ope
Ġsc old
mm er
Ġbreakfast s
Ġfil ms
Ġcolle cted
ze ch
Ġmel ts
Ġspray ing
Ġmount ains
Ġbull et
Ġaccur ately
Ġsen iors
Ġmicro bl
Ġgrac iously
Ġcomplement ary
Ġdelect able
Ġt ous
Ġa ra
Ġb j
Ġin ac
ant ha
Ġmen s
Ġgl or
Ġla u
Ġsens it
Ġlaugh s
Ġgam ble
Ġsoph ist
Ġswi ft
Ġoverfl owing
Ġcaffe ine
Ġhic c
Ġmeatlo af
Ġphilos op
Ġw ary
Ġc atherine
ur b
st op
Ġcon vert
Ġdr unken
pl aced
Ġdiffe rences
Ġsha ron
Ġhar ry
Ġfa ux
Ġvac ant
Ġham burgers
ils on
Ġorthodont ist
y ne
Ġha gg
Ġth irsty
Ġnot ices
Ġcom mend
Ġdelicious ness
Ġhard working
Ġsand ra
Ġstuff y
Ġsn app
umb a
Ġgrand father
Ġadjust ing
Ġmag ically
Ġthurs days
Ġesc row
Ġah i
Ġdisappe ar
Ġgig g
Ġwhit ening
Ġak ron
Ġcitiz en
Ġrober to
fra me
b ooked
e ur
i ac
n th
er ving
oo ke
Ġsp am
Ġcar ri
Ġmar athon
Ġsupp lied
Ġele ven
Ġx l
Ġben ny
Ġassoci ation
Ġir respon
Ġperio ds
Ġcommunic ative
Ġneat ly
Ġpup us
Ġunlo cked
Ġreflect s
Ġll c
Ġtreadm ill
Ġblizz ard
Ġt ant
he m
Ġto x
Ġhe idi
Ġcl ippers
Ġdi ps
Ġav ait
Ġread ily
Ġbro s
Ġdra gged
Ġtap ed
Ġconne ctions
Ġtas ks
Ġcraw ling
Ġevalu ate
Ġmilksha kes
brid ge
Ġunbe ar
Ġmong olian
Ġvenet ian
b acks
Ġm l
Ġk ings
Ġr ows
ge l
Ġsh uff
Ġch ut
Ġco il
Ġcomp ares
Ġte eter
Ġbus iest
Ġent re
Ġmar vel
Ġgu ards
Ġeat ers
Ġsch nitzel
Ġbra ids
Ġclos ets
Ġquiet ly
Ġtail oring
Ġdispen ser
Ġdermato logist
Ġimmense ly
Ġsurg ical
Ġdecad ent
Ġseph ora
a ux
b ig
s or
Ġt b
Ġt s
Ġw th
Ġc ette
Ġb ids
Ġand erson
es a
Ġfor bid
et ly
Ġk itten
Ġyour selves
Ġfe ast
Ġcan vas
Ġmo ver
ig o
Ġpe ut
Ġsc ra
Ġspe ll
Ġke g
Ġsw o
Ġdan cer
Ġaccount able
Ġauthentic ity
Ġbeha ved
aa aa
nds ay
Ġast ound
Ġcel ery
Ġemploy ment
Ġwy nn
Ġadvoc ate
Ġoly mp
Ġhorchat a
o st
Ġc ured
is o
Ġth under
am iliar
Ġcr umbs
Ġhot ter
ib ilities
Ġz e
Ġdepos its
Ġgenerous ly
Ġkno cking
Ġshan g
Ġadop t
Ġartic le
Ġhab its
s ha
at os
Ġhe s
Ġcon no
Ġag encies
Ġsp ouse
Ġwo lf
Ġrem inis
oooo oooo
da ughter
Ġcry st
Ġcous ins
Ġgradu ate
Ġluc y
Ġcurric ulum
Ġswo llen
it ters
ot hered
Ġu mbre
Ġr us
est on
Ġsc otch
Ġrest ore
Ġdec ency
Ġped is
Ġfrequ ented
Ġvegetarian s
Ġinsp iring
Ġnord strom
Ġbrule e
Ġurb ana
Ġt um
Ġa ur
ant a
ist ics
Ġcar mel
Ġche e
ĠĠĠĠ Ċ
Ġclean s
Ġprice less
Ġbar king
Ġemp t
Ġgl ued
Ġind icate
Ġori ent
Ġmid west
Ġexam ine
Ġlay ered
Ġcamp ing
Ġshell s
Ġna use
Ġai oli
Ġcaramel ized
Ġfru ity
Ġbrus hes
Ġaband oned
Ġsunr ise
j ang
Ġher bal
Ġdr ained
Ġcl air
Ġcha otic
Ġper ks
Ġcheck up
Ġstuff ing
Ġcur l
Ġhope ful
Ġz ipper
Ġcount s
Ġsil ent
Ġlength s
Ġchand el
Ġassess ed
Ġunc aring
Ġunf amiliar
Ġshep her
i ries
p ir
Ġs izing
Ġha nn
al ay
ce ived
Ġmon key
Ġsm ash
Ġbl a
Ġhand bag
ss om
Ġsit ter
Ġpack et
Ġyel per
Ġcase y
Ġimport ed
Ġclub house
Ġenv y
Ġauto zone
Ġeth iop
Ġelectric ity
Ġkar ma
Ġsprink led
Ġlaws uit
Ġrehe ars
Ġscorp ions
f ull
l ake
Ġa ca
he a
ot ics
Ġfor cing
Ġcon so
Ġkn ives
Ġrecommend s
Ġact ors
Ġcol umb
Ġear l
Ġcount ries
war ning
Ġinqu iring
Ġmal t
Ġsubs cri
Ġtam ales
Ġinterrupt ing
Ġvap or
Ġfreak in
Ġw icked
Ġp d
Ġe ct
Ġwe ld
ly ing
qu ets
un ted
Ġke en
Ġact ively
Ġsl ap
Ġstr ay
Ġthin ner
Ġbag ged
Ġfre mont
Ġvo id
Ġsqu at
Ġjud ged
Ġrub y
Ġinvest igate
Ġmob ility
Ġqual ities
Ġcult ural
Ġmarsh mall
Ġinterse ction
b ra
Ġan ton
Ġsa ut
Ġle o
Ġpo se
Ġdr ool
Ġro ger
Ġspe lling
Ġban field
Ġsw all
Ġdam aging
Ġut ilities
Ġlam inate
Ġsche me
Ġbing o
Ġappare l
l ated
u kee
Ġf ights
Ġm b
Ġm ouse
Ġp av
Ġg ur
Ġli ability
ib les
Ġed am
Ġdecor ating
Ġoper ates
Ġrot ating
anda ise
Ġrose mary
Ġplant ains
Ġhun ger
Ġnav ig
Ġdee per
laim ed
dis app
Ġrin se
Ġc ort
Ġeat on
Ġinf est
wor ked
Ġannoy ance
Ġbase boards
Ġdiet ary
Ġtheat ers
Ġgrat itude
Ġexhib its
Ġec st
Ġmisunder standing
Ġparfa it
Ġfurnishing s
Ġsuspen sion
Ġcharcut erie
Ġp ushes
Ġbe ads
Ġy ol
Ġst inks
Ġu v
Ġout er
Ġsa ute
il er
Ġch illed
Ġmo e
Ġover se
Ġpe a
Ġmu g
Ġsho ved
Ġcompl ications
Ġsweet er
Ġnum bing
Ġpack ets
Ġgener ation
Ġblo ssom
Ġcharl eston
Ġant iques
mb led
Ġev ol
Ġscen ario
Ġcher yl
Ġsymp athetic
law s
Ġharass ing
Ġholl andaise
Ġuphol stery
Ġyi kes
p ress
Ġto re
Ġall er
pt ive
ard o
Ġph ill
Ġemp athetic
Ġgl aze
Ġfast est
Ġcas a
Ġaccept s
Ġwin ners
Ġdepart ments
Ġregret ted
Ġdu h
Ġcap rese
Ġenthusi ast
Ġsettle ment
Ġunexpected ly
Ġtaiw anese
Ġsplur ge
Ġintuit ive
i as
s aw
Ġw ilson
Ġm mm
at able
Ġe gl
id o
Ġco ils
ist ine
ci als
Ġper t
Ġrec on
Ġbur den
Ġste m
Ġint r
Ġmod ifications
Ġz umba
Ġtun es
Ġconsult ed
sim ply
Ġoxt ail
d led
u is
Ġr ite
Ġv est
Ġun att
Ġar by
Ġcont est
Ġsec ured
Ġgr ant
Ġtalk ative
Ġworks hop
Ġble ed
Ġcarpet ing
Ġyork ville
Ġplat ters
Ġconsum ing
Ġbump s
Ġmagn ific
Ġpref ace
Ġedam ame
d ough
r one
Ġa me
Ġm ia
us able
Ġbe aring
Ġne il
Ġout ta
Ġun se
Ġins ure
Ġpay check
Ġsuggest s
Ġavo ir
ĠĠĠĠĠĠĠĠ ĠĠ
Ġer ica
Ġba ff
Ġra is
Ġform at
Ġpen al
Ġpower ful
Ġbout iques
Ġmal function
Ġimm ig
Ġber ries
pret entious
Ġgran ola
Ġfixt ure
Ġces ar
Ġmerchan t
Ġkos her
o col
t ail
Ġa ime
Ġc t
Ġm ason
ic able
Ġwe ars
al i
Ġel bow
Ġrefund able
rif ty
Ġrot ate
Ġabs or
Ġreb ate
Ġunlo ck
Ġdread ed
Ġoverd one
Ġremar ks
Ġegl inton
Ġa ids
Ġd arts
Ġfor um
Ġst al
res h
Ġle b
ard ed
Ġsm othered
oth y
Ġbre tt
sol id
Ġsho ots
Ġswe ating
Ġcre m
Ġinv ite
Ġdou che
Ġmic hel
Ġrespect able
Ġsqu ad
Ġden ver
Ġcert ification
char ged
Ġorth oped
Ġantibiot ic
Ġredeem ing
Ġdepress ing
wat ukee
Ġb ilt
Ġp all
Ġp and
Ġwe ighed
Ġback up
Ġpr ison
Ġag r
Ġchicken s
Ġworth while
Ġet iqu
Ġdrink er
Ġdan ces
Ġgym n
Ġcat alog
Ġgrand son
rif ying
Ġsuff ice
Ġdece iving
Ġsubst ance
Ġrele vant
Ġmuff ler
Ġwip ing
Ġguit ars
Ġboun cers
Ġoak land
buy er
Ġvitam in
Ġbankrupt cy
Ġnatal ie
Ġto en
Ġl ul
Ġe lli
Ġso f
Ġtw in
Ġtw ins
Ġcle ver
Ġdef end
Ġsha m
ans w
Ġhar ley
Ġsn ake
Ġfle a
Ġmotiv ation
Ġasse z
Ġah watukee
Ġgee k
Ġinvestig ation
Ġhazel nut
Ġpizzer ia
Ġt ans
Ġa ston
Ġo o
Ġn t
Ġl ung
at ur
Ġin ability
Ġbe ets
Ġwh ist
Ġal o
th ora
Ġpr istine
Ġun for
ci o
Ġaw ards
Ġdi y
Ġdown load
Ġatt rib
Ġport ra
Ġeye g
Ġheart ed
Ġba o
Ġsort ed
Ġslight est
Ġtub es
Ġacknowledge ment
Ġstret ches
Ġathlet es
Ġbeck y
b ot
Ġt urt
Ġg love
Ġha lo
Ġfr app
Ġout ing
Ġapp ts
um n
os h
Ġfl akes
Ġper k
Ġple thora
Ġass hole
Ġbuild ers
Ġgri nding
Ġappro aching
Ġorgan ize
Ġskin care
Ġdad dy
Ġrub bed
Ġjan et
Ġrelie ve
Ġtub s
Ġfount ains
Ġfle et
Ġformer ly
Ġkar ate
Ġfrag r
parent s
Ġalber ts
Ġenhan ce
Ġward robe
Ġconno isse
Ġetiqu ette
Ġf oo
Ġha vent
Ġst amped
Ġli ndsay
Ġout right
Ġbr ack
Ġbo log
Ġsuper v
Ġsn ark
Ġleg ally
Ġsound ing
Ġtail s
Ġdig est
Ġexplan ations
Ġsac rif
Ġprot ocol
Ġconserv ative
Ġw ool
Ġta ps
Ġun pretentious
Ġref urb
be aring
Ġgrand daughter
Ġrepresent ing
Ġjul ia
Ġos car
Ġoverl ooking
Ġunif orms
Ġreimburse ment
Ġtran qu
Ġdilig ence
Ġintrig ued
Ġprivile ge
answ ered
a ire
Ġthe ory
Ġo ce
Ġc ors
it age
Ġis ol
Ġin se
Ġk or
lo se
Ġcan e
Ġclean up
Ġfl ats
Ġpain ters
ret t
Ġsour dough
Ġemerg encies
Ġland ing
Ġkim ber
Ġvent ured
Ġlin ens
Ġresto cking
Ġsubur ban
imb ap
Ġbamb oo
Ġcryst als
f ind
k k
l ook
p ers
Ġo ops
Ġg imm
ot es
ur ring
Ġj ail
Ġr ink
Ġcl oud
Ġho ot
Ġok ra
stand ard
Ġlist s
row ded
Ġexp ire
Ġmic rod
Ġmis in
Ġtattoo ed
Ġcrack er
Ġev il
Ġvend ing
Ġaggress ively
Ġjun ction
Ġaddict ion
Ġexempl ary
Ġethiop ian
c ast
r aine
ha ha
Ġn in
Ġst acy
Ġpl ugged
Ġr att
Ġca ges
Ġover bearing
man ces
Ġtou red
Ġperfor mances
Ġdepart ure
Ġfinan cially
Ġfond ue
cont ract
sl ow
Ġvot re
g uy
l on
Ġs ate
Ġb or
Ġn ou
as co
Ġg oof
Ġha kka
Ġe cho
Ġj ung
Ġde ceptive
Ġmo chi
Ġtri via
Ġcons ent
Ġwed ge
Ġmid as
Ġcat hy
che red
Ġsoooo oo
Ġinsp iration
Ġbubb ly
Ġsubsequ ent
Ġshat tered
Ġhott est
Ġphilosop hy
Ġirrespon sible
b c
Ġm uy
Ġth rifty
Ġh ound
ent a
ow ell
Ġde fe
Ġle on
Ġro x
Ġchar red
Ġdeal ings
Ġcas inos
Ġcu ri
Ġir re
Ġtor ta
Ġkick s
Ġexagger ating
Ġdram atic
Ġunap ologetic
Ġecst atic
Ġw ishing
Ġf ender
Ġre ndered
Ġqu iche
Ġun answered
Ġinto ler
Ġimp erson
Ġacc ustom
Ġlow ered
Ġplat form
Ġrain ing
Ġinqu iries
Ġgal ore
Ġhun ters
Ġpurpose ly
Ġcore y
Ġmarsha ll
Ġpropriet or
Ġhann ah
m ies
Ġp unk
Ġst ump
Ġbut chered
Ġen roll
Ġown ing
Ġbo dies
Ġtri gger
Ġgu ides
Ġaut res
Ġphotograp hs
Ġlic ieux
Ġincom plete
Ġscar f
Ġcapt ain
Ġconnect ing
Ġescort ed
d ri
n acle
s ad
Ġt ater
Ġs ns
Ġn as
Ġn ate
it ations
Ġco dy
Ġma ison
Ġpo ly
Ġbus hes
Ġsha ping
Ġopt ional
uc es
cre en
Ġtender loin
Ġcomb ine
Ġly chee
pleas ure
Ġpassen gers
Ġunderwhel med
nth ia
Ġp p
Ġl act
at rist
Ġde rek
ch ris
Ġjust e
Ġpr is
Ġdi aper
Ġac hes
Ġbig gie
Ġcons ulting
Ġsho ppe
Ġass ault
Ġmarket place
Ġsweat y
Ġstain less
Ġdoub led
Ġpuff s
Ġdrastic ally
Ġdiscontin ued
Ġdign ity
Ġbilt more
p re
Ġha irst
Ġe w
Ġyou re
ul ations
Ġsu nd
Ġtr out
Ġdi al
Ġbl ade
Ġpar a
Ġgl en
Ġexpl ic
Ġmess aged
Ġfair ness
Ġsw ed
Ġgar ments
ale ment
Ġlin col
Ġcoord inated
Ġmarri age
Ġciv il
Ġe go
all e
Ġse ams
Ġj ag
Ġsl ipped
Ġdelicious ly
Ġpass able
Ġeng ra
Ġimag in
Ġess ence
Ġsam my
Ġsprink les
Ġbachel or
Ġrecover ing
Ġhud son
Ġindo ors
Ġchel sea
Ġaur ora
j ack
Ġp ins
Ġse rene
Ġfr ance
Ġen velo
Ġpre st
Ġpa ella
Ġmar co
Ġnor man
Ġcred ited
Ġint ro
Ġfig ures
Ġinf in
Ġboard ed
Ġge ared
Ġremind ers
Ġexchan ges
Ġdav ids
Ġsav vy
Ġpath s
Ġthread ed
Ġpc p
Ġaddict ive
Ġdiscipl ine
Ġinac cur
Ġre iter
et tes
Ġtime frame
Ġbl unt
Ġdeli ber
Ġtrain s
Ġdon c
Ġhang s
Ġmac y
Ġbi king
Ġgall o
Ġrob inson
Ġexter min
Ġstink y
Ġcer amic
Ġcongr at
Ġmich igan
c ould
Ġd ys
at in
Ġh ou
Ġcom ed
Ġma ggie
Ġdis pleasure
Ġcont am
Ġcont ents
Ġcr ash
Ġem bro
Ġz ach
Ġsoft ener
Ġprescri be
Ġtrad es
Ġbell agio
Ġmel ting
Ġbreath taking
Ġcoord inate
Ġsuns hine
Ġkab obs
Ġalber ta
Ġtreadm ills
Ġretain er
Ġunwel come
Ġreject ed
Ġinfer ior
d les
Ġs zech
Ġd all
Ġg ul
Ġl ace
Ġsu gary
Ġta ient
Ġexper iment
Ġbl ur
Ġcondition ed
Ġaddress es
Ġcrust ed
Ġsam antha
Ġcalm ly
Ġnewb ie
Ġaqu arium
Ġstrate gy
Ġdele ted
Ġhairst yle
Ġenvelo pe
r in
s en
at hic
op a
Ġback ing
Ġman ny
we ight
Ġrec ons
ru ly
Ġpot ty
Ġpass word
Ġhang over
Ġinconven ien
Ġskill et
Ġunhe ard
Ġencourage ment
Ġbump ed
Ġrap ide
Ġath lete
Ġrene e
Ġral ph
Ġoxy gen
Ġsophist icated
v ard
he ws
Ġb am
ha ble
ur able
qu ite
res a
Ġcl imate
Ġdi arr
Ġspe lled
Ġbar ry
Ġdet ox
Ġmet er
Ġmix es
Ġann ie
Ġblack ened
Ġball et
ino is
Ġrot isserie
Ġappl ies
iest a
Ġvacuum s
Ġpor ter
yy yy
Ġnov ice
Ġclut tered
Ġessential s
Ġshang hai
h ich
Ġf ought
Ġc em
Ġu mmm
Ġpr ai
Ġta qu
Ġag ing
ong rass
Ġfl ipped
Ġpat terns
Ġgr am
Ġtop ic
Ġpol ar
Ġreplace ments
Ġcaf es
Ġcontr ary
Ġwig s
Ġsizz ling
Ġsaute ed
l ands
Ġa ly
Ġo le
Ġm it
Ġn w
or ous
Ġv illa
Ġsha res
Ġrepair man
Ġce o
Ġdon ations
att a
Ġtemp le
Ġmart inis
Ġfly ers
Ġrub bing
Ġpromot ional
Ġshout ing
laim er
Ġemphas is
Ġindul ge
Ġhotdog s
Ġmonit oring
Ġgarn ish
Ġmicrod erm
Ġaccustom ed
Ġlincol n
Ġm ower
Ġp v
en ced
Ġse ren
Ġj c
Ġex or
zer s
Ġtr ump
Ġmu gs
Ġper uv
Ġke l
Ġbu en
Ġter ri
Ġhor rified
cc o
Ġbirth days
Ġlad der
Ġscreen ing
mas ter
Ġbou quets
Ġdu pl
Ġpin nacle
Ġmur phy
Ġjac ob
heart edly
Ġprinci ple
Ġciv ic
Ġlem ongrass
Ġjewell ery
m r
Ġn ich
Ġg ender
ot o
Ġti ger
Ġab c
Ġle is
Ġma hi
Ġun interested
Ġdis ability
Ġchar co
Ġfo il
Ġav ant
Ġincl ined
Ġspo ons
ister s
Ġcas hed
Ġcas hew
Ġroad s
Ġball ant
Ġgrand parents
Ġneighborhood s
Ġcy cling
Ġspirit ual
Ġuncle an
Ġmemor ab
Ġexpand ing
Ġdiagnost ics
ju ana
Ġfas c
Ġrecommand e
Ġrecons ider
g ance
p ieces
y um
Ġs ic
Ġs id
re ll
Ġm ast
Ġe g
ow ers
ill es
Ġsa fer
Ġcon sequ
Ġman or
Ġeven ly
Ġcar bs
Ġroom y
uff ed
Ġsmo kers
Ġflo ss
Ġstr ings
Ġmove ments
Ġtyp ing
Ġaff iliated
Ġfre aked
Ġleg acy
Ġhospit als
Ġchur ros
Ġdisp atch
Ġcirc les
Ġadop tion
Ġskew er
Ġduct s
Ġvirgin ia
Ġretour ner
Ġrapp ort
l im
v est
Ġl ush
ve led
Ġst rap
ill ac
Ġr it
Ġfl an
Ġsl apped
Ġgen re
Ġsub contract
Ġwarm ing
Ġfore most
Ġremind ing
ik o
Ġpump ing
Ġhall s
Ġvers ions
Ġcy nthia
Ġfeat uring
Ġtroubles hoot
Ġanaly sis
Ġsensit ivity
Ġunbear able
Ġmagnific ent
Ġperuv ian
h ub
r aint
Ġy an
Ġso lic
Ġwh ites
Ġk ath
Ġma i
Ġwa ive
os ure
Ġpat ched
Ġnight club
Ġpar ma
Ġpres ents
Ġbelie ver
Ġcounter top
Ġgy oza
Ġpark er
Ġsing er
Ġsupport s
Ġble nds
Ġrock et
Ġfol k
Ġamerican ized
Ġgoo se
Ġvol vo
Ġpros pective
Ġmoist uri
Ġunw anted
Ġsher ry
Ġcad illac
wa ited
Ġshad ow
Ġaca i
Ġdiarr hea
u ch
u gg
Ġi an
Ġm ul
Ġp f
ll is
Ġin ha
Ġre ju
ro ad
Ġr ita
Ġv ase
Ġno s
Ġqu iz
Ġdis li
Ġcl ou
Ġbo gus
Ġtim ers
Ġexce eding
uck y
Ġhead light
Ġgas ket
Ġfoot age
Ġloud er
Ġgroom s
Ġdescri bing
Ġfoc uses
Ġrecogn ition
Ġattract ion
Ġarc adia
Ġrehears al
Ġconnoisse ur
Ġmemorab ilia
Ġf ern
Ġm ing
Ġha mp
Ġre iki
Ġbe au
Ġy am
Ġde af
Ġr n
Ġsu ed
Ġri ence
Ġres ur
Ġhar bor
Ġsk ating
Ġwater fall
Ġdisc overy
Ġmind ful
Ġfil tered
Ġbud d
Ġimag ing
Ġvan ity
Ġchill y
Ġmacar oons
Ġgradu ated
Ġtoler ate
Ġneut ral
Ġmanic urist
Ġreminis cent
Ġinfest ation
Ġsnark y
Ġprai rie
Ġt ara
Ġa mend
ou nced
on ce
Ġall ison
Ġcon ce
ick en
Ġma ze
ist ry
Ġun cooked
Ġpo d
ond ale
Ġinv as
Ġvo lley
Ġver t
Ġhy brid
Ġhur ried
Ġexist ence
Ġembarrass ment
Ġdut ch
Ġwip es
Ġutil ized
Ġconcess ion
Ġfett ucc
Ġswed ish
b rand
Ġt us
Ġf iesta
Ġm itc
Ġp ors
Ġto ner
om an
Ġk w
Ġlo dge
Ġpro c
Ġwa ge
Ġhour ly
ber y
Ġatt ire
Ġread ers
gr an
Ġgra vel
Ġped est
Ġdou bles
Ġprompt ed
Ġchrist op
Ġform ula
Ġgrill s
Ġdiss atisf
Ġhun ter
Ġalle vi
Ġmig rain
Ġcann oli
Ġmoj ito
Ġrevis it
Ġleis ure
c amp
Ġb ison
Ġbe ast
Ġst en
ir a
Ġbut ts
Ġcomp act
Ġun k
Ġdef ault
Ġfin ishes
Ġbl ower
Ġcr ow
Ġrep as
Ġwhole heartedly
ug han
Ġgroupon s
Ġtrave lling
Ġmel anie
ras ion
Ġincons ist
Ġextract ions
Ġaccompan ying
Ġcockro ach
lift ing
Ġdistrib ut
Ġgord on
Ġnewsp aper
Ġmigrain es
Ġst acey
ri p
Ġr ash
per fect
un ting
mo on
Ġbus es
Ġbl ues
Ġrel i
Ġaut re
Ġprocess es
Ġsmo kes
Ġbelie ves
Ġcommun ities
Ġair lines
Ġpet ty
Ġbab a
Ġsle ek
Ġodd s
Ġdj s
Ġfest iv
Ġbust le
Ġhel en
Ġcott age
Ġbib imbap
Ġada pt
f resh
m ay
Ġd up
or an
Ġha ven
al ia
th ought
Ġgood life
Ġun respon
Ġdis interested
Ġcont ains
Ġexce l
Ġrec overed
uc cess
Ġless er
Ġind ie
Ġpres um
Ġpost al
Ġgri ef
Ġunprofessional ism
Ġnone x
che ap
Ġdev ast
Ġaltern ate
Ġill inois
onna ise
Ġchew ing
Ġfiance e
Ġgown s
enn ial
Ġrelig ious
Ġarchite cture
Ġrango on
Ġmane u
Ġballant yne
b en
Ġw iz
Ġre no
Ġhe in
Ġpl um
el ines
Ġcr out
ol one
Ġgen e
Ġincl usive
Ġbelie ving
Ġgra ham
Ġstra ps
Ġforg ive
Ġunl v
Ġintrod uction
Ġglo bal
Ġva ughan
Ġgal ax
Ġprop ane
Ġgut ters
Ġvalent ines
Ġbrit ish
Ġpupus as
Ġjung le
Ġexor bit
w he
Ġc uff
Ġd ice
om in
Ġfor ks
ad el
Ġas ia
Ġr uth
Ġsa ge
Ġmo lly
Ġcr ate
Ġcor p
Ġmat ure
Ġcomm ute
Ġpri ze
Ġgra ve
Ġcorrect ing
Ġmall s
Ġuns uccess
Ġelev ated
Ġnov a
Ġkab ab
Ġine fficient
Ġine vit
Ġnutr itional
Ġintention ally
Ġchim ic
Ġdynam ite
Ġnovel ty
Ġdete ct
Ġdv ds
Ġspic iness
Ġcharco al
Ġd ub
Ġn ite
Ġg athered
Ġl ick
ay ing
Ġu nde
Ġsh ore
Ġab usive
Ġtr amp
mp lo
Ġsp ill
Ġbr ass
Ġpay pal
be fore
Ġste aming
Ġgr oo
Ġem br
Ġswe lling
Ġtrans p
Ġstri pped
let on
Ġpair ing
Ġbon nie
Ġwow ed
Ġnorth west
Ġmer ry
Ġthick ness
Ġeduc ating
Ġev idently
Ġcross ing
fin ished
Ġunhe althy
stay ed
Ġannou nced
Ġargument ative
Ġinaccur ate
h oo
Ġw itch
st ed
Ġab sol
Ġta h
Ġmo ins
iz ations
Ġri pe
Ġbet ty
Ġcr umb
if ies
pr oof
Ġsandw hich
Ġdet roit
Ġconsider ably
Ġgri lle
Ġton k
Ġprogram ming
Ġsour ced
Ġfoc using
Ġpure ly
Ġsoap s
Ġhandic ap
Ġcomfor ter
m ax
Ġt sa
us ually
ust ing
Ġup keep
Ġle cture
ie urs
Ġfe ather
ra ut
Ġsp ons
Ġun matched
Ġro gers
Ġmake over
Ġtast ier
Ġexce eds
ap ia
Ġgu ilt
Ġcal med
Ġcolor ist
Ġz o
love ly
Ġtemp or
Ġthrow s
Ġacknowled ging
hy dr
Ġjam ais
Ġcast le
Ġvitam ins
Ġjudgment al
Ġarth rit
abor ate
Ġsurpass ed
Ġnonex istent
c ke
f ire
h in
m c
Ġm ck
Ġha ck
Ġis le
Ġy ak
Ġst umble
ul ing
Ġsta ges
Ġad ri
Ġspe c
Ġcou pled
Ġsk ins
Ġdecor ative
Ġclear ing
Ġitem ized
Ġcris is
ane ously
Ġdifficult ies
Ġadjust er
cher s
Ġsocial ize
Ġlob laws
Ġcelebr ity
Ġrom an
Ġsi pping
Ġpeel ed
Ġinterview ed
Ġcosmet ics
Ġintent ions
Ġelement ary
Ġinvis ible
Ġdrizz led
Ġunapp et
Ġgau ge
b urn
f ol
l ooking
n al
Ġo mbre
Ġp y
Ġg ad
Ġse m
Ġpl aster
Ġr c
use ment
Ġpe pp
ress ive
Ġchick pe
Ġimp lement
Ġsha w
Ġbit ing
Ġass iet
Ġfriends hip
Ġprov olone
Ġmass aging
Ġfill et
Ġvar ies
Ġob li
Ġmusic ians
Ġtext ures
br ush
Ġwarrant ies
Ġboyfriend s
Ġvol umes
Ġmir age
Ġshady side
Ġmary land
Ġrom aine
Ġinfe ctions
Ġdeb ating
Ġmars ala
di agn
Ġquart ier
Ġmonroe ville
Ġdivers ity
grap hic
Ġmicrobl ading
b ul
b ooks
b uds
n ese
y ummy
Ġp ome
Ġp ending
Ġd it
Ġe to
Ġe pit
Ġre vers
Ġthere after
Ġcomp ound
Ġcl ump
Ġcl aw
oint ing
Ġfl ops
Ġchan g
Ġbas eline
Ġhor n
Ġcur ated
Ġbro ch
Ġice cream
Ġpost ure
Ġremember ing
Ġhost age
Ġjam s
ras se
Ġfool ish
Ġdoub ts
Ġswi pe
Ġcitiz ens
Ġdiabet ic
Ġbom bs
n ered
Ġf ishing
Ġp ong
Ġg ust
le ans
Ġbe ars
Ġdo pe
Ġsh ining
Ġpe c
Ġho pping
Ġfill ers
Ġcond os
ane ous
Ġbother s
Ġtrash y
Ġupgr ading
Ġdev oured
Ġbenef icial
Ġmoist ure
Ġrequire ment
Ġmild ly
Ġpitcher s
Ġabrupt ly
sec ond
Ġdem ands
Ġleb anese
Ġorthoped ic
Ġszech uan
Ġchimic han
l en
z ie
Ġp b
Ġd uff
Ġl ac
Ġl end
Ġl ite
Ġha v
Ġfor ty
ro ck
Ġdo d
Ġpl ated
Ġta k
Ġwa ived
Ġwa iver
Ġpre nd
Ġbr y
Ġvis ually
Ġfar ms
Ġrel ish
its u
Ġcas ually
Ġben e
Ġscr am
Ġmer c
Ġbou ffe
Ġdu o
Ġsauc y
Ġbrew eries
Ġjam med
Ġange ls
Ġawkward ly
fl ower
Ġroutine ly
Ġorth o
Ġeater ies
Ġtu ition
Ġfax ed
Ġhan k
Ġdynam ic
Ġsquir rel
Ġoverc rowded
Ġdall as
Ġunappet izing
i u
Ġso ber
Ġr und
Ġfr act
ff y
Ġca mar
Ġfe ces
Ġun finished
ud ging
Ġar rest
Ġmay onnaise
Ġter rasse
Ġdisc losure
Ġinv itations
Ġconsider able
Ġcomplain s
Ġcrew s
Ġpump ed
Ġant ip
Ġmembership s
Ġunlike ly
Ġmedic are
Ġnegoti ated
Ġhel met
Ġmig uel
Ġdeter ior
Ġpeep s
Ġlind sey
Ġnort heast
Ġkimber ly
Ġreju ven
Ġvolley ball
p art
Ġi hop
Ġd rap
on ica
Ġh oops
Ġor leans
th ink
el a
Ġfri ght
Ġsta b
Ġwa king
Ġinst inct
Ġref ried
Ġav ondale
Ġacc ue
Ġplus ieurs
Ġcal or
Ġsw ore
Ġdon air
Ġba ja
Ġdescri ptions
Ġmag ician
hol ic
Ġcommer cials
Ġlimit ations
Ġpra wn
Ġatl anta
Ġbrut al
Ġoce an
a e
c ini
d av
s ville
Ġs rir
in ent
in arily
Ġf ist
Ġb rent
al ine
Ġhe lic
st ream
Ġor an
Ġv ans
Ġcon vent
mo nds
Ġad t
Ġdi ving
Ġfl oo
we et
ip ed
Ġchan ger
Ġspot ty
ys mal
ican a
Ġmis diagn
Ġstraight en
Ġtransfer ring
Ġspect rum
Ġjer ks
Ġinteract ing
Ġflaw lessly
Ġkir k
Ġribb on
u able
v p
Ġm un
Ġl ag
ic ion
Ġtast ings
Ġpar lor
Ġmed ina
Ġdisc re
Ġcol oured
Ġconf idently
Ġba iley
Ġque ue
Ġble u
Ġtam ar
Ġmarc us
Ġyu k
Ġsom ed
Ġexagger ation
Ġald i
Ġcem et
Ġhamp ton
f oli
Ġd iced
Ġg aps
Ġre venue
al ign
ro b
Ġu k
Ġal bert
Ġsh ing
Ġsu itc
op athic
Ġch rys
Ġad or
Ġfl air
Ġbr ushing
Ġbo ats
Ġdes cent
Ġcr iter
Ġunder wear
Ġrun g
Ġkid ney
Ġdent s
Ġmass aged
Ġpain ter
iv an
Ġfurn ished
Ġcomplex es
Ġbou le
Ġhighlight ed
Ġtwist ed
Ġlean ing
Ġstro ke
Ġjalapen os
Ġdissatisf action
Ġpome gran
Ġsrir acha
e ven
Ġa ura
pp ard
Ġpro g
com mend
Ġye lls
ab ulous
Ġri en
Ġfew er
Ġadd itions
Ġreg rets
Ġhar ness
Ġsto ked
Ġlarge ly
Ġthin ly
do ck
Ġcreat ion
Ġstri ve
Ġx mas
Ġbab ys
Ġspecif y
head s
Ġtan ya
Ġjew ish
vis iting
Ġsus pected
Ġident ity
Ġprotect ive
Ġunlo ading
Ġcompens ated
Ġsno oty
Ġdiscover ing
Ġkay la
Ġmoo re
bre ak
bic oke
Ġneglig ence
Ġbackp ack
Ġpurs ue
Ġgalax y
Ġeto bicoke
c ore
t ry
Ġp ing
Ġp iles
Ġn p
it ated
Ġwe ary
Ġy m
me h
Ġpl ush
Ġshe ep
Ġv ien
Ġle ah
Ġher itage
Ġsp en
Ġcar rie
ss a
Ġrec ru
ens ity
Ġpri est
Ġshort age
Ġfact ors
Ġx ray
Ġscen es
Ġdust in
Ġflaw s
Ġsamo sa
Ġalb um
Ġdram atically
Ġimper ial
Ġuncom mon
Ġinval uable
Ġchut ney
Ġshepher d
Ġhelic op
u its
Ġw right
re m
Ġd al
Ġd orm
Ġin ade
Ġin cap
Ġme llow
Ġal way
Ġus age
Ġab used
Ġcustom s
Ġpre pped
Ġsal ade
Ġfl uff
Ġdefin etly
Ġcent ered
Ġdist ill
Ġhy dro
Ġquiet er
Ġjack ed
Ġang us
Ġol iv
Ġstret ched
Ġviol ations
Ġrefin ance
Ġgast onia
Ġcounse ling
Ġwithdra w
Ġsust ain
Ġobsc ure
Ġtox ic
Ġpors che
Ġunrespon sive
Ġtempor arily
Ġantip ast
c ott
Ġw ins
Ġp itas
al ous
st ill
Ġk il
Ġsh ines
Ġab ysmal
Ġma kers
Ġsta ble
Ġsl ider
Ġhold ers
Ġtravel ers
Ġchur ches
Ġdig ress
aa a
Ġconcept s
Ġalex is
Ġpers ist
Ġfinger print
Ġrenew ing
Ġpatron izing
Ġsin us
Ġthom pson
Ġaesthet ics
Ġaccomp any
Ġsympath ique
Ġconso le
h ouses
l ots
t al
he nd
Ġs is
Ġm ack
Ġm um
Ġbe ad
ac ing
Ġwh ome
Ġv ick
ous h
Ġun ed
Ġlot ions
Ġcare free
Ġatt est
Ġsur geons
Ġpain fully
Ġfac ilit
Ġmom my
Ġpict ured
Ġcred its
Ġflavour less
Ġstraight ened
Ġamer icans
Ġsens ors
Ġcy l
Ġgum my
Ġvacc ines
Ġabund ant
Ġcriter ia
r ants
Ġt uck
Ġt tc
Ġs ci
Ġto ll
Ġd art
ro l
Ġsal ami
ft a
ple ased
Ġpret ending
Ġsl ur
Ġfun ctions
Ġap ache
Ġdent e
Ġwind y
Ġcal c
Ġappreci ates
Ġlisten er
Ġyum m
ho ly
Ġperiod ically
Ġfra is
Ġmi ami
Ġlaure nt
Ġdiabet es
Ġbelg ian
Ġsomed ay
Ġwhome ver
h ire
o v
v ention
Ġb ons
en joy
Ġe el
Ġst im
ce ption
Ġpl a
il st
Ġdi apers
Ġtim ed
Ġatt acked
Ġref lected
Ġkind est
Ġhead lights
Ġstri kes
Ġaccount ant
Ġnic he
Ġsymp athy
Ġshan k
Ġreci p
Ġextract ed
Ġpint s
Ġster ile
Ġpred ict
Ġcloth s
Ġcush ion
Ġhistor ical
tot ally
Ġinse ct
o i
o dy
es tern
Ġha unted
Ġan the
Ġwh ir
Ġca bles
Ġup wards
ag en
Ġbr at
Ġmar ina
Ġfair ways
Ġmanage able
Ġdan e
Ġmod ify
Ġalong side
Ġbri m
Ġtrave ler
Ġhos es
ric ia
Ġhip s
Ġpap aya
Ġtil apia
Ġalle ged
Ġfuss y
Ġaggrav ation
nat al
Ġawa iting
Ġpend ant
Ġlau rie
Ġym ca
Ġl ids
Ġnot ing
ch u
ul ating
Ġun used
Ġun pro
ars on
ci ating
Ġinc entive
Ġsl ick
iss on
Ġsecond ary
Ġport al
Ġinter state
Ġdecor ate
Ġworks hops
Ġadm ire
Ġut ility
Ġexpress ion
Ġquant ities
Ġtransport ed
Ġlog ic
rr rr
Ġignor ance
Ġdispos able
Ġvari ations
hu ge
Ġanesthes ia
iso de
h t
i ar
m ons
Ġi i
Ġb ah
out e
Ġus ers
Ġtr aps
Ġch lor
ment ioned
Ġman hat
Ġby pass
Ġbl ink
Ġret reat
Ġet a
Ġmor occ
Ġfire arms
Ġsweat ers
Ġoak ville
Ġpear ls
Ġcoun sel
Ġstere oty
Ġinflu ence
Ġzomb ie
Ġgymn astic
Ġrund own
b ie
Ġt el
Ġb unk
Ġd ab
Ġn am
as ian
is her
Ġe cl
al ing
Ġhe ir
Ġhe ap
Ġst itches
st art
Ġal ors
Ġk m
Ġk an
Ġle ct
ie re
Ġen erg
Ġro cked
Ġfl ore
Ġdes ires
Ġsuper vision
ub a
Ġban ging
Ġdan ced
Ġcompet ing
Ġhost el
Ġpub l
erk raut
Ġrub en
Ġmeas uring
Ġhi res
Ġblast ing
Ġdevelop ing
Ġnegoti ating
Ġconcert s
Ġfulf illed
Ġvary ing
Ġgou ge
Ġinvis align
Ġexorbit ant
Ġboule vard
c at
k ens
Ġt c
Ġs assy
Ġn ast
at on
Ġse l
Ġout back
un ts
Ġche ery
Ġgot o
ass i
Ġbl ades
uc co
bs on
Ġpri m
Ġadv ising
Ġdep ressed
Ġrem ade
Ġfil th
Ġplate au
par all
Ġdough nut
Ġcelebr ated
Ġpaul a
Ġtit les
Ġconsum ed
Ġmold y
Ġep isode
Ġmand alay
Ġunwel coming
Ġnit ro
Ġresid ue
Ġnostal gia
Ġsau erkraut
Ġhunters ville
dav id
Ġrecip ient
j ud
w ind
Ġc k
Ġc um
Ġc ds
en g
as ters
Ġre llen
Ġre ferences
Ġh wy
Ġne lson
Ġse qu
ast ed
Ġpro st
com plete
Ġwa ved
mo s
Ġjo s
Ġsc ents
Ġsl ots
Ġdisc losed
Ġhead qu
Ġdress ings
Ġscrew ing
Ġrot ated
Ġsan itation
ob ic
Ġflu ke
Ġore gon
Ġbrain er
Ġbik ram
Ġunin sp
Ġelli ptical
Ġrefurb ished
Ġscram ble
Ġfloo red
parall eled
z u
Ġo em
ha re
Ġso fter
Ġcon gest
Ġqu ail
Ġkn ick
ud ing
Ġamaz e
Ġemp ire
Ġspeci ality
Ġsec rets
Ġbel itt
ial s
Ġmor gan
Ġbri o
Ġnotice ably
izer s
lt on
Ġadvert ises
Ġyork dale
Ġinde cis
Ġbreast s
Ġcertific ates
Ġpam pering
Ġreloc ating
Ġcran ky
Ġobt ained
Ġmari juana
Ġkee per
Ġalo ha
b our
d ont
k im
w oman
Ġa il
Ġp el
Ġn ag
Ġn fl
ic ity
Ġe z
an ity
ad ina
Ġk am
ch ild
est one
Ġche ek
Ġdis belie
Ġbus h
ab rasion
Ġsc ored
Ġbo d
gg in
Ġend e
Ġbar ley
Ġcons ign
Ġbas es
Ġcra z
Ġsmo other
Ġson oran
Ġsush is
Ġtotal ed
Ġfre ight
Ġseason ings
Ġari a
Ġens ures
Ġleak y
Ġmort ar
Ġdut ies
Ġshar pen
Ġsex ual
Ġguid elines
Ġnecess ity
Ġdur ation
Ġconduct ed
Ġhoag ies
Ġdiscour aged
Ġcompon ent
mic hael
Ġpossess ion
Ġa fore
Ġb ian
Ġn urt
Ġre un
Ġst ur
Ġr ar
Ġcon nie
Ġcon vey
Ġte resa
Ġcar men
Ġdis rupt
Ġsc ars
Ġbr ooke
Ġgl ory
Ġgl itch
Ġhar vey
Ġrun ners
ier ra
Ġswe aring
Ġchild care
Ġpark way
Ġpet co
Ġposit ions
Ġfore head
Ġrad ius
Ġtight ened
Ġcamer on
Ġvir us
Ġsew age
Ġscrub s
Ġip od
Ġharass ment
Ġtut or
Ġnation wide
Ġdilig ently
Ġhoo ver
Ġstub born
Ġloung es
Ġcuri osity
Ġchristop her
Ġarthrit is
Ġpomegran ate
e med
o ir
Ġm ph
Ġe tern
ri ved
Ġan s
qu ately
Ġall state
Ġche que
ag an
Ġro pe
Ġcl owns
Ġac ura
Ġfind ings
Ġlot us
Ġbl ake
ss ss
Ġlist ings
Ġori ental
Ġbra g
Ġvers ed
Ġcro ck
Ġvacuum ing
Ġprof its
Ġplant ed
Ġcate rer
Ġhash br
Ġregist ry
Ġunlo aded
Ġachie ved
Ġemphas ize
Ġmitc hell
l iter
Ġc ed
Ġn ook
ic le
Ġha ns
Ġre nd
Ġre fe
Ġbe ings
Ġst ucco
ro ph
Ġu be
so ld
Ġcar wash
av ier
Ġclean se
pl ess
Ġdes irable
Ġspecial ties
Ġmed itation
Ġport able
Ġmight y
Ġear liest
Ġton i
Ġpress ing
Ġroad side
Ġtor te
Ġcart ridge
Ġlic ens
Ġcompetitive ly
Ġfrequent ing
Ġrow dy
Ġmiche le
Ġabs ent
Ġlif esa
Ġast h
Ġdistract ing
Ġbroad way
Ġfrag ile
Ġcarbon ara
Ġvom it
p i
Ġt d
Ġp oodle
ur ances
Ġwh ilst
Ġal igned
Ġk r
ig ible
Ġpo sh
Ġve in
Ġpart ly
Ġcr ook
Ġend ure
Ġpret ended
cess arily
uc ated
Ġem issions
Ġsim il
Ġpoint less
Ġconf it
Ġsub standard
Ġcool ed
Ġdon ald
Ġmis placed
Ġver onica
Ġpub s
Ġpour s
Ġang les
Ġdiagn osing
Ġworry ing
Ġrede emed
Ġrein st
Ġhandic apped
adel ph
Ġtamar ind
Ġincap able
m il
s ight
w ed
Ġme nd
Ġal monds
est y
Ġsh ish
our t
Ġv ig
Ġle v
lo om
Ġpo in
Ġbo go
Ġfo b
Ġsk ates
Ġbat t
Ġgar ment
Ġmic key
Ġstrong sville
Ġagree ing
Ġtun nel
Ġcoll ap
Ġrick y
Ġtoler ance
Ġdeter min
Ġgrap es
Ġtux ed
Ġreop ened
Ġvic inity
Ġresur f
Ġgad get
n or
w ares
Ġf ib
Ġl umber
ic i
Ġk in
Ġr ome
Ġun paralleled
Ġpe king
Ġpar am
Ġsur ly
Ġwalk way
Ġeng land
Ġmic ha
Ġpi geon
Ġflag s
Ġflag ged
Ġbuck ets
Ġlin er
Ġrout es
Ġhel per
Ġparticip ating
Ġparm ig
Ġscrap ed
Ġquel ques
cop y
Ġbolog nese
b ly
l ined
Ġn ina
Ġbe ep
Ġfor med
ow l
Ġv ote
Ġcon greg
Ġaw es
Ġjo es
Ġsc one
Ġdel ta
ak a
Ġdes i
Ġpleas urable
Ġhor mon
ru ciating
Ġgri me
Ġbrand y
Ġpop ulation
Ġtrad ed
Ġult a
Ġgross ed
Ġmeas ures
Ġglo ss
Ġscratch ing
Ġindepend ently
Ġsurf aces
Ġtrop icana
Ġphil adelph
Ġdiscour age
Ġenvision ed
Ġcrout ons
Ġdisbelie f
n ies
Ġa wn
Ġi con
Ġp ans
Ġv ie
Ġaw some
Ġri f
Ġbu ried
Ġcor a
Ġbed b
aw a
Ġmid st
Ġcla ire
Ġneighbor ing
Ġmouth s
Ġphys i
Ġtrad ing
Ġpen cil
Ġev iction
Ġspin al
Ġrefill ing
Ġdar ren
Ġscore s
Ġhors er
sc ott
Ġbeg un
Ġmcd owell
Ġnou ve
Ġdavids on
Ġafore mentioned
c led
h ony
v able
Ġa a
Ġf aint
Ġm ound
ha p
Ġn j
ad d
ad ish
Ġso rely
ust ered
Ġpl un
Ġor g
Ġca uc
Ġv and
Ġqu ad
ca f
Ġun con
ien ne
lp ool
Ġinc ense
Ġshow case
Ġrecei ves
pr ice
Ġacc us
Ġrent s
Ġpass ive
ron om
Ġran ged
Ġed mont
Ġgri e
Ġsumm ers
Ġportion ed
Ġquot ing
Ġra ison
Ġsocial izing
Ġfinan ces
Ġsett ling
Ġunne cessarily
Ġpharmac ies
Ġmisle ad
Ġling uine
Ġdisconne ct
Ġrecy cling
Ġaesthet ically
Ġmarg her
Ġmimos as
incred ible
Ġlinger ie
Ġanthe m
Ġhorser adish
Ġedmont on
v or
us ions
Ġbe ating
Ġse min
Ġal icia
Ġk ha
il and
Ġab ras
pt ic
Ġdis pleased
Ġcl ues
Ġspe cs
ap ore
Ġgu in
Ġest e
Ġpol ishes
Ġexc ruciating
Ġorgan izing
Ġra ff
Ġwax es
Ġmer cy
Ġinconven ienced
Ġtemper atures
Ġrefriger ated
Ġunc alled
dro pped
Ġexped ia
Ġfaj ita
Ġadministr ative
Ġessay er
Ġisol ated
Ġsimil arly
Ġco y
Ġover haul
pl ash
Ġel aborate
Ġdri lled
Ġmiss es
Ġsw irl
Ġexcept ions
Ġuns atisf
Ġcap ac
Ġhi pp
Ġapplic ations
Ġgut ter
Ġelim inate
Ġpresum ably
Ġuned ucated
Ġwhir lpool
Ġmanhat tan
Ġheadqu ar
f ive
g le
g ies
re z
Ġf ame
Ġp on
Ġd ul
ri el
Ġare nt
Ġj ets
Ġde hydr
Ġtr apped
mp h
Ġmo ck
Ġfl are
Ġfl ashing
Ġel i
Ġreason ing
ash i
Ġrec liner
Ġsur ve
Ġenjoy ment
Ġste ad
Ġprod uits
Ġem er
Ġswe pt
Ġset h
Ġes car
Ġlas ik
Ġsol ving
Ġcat holic
Ġmont ess
Ġtemp ting
Ġjen na
Ġimm ature
Ġtit an
Ġsupervis ors
Ġboot camp
Ġomelet tes
Ġlaug hable
Ġdocument ed
Ġade quately
Ġcough ing
Ġnest led
Ġsalv age
Ġpak ist
Ġattent iveness
Ġperf ume
Ġcalor ie
Ġcemet ery
Ġgymnastic s
Ġphiladelph ia
l ate
u ality
Ġl ice
so cial
Ġman s
Ġover rated
Ġnew market
Ġaw ake
Ġroom mates
Ġpat ricia
Ġveg ans
Ġav ais
Ġrel ate
Ġhor izon
no ld
Ġmust ang
Ġcheap ly
Ġcla ud
Ġmas c
Ġtour ing
Ġbutter cream
oooo o
Ġiron ically
Ġreloc ation
Ġnan ny
Ġame x
Ġsof as
Ġchrys ler
Ġmargher ita
h r
t out
t aste
u er
er ic
Ġf ert
Ġn az
as k
Ġl ore
Ġst u
ent er
Ġthey re
Ġas i
Ġal ign
Ġr y
Ġco ffin
Ġsp adina
Ġche n
Ġwa vy
Ġro be
Ġro cking
Ġcl iff
ab e
Ġbo il
oth s
Ġcont re
Ġopen ly
Ġsk ipping
ling ton
Ġmid d
Ġfil i
Ġsumm it
Ġbri ghter
ma id
fl ix
Ġpers istent
Ġcab ana
jo e
Ġpsy chi
Ġdisgr unt
Ġreve aled
Ġtraum at
Ġdepress ion
Ġscorp ion
Ġemotion ally
Ġhicc ups
Ġunatt ended
Ġepit ome
s um
Ġm umbled
Ġd as
Ġh p
Ġde gr
am m
Ġv ind
Ġno ble
Ġun o
Ġhigh land
Ġfl ame
Ġinc ur
Ġcor y
Ġcost ed
Ġdisc lose
Ġdisc laimer
Ġwi red
Ġed ition
Ġbra ve
Ġrespect fully
Ġclin ical
Ġdisg u
Ġsus pend
Ġtail ors
Ġbrow sed
Ġly n
Ġmi kes
Ġund ers
Ġlin en
Ġcostum ers
Ġlif el
ste ve
Ġchop sticks
Ġlip stick
Ġalle g
Ġimpl ants
Ġmaxim ize
Ġpractition ers
Ġconco ction
Ġpropos al
Ġoverse as
Ġalberts ons
Ġhou ston
Ġmontess ori
f am
f abulous
p ite
r ac
t ly
Ġa ver
Ġm mmmm
Ġp k
Ġl ance
Ġj ug
Ġpe ek
Ġloc king
Ġmin ced
Ġsc ot
Ġbu is
Ġopen ings
Ġsha ker
Ġsha ded
Ġmar ine
Ġgu iding
Ġcol a
Ġflavor ing
Ġsent iment
Ġworld s
Ġstation ary
Ġbal ancing
Ġencour ages
Ġinvol ving
Ġdim in
Ġdim ly
Ġrac es
Ġunw ind
Ġbump ing
Ġdread ful
Ġgossip ing
Ġthy roid
Ġjamb a
c ci
f est
n as
p at
Ġto ned
Ġnot ar
Ġj ars
Ġal p
Ġr hy
Ġsa ff
ick er
Ġjo di
Ġsc um
Ġbl aring
Ġsl ack
Ġbat hing
bo b
og a
Ġplan es
Ġval ves
Ġsing apore
Ġspecif ics
Ġattend ance
Ġmis fortun
Ġfro g
Ġmc m
Ġrepres ents
Ġdev oted
Ġcell phone
Ġfu zzy
Ġpin ball
Ġhostess es
Ġshar k
Ġhaha ha
Ġhint s
Ġblat ant
Ġeconom ical
norm ally
Ġalum inum
Ġmarshmall ow
Ġinade quate
Ġrar ity
Ġguin ness
Ġdisgrunt led
b oth
j on
n est
t oo
Ġt m
Ġi cy
ing u
Ġre cess
Ġwe ap
Ġan ch
Ġsa mm
Ġgo ds
Ġus b
Ġwa ves
and y
Ġinst ances
Ġrece ptive
Ġcr ist
uct ions
Ġmust y
ned y
Ġcond iment
ale x
Ġed ited
Ġmult itude
Ġwarrant ed
over priced
Ġheat ers
ograp hy
Ġru ins
Ġsil ky
Ġshame ful
Ġchir o
Ġinvol ves
Ġtrack ed
Ġhoney moon
Ġfranch ises
Ġroyal ty
Ġdestro y
Ġvacc inations
Ġmut ual
Ġacqu ired
Ġincorpor ated
Ġdrizz le
Ġaddic ting
Ġmicroderm abrasion
fol io
g ars
n b
p aper
y our
Ġb ast
Ġm ant
Ġp ars
Ġp owered
Ġha nger
st ra
Ġex foli
Ġv ille
Ġloo sing
te ch
Ġad ams
Ġjo ked
Ġbr ooks
Ġtri ang
ason ed
Ġbl ouse
Ġend orse
Ġmor on
Ġstre aks
Ġparty ing
Ġsn iff
Ġappro aches
Ġforward ed
Ġpan c
Ġboo ster
wor se
Ġmad ness
Ġpad ding
Ġgross ly
Ġkore a
Ġconsum mate
Ġindepend ence
Ġdraft s
Ġfold ing
Ġgrape fruit
Ġspeech less
m or
o ly
an go
Ġnot ifying
et e
ld om
ce ll
Ġor che
ch on
qu er
Ġup se
ie f
Ġwork place
Ġhow ard
ry an
Ġchar ts
Ġwar ner
Ġtaste buds
Ġinter iors
Ġgar l
Ġval erie
Ġexp osure
Ġremo ver
Ġmod ified
Ġball park
Ġmac book
ho les
Ġgro s
Ġgro ve
iling ual
Ġresol ving
Ġbeha ve
Ġdraw s
od or
Ġfem ales
Ġpin ot
Ġlandsca per
Ġalex ander
Ġaccur acy
Ġterm ite
Ġrear r
Ġnet flix
Ġoffic ers
Ġmotiv ate
vet te
Ġutil izing
rep res
Ġoblig ed
Ġartic les
Ġbund le
Ġverd ict
Ġpowd ered
Ġumbre lla
Ġhandbag s
Ġfettucc ine
Ġprog ressed
liter ally
r ating
s ur
Ġs ib
Ġm mmm
ou ched
Ġl ors
Ġha st
us al
Ġan ten
Ġj ab
ust roph
Ġr ider
im en
Ġco b
Ġcan als
Ġsm ir
Ġsuper cuts
Ġfo g
Ġcor k
Ġdisc ol
Ġcal cul
Ġed ward
Ġexp ires
ĠĠĠĠĠĠĠĠ ĠĠĠ
Ġcla ustroph
Ġhang ers
Ġmac chi
Ġign ition
Ġdu ke
Ġland mark
Ġresched uling
Ġbull dog
Ġspread ing
Ġcos y
Ġattract ed
Ġtoler able
Ġaccomod ate
Ġarth ur
Ġimagin able
Ġlifel ong
h ound
n ia
Ġi ci
Ġs ie
ar se
Ġas p
Ġse mes
Ġli en
Ġwere nt
Ġv ice
pl us
Ġinc idents
Ġgre ed
Ġrel ay
Ġsou vent
Ġport folio
Ġread ings
Ġmet h
Ġran che
Ġvo ices
Ġimpro v
Ġthri ve
Ġirrit ation
Ġasse mble
Ġnu is
Ġbarbe que
Ġcontinu ous
Ġshocking ly
Ġcomprom ise
Ġstitch ing
Ġimproper ly
Ġkoh l
sor ry
Ġoran ges
Ġspen cer
Ġasth ma
l ining
w anted
Ġa ustr
Ġm itch
Ġin grown
Ġbe gged
Ġnot or
Ġst ing
Ġam mo
Ġpro ves
Ġun ke
Ġpa lette
Ġav on
Ġrem orse
Ġdirect ing
Ġdirect ors
Ġliving social
Ġlol a
Ġconversation al
Ġtrou ve
vis ions
Ġmel on
Ġhip sters
Ġgall ons
Ġken nedy
Ġlog ical
Ġperm its
Ġoblig ated
Ġmam mo
Ġtransform ation
Ġvul ner
Ġanton io
Ġexplic itly
Ġindecis ive
Ġheadquar ters
Ġmisfortun e
e h
j im
s am
v os
Ġs way
Ġto aster
et ic
Ġj iu
Ġsh warma
am o
Ġloc o
Ġbad ger
Ġpret t
Ġfo oth
Ġpres erve
Ġsw an
Ġaff air
Ġsing les
Ġinf uri
Ġbac ter
Ġpositive ly
Ġprof use
Ġpers u
Ġcollect or
Ġoccur rence
Ġproud ly
Ġadvent ures
Ġemot ions
Ġvin cent
Ġster ling
Ġincreasing ly
Ġsouvenir s
Ġempt ied
Ġinconvenien cing
n os
t ra
z ones
he llo
Ġo j
Ġo tt
es ional
Ġre pt
ke ys
Ġse ldom
Ġde pl
Ġfr itters
Ġser gio
ge able
Ġcon verse
Ġcl ipped
Ġcha le
Ġmu ll
ft ing
Ġke nd
Ġpa use
Ġdri lling
Ġmen ch
Ġfix ings
Ġacc um
Ġcond ens
Ġscre ams
je ff
Ġbi ops
Ġexpress ing
Ġscen ic
Ġprevent ative
Ġpra ises
Ġvit al
Ġdemo graphic
Ġintell ig
Ġrh onda
Ġsubsequ ently
Ġbaff led
Ġmorocc an
Ġbuis ness
Ġsaff ron
i ppy
m ount
t im
w ing
Ġw ider
Ġo g
Ġc pa
Ġd ict
Ġl on
ac cio
Ġdo ck
Ġse ule
Ġde lete
Ġal arms
th ree
Ġr he
Ġtr ashed
Ġpo ds
ien s
Ġdr aining
Ġro bb
Ġro aming
mo b
Ġfin es
Ġbud ge
Ġmas ks
Ġblue berries
Ġtend on
Ġev ans
Ġmart y
Ġsan ity
Ġtight en
Ġaf ghan
Ġavoc ados
Ġpromot ing
Ġment ality
Ġstren g
Ġhat ch
Ġevalu ated
Ġslam ming
Ġille g
Ġnugg et
Ġarchite ct
Ġnostal gic
Ġglor ious
disapp ointed
Ġbene ath
b ies
i ate
m one
m age
p oon
v ity
Ġs ich
er in
Ġf ier
Ġg on
Ġst out
Ġme g
Ġu fc
Ġv es
Ġcl uster
Ġsc out
Ġho vering
gg s
Ġbur g
Ġbur gh
ens ions
Ġpri zes
Ġcars on
Ġinspect ing
Ġphys io
Ġelect ro
Ġcomment ing
Ġstraw s
Ġev an
Ġthousand m
azz o
Ġlog istics
Ġflood ing
Ġcave at
Ġmut ton
Ġdistur b
Ġorthodont ics
Ġpant ry
Ġpsych ic
Ġcobb ler
Ġkebab s
Ġsneak ers
Ġobst acles
Ġceas ar
Ġfragr ance
Ġaly ssa
Ġdistribut or
Ġdistill ery
mil k
Ġmicha els
Ġabras ive
j en
l ow
Ġs ided
Ġthe e
Ġis a
Ġal pha
Ġam d
Ġthere sa
Ġcust ody
Ġdec atur
Ġste lla
Ġass es
Ġswe ats
pr ices
Ġsw apped
Ġgar ages
do ba
Ġmist reat
Ġgreen way
Ġtha iland
Ġball room
Ġafterno ons
Ġbottom s
Ġpriv ately
Ġspecific ations
Ġspl itting
Ġchew ed
Ġfing ern
Ġattract ions
Ġabs ence
Ġshout ed
Ġcru cial
ww ww
yy y
yes terday
Ġko be
Ġburst ing
Ġturt le
Ġlact ose
Ġlifesa ver
Ġnuis ance
Ġstreng the
c id
d ave
r ally
Ġt x
Ġa pe
Ġi g
Ġs ard
Ġb ilingual
ll ll
Ġl ucked
Ġl ava
Ġbe c
Ġan ita
Ġj itsu
se nd
Ġk le
Ġk um
Ġtr u
Ġjust ified
Ġno d
itt ings
Ġfl ake
Ġmen udo
Ġweek night
Ġcho ppy
Ġass umption
Ġsw itches
do es
ina ire
Ġey ed
Ġfire house
Ġden im
Ġarg ent
Ġhass les
Ġpharmac ists
Ġsed ona
Ġdiscrimin ation
Ġsanit ized
Ġbully ing
Ġlc bo
Ġprest ige
udging ly
r ina
Ġs ights
Ġf use
Ġm ice
Ġp its
Ġto kens
Ġd oo
Ġl atch
Ġre y
Ġre ment
Ġy ah
Ġh h
Ġbut tered
Ġor nam
Ġal ice
Ġr itz
qu ality
end o
Ġpr ince
Ġma uv
Ġoff ense
Ġover come
Ġpo di
ab out
Ġsc rape
Ġsc uba
Ġar ises
Ġsm ack
be y
be llo
Ġhar vest
for ced
Ġproblem atic
Ġcur sing
iv a
Ġyelp ed
Ġhands ome
li ers
Ġdra gging
Ġimag ination
Ġfashion able
Ġpier cer
Ġdiv ision
Ġrust y
Ġuncle ar
Ġtact ic
Ġpee ve
Ġfauc ets
Ġcorrespond ence
Ġresc ued
Ġintr usive
Ġoliv ia
g un
i ation
l ay
p ad
u per
Ġi vy
Ġg n
Ġat om
Ġde w
Ġus d
Ġma k
Ġsp icier
Ġcha sing
Ġri val
Ġel igible
Ġpoint e
Ġbuild s
Ġrefund ing
Ġprior it
Ġhell a
ball s
Ġsqu ares
Ġchamp ions
Ġobs erve
Ġmild ew
Ġtruth ful
Ġdeduct ed
Ġconfront ational
Ġoptim al
Ġmistaken ly
Ġconcent rate
Ġsuz anne
Ġconflic t
Ġuni verse
Ġmarvel ous
Ġsic ilian
Ġmidd leton
c losed
n ick
Ġt ard
Ġi ch
Ġf aut
Ġc j
Ġb ash
Ġp aced
Ġhe ctor
Ġr p
Ġpr one
so on
Ġro sa
Ġcl t
Ġper use
Ġdown gr
gg ers
if ier
Ġkind er
Ġhar mony
Ġmar king
Ġap athetic
Ġacc ents
Ġfan cier
Ġspo il
Ġimport s
Ġton es
Ġbank ers
Ġsmile y
Ġcamp bell
Ġaware ness
Ġjump s
aa ay
Ġcy st
Ġvou ch
Ġoli ver
Ġacade m
Ġdiff er
Ġgraphic s
Ġconstruct ed
Ġscold ed
may be
Ġunsuccess ful
Ġpoin ters
Ġprofuse ly
p here
Ġi z
Ġw ong
Ġan cient
Ġtw itter
Ġsu ic
Ġlo ses
Ġpre made
Ġday time
Ġper ry
Ġwo bb
Ġextra v
Ġposs ibilities
Ġschedul er
Ġchr ome
Ġrespect s
Ġtur bo
Ġrad ish
Ġengine er
Ġintrod ucing
Ġpier ogies
Ġgate way
Ġeyel iner
Ġmanufacture rs
Ġpc s
Ġboun ced
Ġcapit ol
Ġslab s
Ġdermato logy
Ġcounse lor
Ġdispat cher
Ġcarri ers
Ġthunder bird
Ġeyeg lasses
Ġcongrat ulations
Ġprend re
p as
Ġt ense
Ġn ye
Ġn ike
Ġl ending
Ġhe ath
Ġal ar
Ġsa mb
ack aged
Ġta le
Ġman ually
Ġte es
Ġte pp
Ġad rian
Ġcha mber
Ġsm ud
Ġlot tery
omet er
Ġsim ult
Ġprov ince
Ġdoor bell
Ġda unting
Ġcol omb
Ġaut umn
gr in
Ġdan i
Ġje un
Ġenc losed
Ġmis repres
Ġperfor ms
Ġbun ny
Ġphotograp h
Ġmaster piece
Ġroot er
box ing
Ġinvent ive
Ġoverchar ging
Ġspark le
Ġmig raine
Ġcoordin ating
cra fters
Ġrit ual
Ġstur dy
f i
f air
u ated
Ġi lly
Ġha ban
is co
Ġh ing
Ġse iz
ch icken
Ġback dro
Ġno ir
Ġcar a
Ġwa gon
Ġcl own
own er
Ġrep r
ol ite
Ġhouse wares
Ġsou pe
log ists
Ġint act
Ġkitchen s
Ġexam ining
zz le
Ġeffort less
Ġheav ier
Ġcommunic ates
Ġcoll ard
Ġcurt is
Ġapt s
Ġoverd ra
Ġmeticulous ly
Ġrect ified
Ġling u
Ġexped ited
Ġsweep ing
Ġbord ers
Ġcoinc idence
Ġtoen ails
Ġunfor get
Ġheir loom
Ġanten na
Ġchale ure
b its
b rew
l u
Ġn ad
ad am
Ġsa pp
Ġpro ving
Ġab ord
Ġsta res
mo ved
Ġfl ustered
Ġmon op
ia h
Ġet han
ative ly
Ġport o
Ġfollow up
Ġcal zones
Ġsch w
Ġcent ennial
Ġob gy
Ġlou ie
Ġtou g
Ġsad den
Ġsour ces
Ġtun ing
Ġkey board
ky o
Ġmold ing
Ġweak ness
Ġscan ning
Ġcru el
Ġoutrage ously
Ġchi hu
Ġsne aky
Ġextraord inarily
Ġbond ed
Ġinsight ful
Ġwholes ale
Ġexpans ive
Ġshuff le
Ġtranqu il
Ġbrio che
Ġfooth ills
d ish
g ue
Ġs d
Ġc ue
Ġp out
Ġl ub
Ġe llen
Ġis les
Ġth x
et o
Ġme ine
Ġas hes
Ġex ited
Ġr ained
est op
Ġtw ee
Ġpro hib
Ġserv ic
Ġab d
Ġtr act
Ġv ist
Ġle ased
ra h
Ġte aring
Ġpo ppy
Ġpre natal
ink le
pl ane
Ġar b
be lls
Ġsur tout
Ġsho ve
Ġwater front
Ġsweet ened
Ġred id
Ġgri p
Ġpract iced
Ġmod s
Ġtha li
Ġchrist y
Ġconc ise
Ġdre amed
Ġspeed ing
Ġbull ied
Ġdiv ided
Ġregul ations
Ġcapt uring
Ġclar ity
Ġguarante es
Ġfif ty
Ġcontr ad
kee per
Ġovers ized
Ġprecise ly
Ġconcess ions
Ġcine ma
Ġcrick ets
Ġdol ce
Ġkitt ens
Ġlung s
Ġinvas ive
Ġchimichan ga
Ġsuitc ase
f ers
l v
Ġa uc
Ġf ades
Ġc ay
Ġd at
Ġd ucks
al oo
ent e
st ood
Ġse per
Ġpl ating
Ġtw el
Ġget away
Ġup charge
Ġab ack
Ġno dd
Ġfood ies
Ġman ning
Ġsp onge
Ġafter market
Ġapp ra
Ġapp la
Ġdi le
ish ment
Ġtast iest
Ġthrough ly
Ġcr umble
Ġbar ri
Ġrep ainted
Ġpar c
Ġla unch
Ġass ed
Ġclass ical
Ġacc use
Ġacc using
mm et
Ġsub ways
Ġdan ish
Ġrid ers
Ġmain stream
Ġmist y
Ġcolle en
Ġfav es
Ġfav ors
Ġble ached
Ġdeser ving
omen ess
Ġinex c
Ġrob bery
Ġcarp accio
Ġcos mo
Ġvict ory
Ġrust ed
Ġhel m
Ġfaith ful
Ġdur able
Ġovers ight
Ġgab riel
Ġsimpl icity
Ġtraum a
Ġlav al
Ġobserv ation
Ġrus sell
Ġorient ation
Ġimperson al
Ġrevers ed
Ġt ing
Ġw ars
Ġs ierra
Ġha mmer
at ly
Ġh ooks
ill er
Ġr t
Ġr ising
un believ
Ġcon fess
Ġma h
Ġwho pping
Ġshow c
Ġpar ag
Ġfun nel
Ġexcellent e
Ġcent rally
Ġcred ential
Ġtre vor
Ġsort a
Ġrese mbled
Ġexchan ging
Ġdad s
Ġvers a
Ġspeed s
Ġdece it
Ġprof icient
Ġunivers al
Ġcoord ination
Ġjosh ua
Ġtele visions
Ġou ch
Ġolymp ic
Ġcrem ation
Ġchlor ine
Ġdepl orable
Ġchihu ah
g ivers
h ore
m bles
Ġw ad
Ġp j
Ġp ts
Ġmy ri
st umbled
Ġr ains
Ġco ve
Ġsp iders
Ġbo k
Ġpa pri
Ġins in
Ġho pped
Ġmar ic
Ġla ughter
ne ll
Ġpick ering
Ġstud ies
Ġstr uts
iv able
Ġmid town
Ġhy att
Ġmc g
Ġmeas ly
Ġrenov ating
Ġstrange ly
Ġrob ot
Ġment ions
Ġorth otics
Ġprevent ed
Ġinvo ices
Ġseam lessly
Ġbrus sel
Ġdemean ing
Ġore gan
Ġhen na
Ġimpl ied
Ġoptim istic
Ġhumid or
Ġtraum atic
Ġincorpor ate
haw k
Ġrapid ly
Ġsnapp er
Ġdevast ated
Ġcauc asian
Ġmacchi ato
Ġunforget table
e as
m ind
w i
Ġw ack
Ġd ating
om er
Ġre na
Ġj ade
Ġk ills
Ġlo x
Ġlo in
Ġup load
Ġtr ace
Ġcan ine
ort ion
Ġcha grin
Ġfl ipping
Ġcompan ions
Ġcare givers
Ġfin ch
Ġsl id
Ġsl ipp
Ġproduct ive
Ġsmo ot
Ġsy n
Ġran k
Ġyelp ing
Ġdep uis
Ġx box
Ġvo cal
Ġfran ces
Ġhesit ated
Ġspac ed
Ġlaz iness
Ġstair case
Ġiron ic
Ġbelong s
Ġlapt ops
Ġfi ber
Ġclar ification
Ġdy lan
Ġder ma
Ġdun no
Ġmud dy
Ġoun ces
Ġcoco a
Ġrevol ution
Ġmidw ife
Ġacoust ics
Ġreun ion
Ġpakist ani
b led
b ted
w ire
y enne
Ġf ittings
Ġh mmmm
st ered
Ġj orge
Ġk ry
op ened
Ġfri ggin
ond o
Ġdes igning
Ġinto x
Ġbar nes
Ġnight ly
Ġrec ourse
Ġfree ly
Ġsho cks
Ġim ho
Ġgr id
Ġtop ics
Ġunt ouched
Ġdisc rep
Ġinfor ms
Ġshort ed
Ġint ensity
Ġconst raint
ee e
Ġfrustr ations
Ġsan ct
Ġmeasure ment
Ġresort s
Ġcrit ique
Ġshift s
Ġdism ay
Ġunus able
Ġcraw fish
Ġfulf illing
Ġgab e
Ġja ime
Ġfant asy
Ġdecre ased
Ġlul u
Ġhashbr owns
Ġsemes ter
Ġsimult aneously
Ġtwel ve
r ase
r ical
r ison
Ġo e
Ġc pr
an ging
et ta
Ġso il
Ġtw ists
il itation
Ġco ch
Ġdis asse
Ġbo iling
Ġtimes hare
Ġchan el
Ġcomple ments
ier a
pr ising
Ġfavor able
mm a
Ġhead sh
Ġexp o
olog ical
Ġdon ating
Ġautom ob
Ġterm ites
Ġlin ked
Ġsky line
Ġconvin cing
Ġconcl uded
Ġstruct ured
Ġcircumst ance
Ġpoo ch
Ġrou ge
Ġkal bi
Ġpenn ies
Ġcrick et
Ġlegend ary
Ġgodd ess
Ġallevi ate
Ġtuxed o
Ġdiscrep ancy
b rian
j ason
o ck
r ich
t ic
Ġto kyo
Ġl assi
ac a
Ġde caf
Ġti ki
Ġal ma
ant i
Ġfr ying
Ġover booked
itt o
ab ilities
Ġgu cci
pr ised
Ġrepl en
Ġshort ened
Ġcur d
Ġsales woman
Ġsw amped
Ġcenter pieces
Ġnat asha
Ġvac ations
Ġview ed
Ġir ate
Ġcamp s
Ġhall mark
Ġinvest ing
Ġgall eria
Ġincre ases
Ġwelcom es
rep ared
Ġgou ging
Ġpercent age
Ġni ag
Ġchim ney
Ġted dy
Ġempan ada
sad ly
Ġshing les
Ġclaustroph obic
Ġinexc usable
k u
Ġc res
Ġp gh
Ġd izz
Ġg els
ll as
Ġe ly
Ġre use
Ġnot able
Ġso les
Ġhad dock
Ġk urt
Ġr amb
Ġr ural
ven ient
Ġco arse
Ġche ating
Ġdis order
ag i
Ġpe bble
act s
Ġpart ake
Ġcut let
Ġgl oria
Ġrel ied
Ġline ups
Ġplay list
Ġfair y
Ġinter m
Ġsw ings
Ġran cid
Ġfan atic
Ġsme ared
Ġju ic
Ġvo iced
Ġaccess ory
Ġcu be
Ġforget table
Ġminim ize
Ġcand ied
Ġom br
Ġcanadian s
Ġq doba
Ġbump y
Ġvit als
Ġstew art
Ġcrimin als
Ġree ked
Ġvom iting
Ġlc d
Ġcolumb us
Ġswall ow
Ġpav il
Ġimmig ration
Ġintoler ant
Ġwiz ard
Ġuninsp ired
Ġawes omeness
Ġvand al
Ġvulner able
Ġlingu ini
c ous
r ot
Ġi b
re lla
ou re
ou th
Ġl itt
Ġre think
al on
Ġbut tern
Ġse ar
Ġr ushes
ch rist
Ġshe ri
Ġfri g
Ġle w
Ġkn ot
ra el
Ġdis charge
Ġro ver
Ġri vers
Ġph le
Ġmon itors
Ġperson ne
Ġbre f
Ġrep et
Ġent rep
Ġsk irts
Ġes que
Ġproduct ions
Ġstr ain
Ġtest ament
Ġcontract ing
Ġsad d
Ġhum ane
ho e
Ġune asy
Ġconsult ants
Ġdead lines
Ġlu i
Ġhub s
Ġthreat s
Ġwild life
Ġscar ce
Ġscoop ed
Ġbear able
Ġsteel ers
Ġdur ango
Ġsod ium
Ġrecie ve
Ġshr ink
Ġpedest rian
Ġmaneu ver
Ġobli vious
b as
f el
s omet
Ġt p
Ġb p
Ġto ffee
ir o
st orm
Ġdo jo
ill ion
ust ed
our ing
Ġch oy
Ġafter taste
Ġun a
Ġro pes
Ġnew com
ty pical
Ġbo jang
Ġcare gi
gg ling
Ġcr ashed
are r
Ġwr ang
Ġhar t
iss y
Ġran ks
Ġdam p
Ġgri lling
Ġbag gage
Ġz u
Ġattend ees
Ġdre aming
Ġmini ature
Ġtam ale
Ġeur o
Ġignore s
Ġsprink lers
Ġperm itted
gl as
Ġneur ologist
Ġhelicop ter
fam ily
Ġoregan o
Ġcaregi ver
m iche
t ruly
Ġs ous
Ġc out
Ġm imi
Ġp uck
Ġp ixie
Ġd t
es ter
Ġg aze
Ġin gr
Ġre ck
Ġh uff
ce nd
Ġso ba
Ġthere of
am er
Ġma ndy
Ġsc ented
Ġret aining
Ġcr ay
ap olis
Ġtal on
Ġhon oring
Ġpot stick
Ġped al
Ġsol on
Ġvo ir
Ġyog ur
Ġhum iliated
Ġba pt
Ġpresent able
Ġut ah
Ġgrass y
Ġly ft
Ġrout ines
Ġiv an
Ġrehab ilitation
Ġinvestig ated
Ġdemonstr ate
Ġaj ax
Ġbacks plash
Ġenforce ment
jam in
Ġgur u
Ġkor ma
Ġquiz nos
Ġbedb ugs
Ġbiops y
Ġobgy n
Ġmaric opa
Ġbuttern ut
j ay
p han
z ola
Ġi ffy
Ġc et
Ġn ib
Ġl umpy
Ġfor te
Ġhe mming
st ruct
Ġse ul
Ġpl ump
Ġshe ppard
Ġall iance
Ġtr ish
ment ation
Ġcomp os
ca pe
Ġpre pping
Ġmin istry
Ġbu z
ush i
Ġrun around
Ġhard core
ru ption
Ġcur ling
Ġmusic ian
Ġmid way
Ġer ik
Ġmis hap
Ġmot to
Ġlay over
Ġwest side
Ġchat ime
Ġgod send
Ġrad ar
Ġsens es
Ġfirm ly
Ġtort ure
Ġexe cute
Ġbelong ed
Ġpatron age
Ġpud dle
Ġadam ant
Ġpig s
Ġvari ation
Ġtes la
Ġunimp ressive
Ġfir ms
Ġthigh s
Ġhind sight
Ġfestiv als
Ġhank ering
Ġmisdiagn osed
Ġmammo gram
c ular
s k
Ġs iding
re a
Ġm ate
Ġg le
Ġha il
Ġj ava
qu al
Ġlo v
Ġafter care
Ġpo ppers
Ġpe els
Ġph rase
Ġhot pot
Ġtal ents
Ġsur charge
Ġste ered
Ġass ign
Ġclass rooms
Ġwi per
Ġstud ied
Ġcommun al
Ġroll ers
Ġdou glas
Ġsme lt
Ġtow ers
Ġfore war
Ġwin ery
Ġamb ul
Ġbutter fly
Ġshut ter
Ġbi as
Ġwra pper
Ġcontain ing
Ġmes h
Ġdust ed
Ġchamp ion
Ġlens crafters
Ġinsp ir
Ġtruth fully
Ġpor cel
Ġbrus sels
Ġnegoti ation
Ġkrist in
Ġwhit by
Ġmt l
Ġboast s
Ġmimos a
Ġkra ft
Ġdupl icate
Ġfern ando
Ġgarl icky
n ys
o ids
Ġs cient
Ġn ah
on ing
Ġg us
Ġg az
ic les
at ics
Ġis t
Ġis rael
Ġre ese
Ġy ield
ri ly
ke red
Ġan at
Ġal ien
han a
Ġv ag
Ġover weight
te xt
igh ter
ĠĠĠĠ ĠĊ
os copy
Ġres on
Ġcont ag
Ġsl um
Ġacc red
Ġdent ed
Ġgar cia
Ġwall paper
Ġbath urst
Ġshut ting
Ġscam ming
Ġperiod ont
Ġfather s
Ġol m
Ġsuff ers
Ġfi asco
Ġmacar on
Ġdumb found
Ġbever ly
Ġnecess ities
Ġtab ou
Ġbuzz ed
Ġbrun ette
Ġmonit ored
Ġconstruct ive
Ġgor gon
Ġconvent ional
Ġnurt uring
Ġparmig iana
Ġcredential s
b us
g irl
j an
j ess
k ind
or as
Ġre order
oo per
ro lls
ad der
im eter
Ġqu int
Ġfri zzy
Ġman nered
Ġcar la
Ġwa g
ck y
Ġapp r
Ġmin u
Ġsc off
ak ers
Ġfl ir
Ġwr iter
Ġass holes
Ġstar ch
Ġpol ishing
Ġinstall s
Ġsub l
Ġsw at
Ġexp los
Ġje alous
Ġpan icked
Ġdist ress
Ġfire works
Ġge ico
con venient
Ġdesert ed
Ġyork ie
Ġkick boxing
Ġengine ering
Ġkno b
Ġpest s
Ġtoilet ries
Ġsilver ado
Ġmetro p
Ġunc overed
Ġsprink le
Ġboun cy
Ġremark ably
Ġcontemp l
Ġbuzz ing
Ġbrace lets
Ġstrand s
Ġshr ubs
Ġgrub hub
wr itten
Ġstan ley
Ġmyster ious
Ġembro ider
Ġced ar
Ġgadget s
Ġslipp ery
c ation
m att
o kes
he ard
Ġp ity
Ġp nc
Ġd ings
Ġre x
Ġy in
Ġj az
Ġk u
pe z
Ġpr ick
Ġle ap
Ġman chu
Ġpar l
Ġgr asp
Ġsupp liers
Ġcomm itting
Ġpol enta
Ġplay off
Ġcur led
Ġgener ations
Ġcold er
br ina
Ġfoot wear
Ġgrand child
Ġenvironment al
Ġsun light
Ġden ying
Ġris ks
Ġcoll ars
Ġgarden ing
Ġcos m
Ġunc ertain
Ġdeb ra
Ġwip ers
Ġscrub bing
Ġparticip ated
Ġster il
Ġoblig ation
Ġdistur bed
Ġcomplement ed
Ġfen ced
Ġkris py
Ġwrink les
Ġreli ability
Ġtah ini
Ġraison n
Ġcapac itor
Ġintellig ence
re rs
Ġc rib
Ġc attle
Ġd itch
Ġn ada
ac i
me la
Ġas pen
Ġj ays
Ġr s
Ġv r
ix ed
Ġwal nuts
pect ing
Ġrep aint
aut hentic
Ġbath s
Ġben jamin
Ġver ona
Ġpair ings
Ġbottom less
Ġsouth side
Ġdu rian
Ġev a
Ġmir ac
Ġmax x
Ġmanufact ured
Ġjess ie
azz led
Ġinfl amm
Ġanticip ate
Ġhairdress ers
Ġoverhe ating
Ġunp repared
Ġaqu a
Ġcass er
Ġot tom
Ġrecy cled
Ġker atin
Ġcommand e
Ġpate l
Ġchandel iers
Ġantipast o
Ġmeine ke
Ġbojang les
Ġporcel ain
v ial
Ġt ents
Ġf ucked
Ġc b
Ġm ma
Ġbe gr
Ġit iner
al aya
ir ls
Ġpl ut
Ġr m
est ones
Ġwill y
Ġmo nde
Ġcar lo
Ġfl im
Ġrest ric
Ġsuper store
Ġwr ites
Ġsha ft
Ġpur su
Ġim itation
Ġplay ful
Ġcur ve
Ġinter pret
Ġred ire
Ġint ric
Ġchin ook
Ġattend s
Ġtherap ies
Ġinspect ors
Ġpad dle
ĠĠĠĠĠĠĠĠĠĠĠĠĠĠĠĠ ĠĠĠĠĠĠĠĠ
Ġapple bee
Ġexerc ising
Ġslo pp
Ġunre lated
Ġbust ling
Ġoverwhelming ly
Ġprop osed
Ġbear ings
Ġtat um
Ġvirt ual
Ġreve al
Ġquart z
Ġiniti ative
Ġein stein
Ġassiet te
Ġpubl ix
Ġunsatisf actory
Ġhaban ero
Ġcontag ious
Ġgorgon zola
b ia
u cha
in as
Ġn ess
ll ite
Ġin no
me re
ill ian
pp in
Ġk are
Ġle go
Ġsp lend
Ġorder ly
Ġcou p
Ġfound er
cha l
Ġwalk ers
Ġexc urs
Ġtrans plant
Ġcorrect ions
Ġx s
Ġop i
Ġcas hing
Ġserve use
Ġvi and
Ġflat tering
Ġmark up
Ġdisgusting ly
Ġprote ins
Ġlie u
Ġcomb at
Ġnap a
Ġloss es
Ġbackground s
ga e
Ġcam den
mat i
Ġindic ates
Ġsarc asm
Ġtut oring
Ġmarsha lls
Ġpref ers
Ġcomprom ised
Ġpand ora
Ġpotstick ers
Ġdumbfound ed
c ourt
f s
Ġf ires
Ġd ixie
Ġg aining
Ġl ud
Ġl uster
Ġbe ign
Ġwe nd
oo b
Ġst ern
Ġup loaded
Ġtr ink
Ġch ief
Ġle urs
Ġkn it
Ġkn acks
Ġag itated
Ġdis in
Ġfl own
Ġchar don
Ġsomething s
Ġfix e
Ġcons ume
Ġass uring
Ġgr itty
Ġda isy
Ġsto cks
Ġport land
Ġstr ingy
Ġed iting
Ġexp iry
cri pt
Ġaff ili
Ġbright ly
Ġthri ving
Ġtrail ers
Ġdig it
Ġtort as
Ġcher ish
Ġmal ays
Ġdesper ation
Ġjoy ce
Ġjunk ie
Ġnegoti ations
Ġgam estop
dro ve
Ġvacc ine
yl van
Ġfrag rant
Ġalert ed
Ġbru ised
Ġtournam ents
Ġpolit ics
Ġchev ron
Ġdeliber ately
Ġkath leen
Ġphle bot
Ġmirac ulous
Ġcasser ole
c list
d rie
m int
p atient
s ave
x ford
z i
Ġw ks
Ġs ut
Ġc ot
ou k
Ġn ash
Ġbe aches
Ġse o
Ġout we
Ġsa brina
Ġab by
ong s
az y
Ġdes ks
Ġfun gus
Ġpast y
ia o
Ġgra ff
ician s
Ġconsist ing
Ġpaint s
Ġer nie
Ġer ika
Ġbutter milk
Ġdepos ited
Ġpen ns
Ġlu v
mar ked
pa ul
Ġfrank ie
Ġcuis ines
Ġund ou
Ġcarne gie
Ġgum bo
Ġsubm itting
Ġimpecca bly
Ġexcess ively
Ġcel iac
Ġtack le
Ġsurv ived
Ġdee med
Ġreward ing
Ġleslie ville
Ġsubstant ially
Ġacid ic
Ġuntr ained
Ġmunch ies
Ġwhist les
Ġsate llite
Ġkel sey
mob ile
Ġsanct uary
a verage
b ased
h um
r ists
Ġi rene
er ves
Ġc uy
Ġfor ces
Ġk ool
Ġgo ers
Ġsh im
Ġtr x
op h
Ġv aut
ist ically
Ġover worked
Ġjo anna
Ġres s
to is
Ġar med
Ġmon ies
Ġpa ved
Ġho llow
Ġret ros
Ġimp olite
Ġcour age
Ġstand out
Ġaut hent
Ġbill i
Ġcur se
Ġcur ren
Ġban ners
Ġsw ind
Ġrid den
Ġsing ers
Ġpan inis
Ġadm itting
Ġcir que
Ġmill ions
Ġmir anda
Ġlandsca pers
Ġdive y
Ġinsp ire
Ġtermin ated
Ġnar c
Ġsher aton
Ġpun ched
Ġnewb ies
Ġsom mes
Ġros ie
Ġpray er
Ġmead ows
Ġtost ada
Ġastound ing
Ġchandel ier
Ġrais in
Ġfasc inating
Ġtramp oline
Ġbah n
eas ily
i j
l ot
w au
Ġw rench
Ġf isher
Ġl t
ri x
Ġu w
Ġso ju
Ġca ked
Ġsu ms
Ġlo ll
Ġv m
Ġsp ur
Ġen velop
Ġph ili
Ġres ale
Ġbr assy
Ġar bit
Ġar bor
Ġper ch
Ġper ogies
Ġmon soon
Ġdown loaded
Ġins ens
ye ah
Ġquick est
iss ance
Ġla x
Ġrec commend
Ġter rier
Ġwar ri
Ġwar ren
Ġmor ons
Ġstre p
Ġsw iped
Ġgy n
Ġprep ackaged
Ġtest im
bur y
Ġdist ingu
Ġtire lessly
Ġrese mbles
Ġspl at
Ġflor ists
Ġpromot ed
Ġpi geons
Ġlux or
Ġrele ases
Ġdread ing
Ġhide ous
Ġlandlord s
interest ing
Ġmg mt
Ġscoot ers
Ġenhan ced
Ġlem ons
Ġgeor gia
Ġinconsist ency
Ġdile mma
Ġpenns ylvan
wau kee
b ows
Ġp ly
Ġd ern
Ġg s
ll ini
Ġe au
Ġis lands
Ġne llis
Ġle che
so ft
Ġman if
Ġpo ked
Ġro am
Ġjo anne
ber to
Ġsm ug
Ġtri b
Ġtri ms
Ġclo g
Ġreg al
Ġreg imen
Ġexpect s
Ġgr ades
Ġwar ped
Ġcol ada
Ġair drie
Ġcond ensed
Ġmil waukee
ah i
Ġsumm ar
Ġtre mont
Ġhum ili
Ġtrave lled
Ġble nder
Ġrock star
Ġfire arm
Ġconsult ations
Ġshoot er
Ġloose ly
gre en
Ġome lets
Ġplant ain
Ġteen y
Ġric o
Ġrud y
Ġviol ated
Ġbarg ains
Ġreloc ate
Ġindic ator
Ġling ering
Ġscrap ing
Ġalas ka
Ġpuzz le
Ġhumid ity
Ġmeille ur
Ġhue vos
Ġado bo
Ġbj j
Ġsacrif ice
Ġott awa
Ġoverdra ft
Ġentrep rene
f ar
l id
s ame
t or
w estern
y d
Ġw rest
Ġb ays
Ġl int
Ġde odor
Ġk ier
Ġr aves
Ġshe lly
Ġfrom age
Ġcomp at
Ġcar go
Ġwa aaay
Ġloc ating
urn ed
Ġdel ights
Ġmuch o
Ġve ins
ish i
Ġke lley
Ġret ained
oy aki
Ġcheck list
Ġcomm ons
Ġtown house
Ġheal er
Ġbro kers
Ġsw ord
Ġspr ite
Ġspr ays
Ġgreet er
Ġdirect v
Ġbra id
Ġperfor mer
Ġarr anging
Ġcontro ls
Ġtend ed
Ġpal azzo
Ġfund rais
Ġdefect s
Ġanticip ation
Ġanticip ating
gu ard
Ġobt aining
Ġreward ed
Ġescal ated
Ġvictim s
Ġhyp n
Ġportra its
Ġhoot ers
Ġirre le
Ġcyl inder
Ġupse lling
Ġilleg ally
prising ly
Ġretros pect
m ie
Ġs ighed
Ġp interest
Ġto go
Ġha uled
an ian
Ġbe cu
Ġfor ming
Ġsh in
Ġfe min
Ġover load
Ġun pl
Ġfl ank
Ġve il
ry l
Ġchick s
Ġel aine
Ġpat ios
Ġnight life
Ġrec urring
up ied
Ġeas ed
Ġste ms
Ġass ert
Ġass urance
Ġlight ning
Ġgener ator
Ġdoll y
Ġsn ippy
Ġton ic
Ġtan ner
Ġben z
Ġhy ped
ton y
Ġwest lake
Ġbou che
Ġartist ry
Ġindividual ized
Ġmount ing
Ġdim ensions
Ġange lo
Ġdishonest y
Ġlos er
Ġcommit ments
Ġcardio logist
Ġcree p
Ġsmith s
Ġsubstit uted
Ġcarn iv
bet ter
Ġdun n
Ġfen cing
Ġsimpl est
Ġrober ts
tot al
Ġdispens ers
Ġaston ished
Ġbrack et
Ġexceeding ly
cke ye
Ġbroch ure
enjoy ed
Ġvind aloo
l ad
t ie
v ale
Ġw ich
Ġo ught
ha ri
Ġg b
Ġg ree
Ġl um
Ġwe ave
ac on
Ġj as
Ġor ch
ant ically
th rough
Ġr as
Ġfr own
ge red
Ġall ot
Ġwill ow
Ġcon ve
Ġfe ared
Ġsp ain
Ġcar ved
Ġpo lo
Ġcou rier
Ġbu ckeye
Ġcor i
Ġstar k
Ġmass es
Ġhuge ly
bb led
Ġoil ed
Ġinf inity
Ġcat ar
oooo oo
Ġuns us
Ġtooth p
Ġcolour ing
when ever
Ġva is
Ġbay view
Ġyellow tail
iy a
eral d
Ġprotect ing
Ġarts y
mark able
Ġgrey hound
Ġcarn ival
Ġwhit ney
Ġpope ye
Ġsubur bs
Ġelim inated
Ġpolit ical
Ġwrink led
Ġdispens ary
Ġnt b
Ġextermin ator
Ġdisli ked
Ġmasc ara
Ġnotar ized
Ġchihuah ua
Ġambul ance
Ġcuy ah
b ri
c ience
Ġf ate
Ġp um
as ia
Ġl aps
Ġin sec
Ġso it
Ġex tern
Ġal a
Ġk omb
Ġsa il
Ġlo d
Ġlo gged
lo e
Ġthan king
Ġwa a
Ġdis charged
Ġrest ing
Ġunder rated
Ġsl op
Ġgr ist
Ġdet our
Ġfair view
Ġsy mb
Ġrid ic
Ġprior ities
ma res
port s
Ġver ification
Ġoper ators
Ġconc ourse
Ġgall eries
Ġpier ogi
Ġlift s
Ġpine ville
Ġbreast fe
Ġdeb ate
Ġmiser ably
Ġacade mic
Ġoverp owered
Ġexped ite
Ġgee z
Ġscramb ling
Ġrein force
Ġobject s
Ġaggrav ated
occ upied
Ġrig at
Ġglam orous
Ġdrown ed
Ġjamb alaya
Ġexpans ion
Ġbuen o
Ġgrooms men
Ġsten ch
Ġtraumat ized
Ġape x
Ġporto bello
Ġmyri ad
Ġflir ting
Ġcuyah oga
b ill
c am
d uring
f avor
l ance
m ake
Ġa rose
he im
Ġw ol
Ġs ire
Ġp ix
Ġd um
or o
ut han
ac cia
se en
se ys
ff er
Ġqu il
Ġcall er
Ġdr ains
Ġsal ary
Ġac ce
hes ive
Ġcr ush
Ġend ured
ol as
Ġdri ft
Ġpar ale
Ġhand written
Ġste in
Ġem b
pr ay
sw ick
ather apy
Ġdent ures
Ġfac ulty
man age
Ġtrans fers
co logist
Ġclos ure
Ġself ish
Ġdu i
Ġev ap
Ġarm or
Ġspark ly
Ġmotorcy cles
Ġsanit izer
Ġcus sing
Ġrefresh ments
Ġpenal ty
Ġnin ja
Ġrellen o
Ġcosm op
Ġitiner ary
d ain
o lyn
u ment
w rit
Ġa ub
Ġf ading
Ġb ert
om i
is in
Ġre app
Ġre bel
Ġwe xford
Ġst acks
ro let
Ġme ghan
Ġk ink
Ġli b
Ġall otted
Ġgreat ness
am y
Ġch il
Ġcon text
Ġwhat not
Ġle ery
Ġag rees
Ġsp at
Ġun opened
Ġac et
ak aya
Ġres pir
Ġdec o
Ġbo ar
Ġtri pping
Ġret ri
Ġref ined
Ġend urance
Ġend odont
Ġsuper mark
Ġpar ce
Ġsl ippers
Ġcons umption
Ġgr ains
Ġem ma
Ġbel mont
Ġhor iz
Ġdet erg
Ġwind s
Ġpres erved
Ġson ny
Ġed gar
Ġele phan
Ġcompet ence
Ġlad en
Ġchrist ie
Ġwest in
Ġpen gu
Ġbell ige
Ġentr ances
Ġintrod uct
Ġcoll ins
Ġsoooo ooo
Ġfalaf els
Ġcrafts man
Ġsed ation
Ġlawrence ville
Ġviv a
Ġcontrib ute
Ġcandid ate
Ġwholes ome
Ġchev rolet
Ġacoust ic
Ġblu eto
Ġyol k
Ġunse asoned
Ġescar got
Ġcolomb ian
Ġniag ara
Ġflim sy
Ġpennsylvan ia
Ġunsus pecting
Ġblueto oth
l as
r ican
w h
Ġm j
Ġm vp
Ġd ual
le h
Ġat op
Ġse wn
Ġj d
qu in
Ġca pri
Ġv p
im o
Ġsp ont
Ġwa ving
Ġpe arson
Ġmin ister
other ap
Ġins ists
Ġsha y
Ġhon ors
sp ent
Ġmess es
Ġmus ique
Ġsub t
Ġred ness
na ire
Ġpet als
Ġpan e
br ook
Ġlim ous
Ġchat ter
Ġdescri bes
Ġshut t
Ġang rily
Ġburn er
Ġjan ice
Ġrob ust
Ġglo be
Ġtempe red
Ġmanufact uring
Ġcous cous
Ġcheer fully
Ġpit iful
Ġunus ually
Ġarro gance
Ġsheet z
Ġsubstit utions
cons ist
Ġblan c
Ġimpact ed
dis g
Ġconver ter
Ġsalv ador
word s
Ġaer ial
Ġoffs et
Ġci ab
Ġneglig ent
Ġarom atherapy
Ġaddic ts
Ġduff erin
complete ly
Ġmonop oly
Ġsadden ed
bted ly
Ġinno cent
Ġirrele vant
Ġintroduct ory
c in
c all
c os
f ac
Ġt sh
Ġm p
Ġre medi
Ġre charge
Ġex iting
ul sive
il o
Ġcomp r
Ġmo x
Ġdis ap
Ġper using
Ġrecei ver
Ġfull er
Ġhor mone
Ġdrink ers
Ġcur sed
Ġbag ging
Ġkitchen ette
ex pensive
Ġorgan izations
Ġsummer licious
sh op
Ġfoot long
Ġdesp icable
vert ine
Ġnatur opathic
Ġcontro ller
Ġpu er
Ġtra vertine
Ġmount s
Ġprem i
Ġpublic ly
Ġpopular ity
Ġstrugg les
des pite
Ġclar ified
Ġpray ing
Ġlent ils
Ġshru g
Ġrelig iously
Ġdomin ic
Ġlakes hore
Ġhormon es
Ġclaud ia
Ġpsychi atrist
Ġsuspend ed
Ġsich uan
Ġinterm itt
Ġforewar ned
Ġsupermark ets
m it
m ous
t re
Ġt et
he ld
Ġn ieces
or ah
es ha
Ġe uc
Ġre ed
Ġwe lf
Ġdo ve
ust worthy
Ġpl ast
Ġk ol
Ġr ook
Ġcom a
Ġtr am
Ġno da
Ġdis ast
ud a
fe ctions
Ġday light
ab a
Ġsc ans
Ġcr umbled
Ġcr inge
Ġpat rol
app a
Ġgl are
Ġmar row
Ġcons cience
Ġbas mati
pr om
Ġmat tered
Ġstand point
Ġstr omb
Ġgra bs
Ġpet ers
Ġblack berry
Ġsoft ball
Ġcover ings
Ġsouth park
Ġhur rican
Ġmir acles
Ġram sey
Ġpros pect
Ġstair well
Ġnet working
Ġshift ing
Ġdism al
Ġvib ration
Ġcru z
Ġencounter s
Ġouts our
Ġgather ings
Ġster oids
sc am
Ġresist ance
Ġartich okes
Ġdowns ides
Ġdrown ing
Ġconvert ible
Ġtum or
Ġmul ch
Ġchickpe as
Ġdrap es
Ġawn ing
Ġdehydr ated
Ġolm sted
Ġminu ets
Ġottom an
Ġgraff iti
Ġretri ever
Ġwelf are
d ling
k ids
n an
v ation
Ġb itten
Ġp als
Ġg ail
is ms
ar rived
Ġmy st
Ġbut ters
Ġall y
han y
Ġv icky
ca ly
ig on
Ġun st
Ġpe ggy
Ġfl ushed
Ġpa mela
Ġnight mares
Ġbur ro
ens on
Ġprod uces
Ġem erald
Ġmat ted
Ġtable ts
bo oth
Ġair plane
Ġart if
Ġsatur ated
Ġsn akes
Ġchoo ses
Ġmark er
Ġconc ur
Ġev icted
Ġmart ha
Ġlic king
Ġvers at
Ġage nda
Ġtight ly
Ġtro phy
Ġbehav iors
lin ers
Ġdiv a
Ġbomb ay
Ġunre markable
Ġauthor ize
aren cy
Ġgerman y
Ġdispos ition
Ġdash board
Ġscript s
Ġcarib ou
Ġpuzz led
Ġcateg ories
Ġoc d
Ġlug ar
Ġmyster iously
Ġproport ions
Ġsubscri ption
Ġpall et
Ġpec ans
start ed
miche lle
b ull
Ġb ally
Ġto ken
Ġe uthan
Ġse g
Ġti x
Ġam is
Ġv as
Ġany who
Ġpe ers
Ġspe ake
os aur
Ġfl ab
Ġbo ca
Ġchar ter
Ġlook out
Ġpar ade
Ġpar ish
Ġgl anced
Ġrel ent
Ġdisc o
Ġbat ting
Ġtaste fully
Ġconf ig
Ġair b
man n
Ġprep ares
Ġnon chal
Ġop a
Ġgas oline
Ġfrequ ency
Ġlen ny
Ġyork er
Ġchill ing
Ġdisp uted
Ġva ult
Ġimm ers
Ġcollect ibles
Ġcommer ce
Ġjac qu
Ġvalu ables
Ġspoon ful
Ġbitch y
Ġinvestig ating
Ġfen nel
Ġmcc ar
Ġrecy cle
Ġmode m
Ġsunda es
Ġlor ain
Ġmichel in
Ġinevit able
Ġtransp arency
Ġarrest ed
Ġparam ount
Ġranche ros
Ġsubl ime
Ġembroider y
Ġrigat oni
favor ite
b ling
e asy
k ill
w atch
Ġi ra
Ġw ade
Ġp ne
Ġl p
at ique
Ġis ab
Ġth orn
Ġit chy
Ġal gae
Ġk h
Ġr ho
Ġcomp art
Ġman ne
Ġun ic
Ġdis organ
Ġen light
Ġdr unks
Ġpre view
Ġsc uff
pl ay
Ġar an
Ġho g
Ġrep ri
Ġent icing
Ġmar ce
Ġcour tois
Ġcor on
Ġwo ken
Ġdet ract
Ġint est
Ġimpro ves
Ġnegative ly
Ġgrand pa
Ġoper ational
Ġmer ci
Ġfinal ize
Ġroof ers
Ġlic ie
Ġsauc ed
Ġcap ers
Ġwise ly
Ġfle e
Ġdecl ared
Ġlegit imately
Ġbeach wood
Ġtermin ation
Ġscrub bed
Ġstroll ers
Ġfred dy
Ġrelig ion
Ġbrun swick
Ġmisunder stood
Ġanne x
Ġmos qu
incred ibly
Ġengra ved
Ġabsol ut
Ġtak oyaki
Ġrecru iter
Ġorche stra
Ġfingern ails
Ġlew is
Ġexplos ion
Ġundou btedly
Ġinsens itive
Ġkomb ucha
Ġciab atta
o ise
p ower
Ġb im
Ġp ard
Ġto ro
Ġj ale
Ġsh ined
Ġtr ag
Ġno ah
Ġle agues
Ġmo pping
Ġhelp ers
Ġdr ums
Ġcl icked
ail ed
Ġpre vention
Ġri ps
Ġdef ic
Ġper ception
Ġbo e
Ġmon ique
Ġref ers
Ġbar ked
Ġsha llow
Ġmar issa
Ġrec o
Ġbur r
Ġcompl iant
Ġdisc s
Ġtown e
Ġinter com
Ġban ter
Ġglass ware
Ġinv itation
ung y
Ġz a
Ġfig ur
Ġbra iding
Ġfav s
Ġsqu ared
Ġfoc accia
Ġextens ively
war mas
Ġprem iere
Ġbrid get
Ġliqu ids
Ġcirc ular
Ġestim ator
Ġfest ive
loc ation
Ġcin n
Ġdrain age
Ġhookah s
Ġkrist ina
Ġmarin ade
dis c
Ġpak ora
Ġdistinct ive
aco a
Ġneckl aces
Ġlone ly
Ġkitt ies
Ġchee ks
Ġzo om
Ġprawn s
Ġisa ac
Ġbackdro p
Ġbuz zer
Ġcontempl ating
Ġpursu ing
Ġcurren cy
b ian
d ers
j et
j osh
r ide
t te
t asty
v v
Ġs alle
Ġm ould
Ġp ina
Ġd ak
Ġg p
Ġg aw
Ġl ure
Ġha unt
Ġit ching
Ġhe he
Ġhe ed
Ġan cho
Ġse mb
pp le
Ġwh iche
Ġcom ical
Ġpro se
Ġkn itting
ig ans
Ġdis heart
Ġad jo
Ġrest or
Ġar cher
Ġpa ige
Ġins uff
Ġbre eds
Ġemp ower
Ġsl acks
Ġcor rid
Ġap s
Ġgr in
Ġcheese burgers
Ġdoor way
Ġda w
Ġsn at
Ġtyp ed
Ġequ als
Ġstri pper
Ġfro ze
Ġden is
Ġscam s
Ġcop ied
Ġsepar ating
Ġvol can
Ġuns weet
Ġsens ation
Ġprem ise
su its
Ġsymp a
Ġprin ters
sto ck
Ġselect ive
Ġlibr aries
Ġkar l
Ġmeaning ful
Ġheads et
Ġsyrup s
Ġow l
Ġviol in
Ġadmin ister
Ġvolunte ered
bor o
Ġstro lling
Ġbrit ney
Ġcoinc ident
Ġrecreat ional
Ġgigg ling
Ġportra it
Ġcraz iness
Ġsentiment al
Ġpodi atrist
Ġextrav ag
Ġdeceit ful
Ġrena issance
Ġbegr udgingly
Ġrespir atory
Ġbellige rent
consist ently
Ġeuc lid
Ġdisast rous
Ġairb nb
Ġwhiche ver
g ri
h id
r ained
s ar
u ar
he ner
Ġb room
ha ll
Ġp us
Ġp im
as ma
Ġg erm
Ġl illy
at ha
Ġth ou
Ġy ang
ke vin
Ġdo gg
Ġj p
Ġk aw
Ġk ok
Ġr age
Ġfr ick
Ġam using
am ous
el ite
Ġsp art
Ġsp illing
Ġwho pper
Ġye ast
Ġcl ipping
Ġjo ann
Ġres ide
Ġmon et
Ġinc ent
Ġbad ass
ol ong
if es
Ġmay field
Ġsl ipping
up on
Ġap o
Ġwonder land
Ġinter medi
iv ated
Ġed gy
Ġliter al
Ġx x
Ġtrue ly
Ġinf ants
Ġwilling ly
Ġbuff ed
Ġshi h
Ġpepper mint
Ġunl ucky
Ġdump sters
Ġrespons iveness
Ġcap abilities
Ġranch o
Ġfear ful
Ġscan ner
Ġstruct ural
form ation
Ġbond s
Ġlouis iana
Ġunin v
Ġpak oras
hal mo
Ġobst acle
Ġrode o
Ġarom atic
Ġdispat ched
Ġswift ly
Ġattrib ute
Ġproc laimed
Ġleisure ly
Ġhing es
Ġsymb ol
b ut
e ers
re ceived
Ġc na
Ġd s
Ġg nc
ll ie
us er
Ġh ick
ac ies
Ġk l
Ġfr antically
Ġsa igon
Ġlo iter
Ġlo cale
Ġta gged
Ġle gged
ca res
ort ed
Ġro ds
Ġpre ced
Ġdi ves
Ġjo an
Ġri eur
Ġmu le
Ġtri pe
Ġins urances
Ġbl owd
Ġcr ank
Ġsha un
Ġgl enn
Ġhelpful ness
Ġcho ke
Ġter rit
Ġrel ayed
Ġside ways
Ġlight en
Ġinstall ations
Ġcream er
Ġfac et
Ġsw ar
Ġeye wear
Ġsn ail
Ġbrand ed
Ġserve ur
Ġer ie
Ġdist ant
Ġmis cell
Ġpress uring
Ġstor med
Ġbun nies
Ġinteresting ly
Ġblood work
Ġrot ting
Ġsugar ing
Ġgoog ling
Ġstupid ly
Ġdisp uting
Ġshoot ers
Ġtout e
Ġeager ly
Ġparticip ants
Ġclut ter
Ġorthodont ic
Ġgast ro
Ġindul g
Ġax le
Ġlicens ing
Ġcongreg ation
Ġbacter ia
Ġcout ure
Ġsplend id
Ġtrink ets
d am
d ance
f ace
h ou
k at
t ree
u ge
v ised
Ġo mar
Ġc ial
Ġp ion
Ġl ur
Ġha ute
ac her
Ġst ow
Ġk reme
Ġr af
Ġtime liness
Ġco hen
Ġmore s
Ġri z
Ġar nold
Ġbl adder
for ms
Ġcor rupt
Ġdin osaur
Ġprod ucing
Ġter rifying
Ġcra bs
Ġhor rifying
Ġtable cl
Ġmet all
Ġcool ers
Ġdam ned
Ġgri nder
Ġop ht
Ġhung arian
Ġmis ery
Ġamb ient
Ġmot ions
Ġchat e
che cked
Ġmilk y
Ġcommunic ator
Ġactiv ate
Ġgolf ing
Ġdiscuss ions
Ġprofess or
Ġken nels
Ġneighbour s
Ġcy clist
Ġpink y
Ġhuman ity
Ġsque aky
Ġmort ified
wal ks
Ġmicro phone
Ġviol ent
Ġreass urance
Ġhumor ous
Ġcel a
Ġsom me
Ġartic ulate
Ġobsess ion
Ġjet ta
Ġdiscrimin ated
Ġwha ck
Ġmisin formed
Ġdeterior ated
Ġdul ce
Ġstead ily
Ġanch or
Ġinfuri ating
Ġiz akaya
Ġrestric ted
Ġacet one
Ġmiscell aneous
k an
m ac
n asty
t el
t rip
Ġw en
Ġw imp
in n
Ġf m
en zie
Ġre actions
Ġh s
ri um
Ġbut ler
Ġj t
Ġsa un
Ġsa vers
ul ately
Ġsp ay
Ġpo les
Ġad here
Ġpre jud
Ġper imeter
Ġprice line
Ġatt acks
Ġunder lying
Ġdeal find
Ġcut ters
Ġpar ap
Ġperfect ed
Ġkid do
Ġsupp orter
aut hor
Ġthin ning
Ġele cted
Ġthorough ness
Ġquestion naire
Ġhum our
Ġjack pot
Ġadjust able
ille urs
Ġtend ing
Ġfeed s
Ġvol t
Ġske ptic
Ġbum s
Ġflu ent
Ġdar ling
Ġiron ed
Ġthread s
Ġinterview s
Ġfrost y
Ġmur ray
Ġsne e
Ġbarb acoa
Ġadvis ors
Ġaffect s
Ġcooper ative
see ing
Ġenroll ment
Ġsem aine
Ġalleged ly
Ġail ments
Ġchaleure ux
Ġappra ised
Ġdeterg ent
disg usting
Ġspeake asy
Ġrepri mand
Ġt rent
Ġc ud
Ġm ieux
Ġp ave
Ġp ied
Ġp iment
Ġd ome
or ated
Ġg w
ve gas
ld r
ur o
Ġso ren
Ġk iel
reat s
op ard
Ġch ub
art z
ind s
com p
lo ading
Ġmo sc
Ġmo lar
Ġaw fully
Ġjo dy
gin es
Ġunderstand ably
Ġdoll s
Ġhung over
Ġer r
Ġmis c
Ġstraight ening
Ġmont ana
Ġtattoo ing
Ġpump kins
Ġsleep y
Ġcoll abor
Ġlux e
Ġboot y
Ġtarget ed
Ġcrit ters
Ġsi u
Ġseal ing
Ġast ronom
Ġtoler ated
Ġcompre hend
Ġhydr ated
norm al
Ġastound ed
Ġnause a
Ġmalfunction ing
Ġcontam ination
Ġblur ry
Ġvick i
Ġnaz i
Ġsib lings
Ġseule ment
Ġstromb oli
c rest
o is
u ating
v ie
Ġb ore
Ġp uffy
Ġto te
Ġe a
Ġre nder
al ib
Ġam ir
Ġshe ila
un ched
Ġsome ones
ra w
Ġloo sen
Ġsp or
Ġcar ter
Ġche yenne
Ġdis rep
Ġpe aks
Ġcha que
Ġmu ay
Ġdefin itive
Ġper plex
ily n
Ġpay roll
Ġmat te
Ġarri v
Ġturn er
Ġban ned
Ġair brush
Ġred s
Ġred ucing
unk y
Ġstor ing
Ġge ars
Ġphotograp hed
Ġdoubt ful
bert os
Ġwinter licious
Ġdraw ings
Ġpin point
Ġfool s
Ġforth coming
Ġshift ed
cl ass
Ġtechno log
Ġnarrow ed
Ġluc as
uu uu
Ġnep hews
bro ken
Ġell iot
cr ast
Ġdete ctor
Ġoverfl ow
Ġuntr ustworthy
Ġveterinarian s
Ġbron ze
Ġtb h
Ġreiter ated
Ġenerg ized
Ġplun ge
Ġservic io
Ġextern al
Ġlimous ine
Ġhurrican e
r ome
t hat
u ate
Ġt icked
Ġf let
Ġb led
Ġp ian
Ġto pper
Ġd ame
Ġn adia
Ġg c
Ġl una
ot ion
at ra
ro y
Ġu mmmm
Ġde ment
Ġfr is
Ġsa b
Ġpro crast
Ġup do
Ġup right
Ġus hered
Ġta bs
Ġman is
Ġover view
Ġpo king
Ġro by
Ġcha sed
Ġsal oon
Ġri ley
os a
ip ers
Ġar mand
Ġtim id
Ġho ver
Ġfo lder
Ġste f
Ġcomm ander
Ġdoor step
ps y
Ġprom inent
Ġstuff s
em a
Ġwom ens
Ġentire ty
Ġsy d
Ġsy l
Ġsw amp
co at
ĠĠĠĠĠĠĠĠ ĠĠĠĠ
Ġmis matched
Ġfore man
Ġheart edly
Ġdra ke
ph o
Ġver a
Ġver ge
Ġbon nes
Ġcarry out
Ġbak ers
aff in
Ġhyg en
Ġhygien ic
Ġray mond
Ġstat ue
Ġslo gan
Ġber ated
Ġminimal ist
Ġuneven ly
Ġtall er
ek w
Ġsuns creen
Ġpediat rics
Ġredo ing
Ġgm c
Ġsubject ed
Ġremed ies
Ġimmac ulately
Ġbisc otti
Ġacqu aint
Ġker ry
Ġpron ounced
Ġstamped e
Ġdigest ive
Ġgroo ve
Ġsustain able
Ġflore nt
Ġcum in
Ġincur red
Ġsuic ide
Ġnodd ed
Ġmalays ian
Ġpuer to
m ine
Ġw ink
Ġs b
Ġp owers
Ġl itch
Ġha le
Ġha pha
Ġre gg
ion ally
ri yani
Ġan to
Ġr uff
Ġco ached
Ġover grown
Ġsp ayed
Ġwa ges
Ġbr ittle
Ġbusiness man
Ġple in
if ty
Ġgl aring
Ġrec lining
Ġap ron
Ġcre ma
Ġmed ica
Ġdisc ret
Ġrepl icate
Ġind igo
Ġhu go
Ġpri ma
Ġconf use
Ġpass er
Ġwall ets
Ġear ns
do or
Ġocc urs
Ġfre aky
Ġgreen ery
Ġx xx
Ġwin ston
Ġphotos hoot
Ġble aching
Ġsense i
la wn
Ġasian s
Ġna ive
Ġill ustr
Ġrac ial
Ġbrid ges
Ġjer seys
Ġdirt iest
Ġsnow board
Ġscar ring
Ġjour nal
Ġpam per
Ġfond ant
Ġacupunct urist
Ġshel ving
Ġgab by
ji ji
Ġkios ks
Ġrou ter
Ġlave en
Ġwithdra wal
Ġmeille urs
Ġloung ing
Ġembr ace
Ġbelitt led
Ġviand e
Ġkier land
Ġintermedi ate
Ġhapha zard
e mplo
g one
n ay
t ions
w ich
y n
in als
Ġg ong
Ġha mm
Ġy y
ro g
Ġas st
Ġam ig
Ġsa ag
Ġsh u
Ġv owed
Ġno one
Ġta ekw
Ġun im
Ġun agi
Ġpo bl
Ġcustom ization
Ġday cares
Ġrest e
Ġpar affin
ens en
Ġfun k
Ġdin o
Ġgr ungy
Ġgir ly
Ġpres erv
Ġspr out
Ġmid i
Ġdecor ator
Ġmaint ains
Ġaff airs
Ġpan ang
Ġbb t
Ġsle azy
land o
Ġpu ree
Ġweird ly
Ġdollar ama
Ġcorn el
Ġfat ig
Ġuncomfort ably
Ġdelight fully
Ġaud rey
Ġaf icion
Ġcro quet
Ġactiv ated
Ġhom est
Ġdeg ener
Ġgolf ers
Ġpier re
Ġcirc ulation
Ġdece ived
Ġjul io
Ġbare foot
tt tt
Ġwre cked
Ġatl as
Ġchap ter
Ġconsequ ences
Ġbudd ha
Ġinsect s
Ġhelm ets
Ġparag rap
Ġconstraint s
Ġcres cent
Ġanat omy
Ġloll ip
Ġbreastfe eding
Ġparale gal
g gered
l isa
l ooks
v onne
Ġf umes
Ġm k
Ġp ab
at ica
Ġme lo
Ġpl s
Ġser ial
Ġlo gan
Ġch loe
Ġta ker
Ġco aster
Ġman que
Ġag u
Ġsp i
Ġsp ong
Ġwa nd
Ġwho a
Ġro les
Ġwell being
Ġrest os
Ġass ignment
og ram
Ġsy nd
Ġran ked
Ġred iculous
Ġprep ay
Ġaccommod ation
Ġprompt ness
ism atic
Ġcu pping
Ġoper a
Ġwood y
Ġmel inda
Ġchur ro
Ġmart ine
Ġrespons ibilities
Ġcher ries
any aki
Ġhous ed
Ġspread s
Ġscar ves
car ri
Ġsquee zing
Ġfalse ly
Ġcav iar
Ġlean ed
Ġplayground s
Ġgou da
Ġbea ver
Ġaffect ing
Ġsucc ul
Ġintrig uing
Ġki wi
Ġanesthes io
Ġara bic
Ġbla zer
Ġgimm icks
Ġdup ed
Ġcrumb ly
Ġprost it
Ġgrandchild ren
Ġphlebot om
Ġsummar ize
Ġadjo ining
Ġopht halmo
b ound
j ah
n ote
o in
Ġt g
Ġa kin
Ġa uctions
Ġa illeurs
Ġw er
Ġw itty
Ġs ips
Ġo olong
Ġf iring
Ġn guy
or thy
Ġin fect
Ġhe ure
Ġan al
Ġse v
Ġk ai
Ġfr at
Ġca bs
un professional
Ġthem es
Ġdis ar
Ġpe ame
Ġri v
Ġres ized
Ġbr ats
we ek
Ġchar ms
Ġvis ite
Ġshow ings
Ġreg us
Ġter i
Ġgr uff
Ġgen res
Ġflo ats
Ġmind y
Ġvac ate
har ds
Ġra ises
Ġdump ing
Ġtap es
Ġmes quite
Ġhaw k
Ġident ifying
Ġaggress ion
Ġdecl ining
Ġund es
Ġfund ing
Ġnuts hell
Ġmur der
Ġreflect ive
Ġsteel es
Ġdistract ion
Ġbroad view
Ġemploy ers
Ġunp acked
ores cent
Ġescal ate
Ġobject ive
Ġalb ums
Ġstrate gies
Ġpossess ions
lar ge
Ġsarcastic ally
Ġchalk board
Ġtaiw an
Ġki jiji
Ġpir ates
Ġannounce ment
Ġming le
Ġbian ca
Ġtorte llini
Ġlore n
Ġdimin ished
Ġautomob ile
fel t
Ġbilli ards
Ġcosmop olitan
Ġpeame al
c as
f ill
f lo
p age
t ake
u ki
Ġw ann
Ġo oo
Ġto ot
Ġn es
or th
Ġe gy
Ġan c
Ġu b
Ġse vent
Ġse lves
Ġse edy
Ġal oo
Ġr ale
Ġam i
Ġam use
Ġv ases
Ġco als
Ġco gn
Ġmo pped
Ġover time
Ġover paid
Ġcar olyn
ig ation
ag a
Ġen f
Ġhelp less
Ġamaz es
Ġchar gers
Ġlong time
med iocre
Ġel bows
Ġsuper st
Ġfres hen
Ġhar mon
Ġdin a
Ġthought fully
Ġsk is
Ġsou per
Ġaut ograp
hen y
Ġhealth iest
Ġcent ric
Ġob ed
Ġsme ar
Ġele gance
Ġstor ms
Ġpepper corn
mb ling
Ġsepar ation
Ġrub s
Ġaf ric
Ġcommon ly
Ġpound ing
Ġimm un
Ġsnow y
Ġident ification
Ġtony a
Ġshout out
Ġsout heast
Ġgum es
Ġdeb orah
Ġow es
Ġcam ry
Ġresto ck
Ġmuseum s
Ġfrost ed
Ġboun cing
Ġvra i
Ġbond ing
Ġmoo se
Ġsoph ia
isc us
Ġdisregard ed
Ġamate urs
Ġtroubleshoot ing
Ġchampions hip
Ġenvelop es
hid den
Ġincent ives
Ġnguy en
b one
d one
m ad
re view
Ġb w
om s
is ons
Ġre aches
Ġbe ige
ke rel
Ġdo able
Ġal k
Ġli able
Ġam c
Ġgo ats
Ġsu prised
Ġtr inity
Ġv on
Ġsta ging
ab ase
Ġfl ames
Ġres erving
Ġper pet
Ġdri er
Ġdri ps
Ġlet down
Ġmar que
Ġmar ilyn
ne a
Ġcor ona
uc ive
Ġsit ters
Ġsweet ie
Ġhu gs
Ġmess aging
Ġsch m
Ġmom ma
Ġcond ucive
cept ional
Ġint ensive
co ffee
do ir
Ġinf ront
li ving
Ġwin ters
Ġcat aly
Ġwest gate
Ġwax haw
Ġbi riyani
Ġuns c
Ġbot an
Ġcell ar
Ġange lic
Ġtarget s
Ġgrad ually
Ġdil worth
Ġadop ting
Ġwalgre en
Ġine ffect
Ġore os
Ġcabinet ry
Ġrely ing
Ġjama ica
Ġuntr ue
Ġvot ed
Ġblizz ards
Ġshed ding
Ġiniti ated
Ġpony tail
Ġhicc up
Ġratt ling
Ġassault ed
Ġclump s
Ġwrang ler
Ġmanchu rian
Ġaran cini
Ġdiscret ion
c ro
e re
f our
j or
p id
Ġa ven
Ġi pl
Ġs izable
Ġo ss
Ġc n
Ġp orn
Ġd ic
Ġg t
Ġl ured
Ġh st
st a
Ġpl asma
Ġus able
Ġta is
Ġqu ik
Ġkn ack
Ġloo s
Ġcar lton
Ġche ster
Ġdis k
itt on
Ġdi ver
Ġri vals
Ġcou pe
Ġel m
Ġimp lying
Ġsha warmas
Ġcho is
Ġfo ils
Ġav a
Ġap ric
Ġbill ion
sp ot
Ġshort en
Ġchild ish
Ġpres ume
Ġsatisf ies
Ġequ ip
Ġvo ila
wor ld
Ġbra ided
Ġhy dra
Ġrock in
Ġsouth western
Ġpresent ing
Ġwood bridge
Ġscam pi
Ġbou doir
Ġaud it
Ġris ky
Ġrac ism
Ġiron ing
Ġstat ues
Ġprof ound
Ġwild ly
Ġattract s
Ġfund ament
Ġoccur ring
ww w
Ġreass ure
Ġsin cer
Ġconnect s
Ġsher ri
Ġstruct ures
Ġinject ed
Ġbrad ley
Ġoptomet rists
Ġremed ied
Ġcooper ate
Ġfer r
Ġtransl ate
Ġpartners hip
Ġawe ful
Ġinstrument al
Ġreop en
Ġinvolve ment
Ġsnapp y
Ġdrool ing
Ġcomed ian
Ġclou ds
Ġrejuven ated
Ġaccue ill
Ġfingerprint s
Ġfacilit ate
Ġdetermin ing
Ġicon ic
Ġrif le
Ġrearr anged
Ġmench ies
Ġrhe um
Ġdat abase
Ġseper ate
unbeliev able
Ġaccred ited
Ġpne um
Ġblowd ry
emplo ye
Ġegy pt
b asa
d u
v ic
v ar
Ġi phones
Ġg ino
id as
Ġso iled
Ġde ll
Ġwh ining
Ġk c
Ġfr antic
Ġout look
qu ent
qu est
qu el
Ġcon rad
Ġqu ilt
ment ed
Ġun not
Ġun ann
Ġpo sed
Ġro che
Ġper u
Ġmon k
Ġfin er
Ġref usal
Ġpat ti
Ġrep ro
Ġpar all
Ġgu ava
Ġfree bies
Ġsec l
Ġemplo ys
Ġprod uc
Ġspecial izing
Ġter ror
uc ca
Ġgr ated
Ġclass mates
Ġside walks
Ġsou ff
ew orthy
Ġpri mer
Ġcal f
Ġran king
Ġfine ly
ched uled
Ġed dy
Ġed wards
Ġface lift
Ġneg at
ots u
Ġinf amous
Ġunique ly
Ġdra b
Ġmother board
Ġid s
Ġenvironment ally
ath om
Ġprescri bing
Ġforget ful
Ġgrow ler
Ġfell as
Ġtar ot
Ġmood y
Ġger r
rid ges
Ġdisappe aring
Ġos so
Ġclim bed
Ġguard ian
Ġtoss ing
Ġbubb ling
Ġexhib ition
Ġexhib ited
Ġpint o
Ġwhim s
Ġliz ard
Ġcass andra
Ġyar ns
Ġrevol ving
Ġadministr ator
Ġnewsp apers
Ġvul gar
Ġheap ing
Ġdisgu ise
Ġswan ky
Ġpavil ion
Ġrepet itive
Ġdisin fect
Ġextravag ant
Ġroby n
c ity
n ant
p one
r ine
r ication
v ana
w ait
Ġs ri
Ġf att
Ġm ien
Ġn s
ing ue
Ġha ley
Ġe cc
Ġam a
Ġout comes
Ġsh oo
Ġup lifting
Ġma it
Ġma ui
Ġman sion
Ġsta ke
Ġcall ous
Ġag ave
Ġen ab
Ġsay in
Ġtim othy
Ġchar ismatic
Ġho lt
Ġshould nt
Ġdri pped
Ġdri lls
oy d
Ġcheck ups
Ġfront s
Ġrel ation
Ġwater proof
Ġpri us
Ġstr ung
Ġson ora
Ġgar rett
Ġred es
Ġinv ites
Ġsn ide
Ġz oe
Ġstri king
Ġsad dle
Ġvo ided
sh o
Ġrese mble
Ġsick ness
Ġpu is
Ġcamp aign
Ġdisplay ing
Ġmedic ines
Ġmaster card
Ġcy cles
Ġlit tered
Ġdar ken
Ġtam ara
Ġunw ra
Ġsoy a
Ġsteam er
Ġdestro ying
Ġvin ny
Ġadminist ered
Ġrect ang
Ġenthusiastic ally
Ġleaf s
Ġbritt ney
Ġtourist y
Ġrh in
Ġatl antic
Ġsciss or
Ġcontrib uted
Ġdos age
Ġdisgrace ful
Ġmalt ese
Ġenthusiast s
Ġabsor b
Ġsci atica
Ġcongest ed
Ġpars ley
Ġnotor ious
somet imes
Ġcompat ible
Ġacce ler
appa rently
Ġartif acts
Ġspart an
Ġmedica id
Ġtaekw ondo
Ġunann ounced
d in
j er
n ights
o ster
p ay
Ġt acked
Ġw s
Ġb ff
Ġd h
Ġl enders
it ious
Ġst unk
Ġse b
Ġde ci
Ġfr azzled
Ġca le
Ġall ied
Ġpro ff
Ġab normal
op ita
Ġta me
Ġco ca
Ġle gg
Ġman ge
Ġen gines
Ġpe aches
Ġmin ivan
av ana
Ġac rob
Ġtell ement
be er
Ġpar ano
Ġfres hener
Ġgl ac
Ġcheck in
Ġgre gg
Ġkid die
Ġste als
Ġter rain
Ġass ets
bo d
Ġexc alib
Ġaut h
hen sion
Ġran ger
Ġhope less
Ġbox er
Ġbrand ing
Ġz im
Ġcompet itions
Ġcas hews
Ġyog i
Ġmis led
Ġlim es
Ġdesp ise
Ġbal ances
ton ight
Ġproject or
Ġprogram med
Ġant iqu
Ġune mplo
Ġtemp t
Ġrefres her
Ġdim ension
Ġric hards
Ġund one
Ġscall ions
Ġshampoo ed
Ġbust ers
Ġslee per
Ġko i
Ġradi ant
Ġyuck y
Ġelectron ically
Ġintent ional
Ġcass ie
Ġprot est
Ġsimpl er
Ġsalv ation
Ġgrain y
Ġpom p
Ġaband on
Ġkits chy
Ġdomino es
Ġwid th
Ġpron ou
Ġglor ified
Ġumbre llas
Ġinfin iti
Ġmast ered
Ġtus can
Ġcollap sed
Ġgon z
Ġkle in
Ġappla ud
Ġmcg ill
Ġwarri or
Ġgrist le
Ġcinn ab
Ġvolcan o
Ġflorent ine
Ġcornel ius
Ġsuccul ents
c hel
e ye
f ries
m aker
n ier
w o
y el
Ġf oss
Ġf etch
Ġf iction
Ġd ud
Ġn ude
id y
Ġdo bson
Ġso cket
ct omy
Ġlo pez
Ġpro long
Ġv ieux
Ġch ou
Ġcon nor
Ġcall back
Ġcl int
Ġclean ser
Ġcome back
Ġfl uct
Ġrest oring
Ġtake away
Ġper i
Ġright fully
Ġtim my
Ġho isin
gg les
Ġref or
Ġunder going
Ġput t
ert ime
Ġrec ruit
Ġsho vel
Ġcor al
Ġbas kin
Ġsou ri
og is
Ġcal ib
Ġlate x
ule mon
Ġgri my
Ġz ack
Ġann ette
Ġpaint ball
Ġra ul
Ġra ven
Ġble m
ini est
Ġhospital ized
Ġpad ded
Ġcancel ation
Ġcart ridges
nowled geable
Ġlic ence
char d
Ġbout on
Ġric ardo
Ġkat y
Ġkat rina
Ġinterview ing
Ġquarter ly
rr r
Ġmagn et
Ġviny asa
Ġroo fer
Ġhan na
Ġannou n
Ġtransl ation
Ġbrun o
Ġwoo hoo
Ġinflu enced
Ġunapp eal
Ġattent e
Ġbern ie
Ġrais ins
Ġpepp ery
Ġasi ago
Ġelephan t
Ġunsweet ened
Ġamig os
a uc
h ired
o ked
Ġc oney
ha ke
Ġn ana
ing ing
at us
Ġbe nder
Ġnot eworthy
Ġat v
Ġj avier
pp a
se ems
Ġr ation
Ġtime less
Ġch u
ks w
Ġcall us
Ġover st
Ġwa res
Ġpe i
ud y
Ġro bbie
Ġwell ington
Ġdi aled
Ġtry on
Ġclean sing
Ġimp lic
be es
Ġnight stand
Ġemp owered
Ġfres co
Ġbur les
Ġban chan
Ġgener osity
Ġdress ers
Ġtrans m
Ġped ro
Ġje llo
Ġsumm ertime
Ġfran co
Ġmouth ful
Ġwax er
Ġbeat les
Ġscam mer
Ġairport s
Ġindian s
Ġsil ic
Ġuns ett
Ġham ilton
Ġcolour ful
Ġrenov ate
Ġdust ing
Ġmal es
Ġsymp hony
Ġsept ic
Ġbraz il
Ġip ads
Ġkay ak
Ġster oid
Ġner d
Ġshr unk
Ġesthetician s
Ġdisag reed
Ġtradition ally
Ġell ie
Ġelectrician s
Ġbookstore s
Ġbru ises
with out
Ġree ks
Ġdecre ase
Ġconse cut
Ġphill ips
Ġtoen ail
Ġnas car
Ġclou dy
Ġtonk otsu
Ġsemin ar
Ġflake y
Ġsmud ged
Ġslopp ily
Ġfemin ine
Ġremedi ation
Ġdisorgan ization
Ġpion eer
Ġlitch field
Ġexcalib ur
Ġunappeal ing
a ving
j ames
k rist
l ink
o lla
w an
Ġb d
Ġp ug
Ġd ues
Ġd ots
ar n
Ġre i
Ġbe am
Ġy vonne
Ġst aining
me red
Ġcom o
Ġca pe
Ġsh uts
op ia
op ath
Ġle ver
Ġche mo
Ġapp oint
iz a
Ġcl ums
Ġpre ca
Ġdi ets
ard i
Ġdef ro
Ġper o
Ġext ending
Ġsm ar
Ġpa ver
Ġbl ing
ought on
Ġcr um
be lly
Ġsha h
Ġsl ime
Ġsl athered
ans as
Ġhar bour
Ġmar ry
Ġcho ir
Ġsho ving
Ġhard y
Ġsou ls
Ġhus ky
Ġsmo k
Ġban ged
Ġear thy
Ġboy z
Ġdon ne
Ġpet its
Ġtan go
Ġforg iving
Ġshir ley
Ġmc ca
Ġstress ing
Ġsepar ates
Ġvol ksw
Ġdepend ent
Ġroast ing
omb re
Ġconfir ms
Ġliqu ors
Ġalter ing
Ġnut ty
Ġplant ar
Ġdiss app
Ġron nie
ann ies
Ġkrist i
Ġcul ver
Ġstew ed
Ġsoc al
Ġbik er
Ġargu ably
Ġcompress ion
Ġtwe ak
Ġaward ed
Ġremar ked
Ġeconom ic
bu ild
Ġmarg aret
Ġcalc ulated
Ġunpro fess
Ġube reats
Ġphysi otherap
Ġalleg heny
Ġtm j
Ġornam ents
Ġwobb ly
mmet rical
Ġintox icated
Ġheadsh ots
Ġmetrop olitan
Ġflab berg
Ġjacqu eline
author ized
carri age
Ġgerr ard
f en
i ated
l ady
s pe
Ġf us
Ġc f
Ġm ister
Ġp oof
en ade
on ies
Ġg uts
Ġl us
Ġl ana
Ġha z
Ġe k
Ġre all
ac ie
Ġmy ers
Ġst umbling
Ġan ime
Ġpl ais
se an
ter ra
Ġwh irl
Ġti a
Ġk ib
Ġk atherine
Ġwill ough
Ġtr icked
el ing
Ġkn uck
Ġen qu
Ġen forced
Ġro c
fe ld
Ġbus s
ue z
Ġdec ay
Ġmon a
Ġmon ona
Ġwal ter
Ġperson nes
ian ne
Ġpar cel
Ġrec liners
Ġter ra
Ġgr ing
Ġtown s
Ġfair way
Ġfair mont
Ġcal ipers
Ġsoup y
Ġmach in
Ġboy cott
Ġrespect ive
Ġcock y
Ġrand all
Ġev ict
Ġcart il
Ġham achi
Ġcro st
Ġappear ances
Ġol ga
Ġcelebr ities
Ġsav or
Ġsav oure
every time
Ġboot ies
Ġstomach s
Ġconv o
Ġsex ist
Ġpor c
Ġshampoo s
Ġep ox
Ġtermin ate
Ġwarn ings
Ġaccompan iment
Ġll oyd
Ġros en
Ġted ious
Ġaggrav ating
Ġminds et
Ġbicy cles
Ġproport ion
Ġphill ip
Ġeyeg lass
Ġreiter ate
Ġcomed ians
Ġsurve ill
Ġweap on
Ġmistreat ed
Ġpiment o
Ġdement ia
Ġsincer ity
Ġburles que
d irty
o per
Ġt k
he e
Ġs ult
er als
Ġp han
ve z
Ġe e
Ġy ams
Ġal oof
Ġk mart
Ġr otted
Ġsa iling
ul i
Ġall a
Ġab road
Ġta ire
Ġma zing
Ġover sell
ag on
Ġpe ine
Ġpre occupied
Ġdec ks
Ġbr icks
Ġext rem
Ġke ller
Ġbl ush
Ġsmall ish
oy er
Ġsha ken
Ġsl ips
Ġhon orable
Ġprom enade
Ġtown ers
Ġlas ers
Ġtrans itions
Ġfan ci
Ġdou la
Ġz ing
Ġtotal ing
Ġnon stop
Ġbart ending
li ved
Ġben n
Ġcat ches
Ġhy ster
Ġpu pp
Ġknowing ly
Ġindian a
Ġcart on
Ġspeed way
Ġfinan ced
Ġqual ms
ari os
Ġimm une
Ġpi per
Ġq c
Ġskill ful
Ġdiss ervice
Ġfle as
Ġcult ures
Ġprevent s
Ġkara age
Ġexhaust ing
inte gr
Ġvalid ate
Ġshel by
Ġcappucc inos
Ġmargin al
slow est
Ġengra ving
Ġseren ity
Ġaccue il
Ġprett iest
Ġrobb ins
Ġschw artz
jess ica
Ġcoincident ally
Ġterrit ory
Ġsoren ess
Ġspor ad
Ġnegat ivity
b ine
i at
s i
s un
Ġ xtreme
Ġc ib
Ġb ong
ha pp
Ġd b
Ġg ens
Ġg ator
ot ine
Ġwe i
Ġh ier
Ġst oughton
ur ry
Ġde anna
Ġde mi
Ġk art
Ġcom ida
Ġser ge
ul se
Ġsu ction
Ġsu cking
Ġco al
Ġle vi
Ġcomp ly
Ġcan op
Ġloo oo
Ġche ro
Ġapp ort
ag s
ide h
act ed
own ed
Ġac ute
Ġclo ver
Ġsha bu
Ġreg ina
Ġgl imp
Ġdisc er
de ar
Ġdet ached
Ġdry clean
Ġsch ol
Ġstr atos
Ġair bag
Ġseem ing
Ġmid day
Ġtan ned
Ġcharl ene
Ġpub lished
Ġmouth water
Ġven ez
Ġven eers
Ġagree ments
Ġregister ing
ograp her
Ġpittsbur g
Ġfinal ized
fr ank
Ġchir ashi
Ġpromot es
Ġash tr
Ġsuck ers
Ġapplic able
Ġplant ing
Ġrefriger ation
Ġhun an
Ġger ber
Ġseal ant
Ġdisappe ars
ais er
pass ed
Ġgrandmother s
Ġpist ol
Ġdistrib ution
Ġvictor ian
Ġsaf est
Ġnavig ating
Ġdys on
Ġtaqu itos
Ġbry ant
Ġnast iest
Ġconvey or
Ġhans en
Ġtriang le
Ġmisrepres ent
Ġintric ate
Ġtrib ute
manage ment
Ġastronom ical
Ġalk aline
Ġlegg ings
Ġwillough by
Ġsurveill ance
g ave
y aki
Ġa am
Ġc v
Ġb h
Ġb erg
Ġg alement
ll es
Ġl ma
al ian
Ġfr itter
Ġtw ent
Ġca it
Ġsu ll
il ight
Ġup mc
Ġserv i
Ġfe lla
lo ss
Ġknow le
Ġun le
pt u
Ġdis dain
Ġad ap
Ġpre y
Ġmin nes
Ġbo a
Ġmon st
Ġins ulated
Ġdri es
Ġbu ick
Ġprov idence
Ġmed ically
Ġname ly
Ġhead board
Ġsy ring
Ġmid wood
Ġbri anna
Ġstri ppers
Ġtext ured
Ġx o
Ġx ox
Ġsave urs
Ġvo ca
Ġappe aring
het ics
Ġra pt
Ġvi king
Ġsun flower
Ġproce eding
Ġtrou ver
Ġphoto booth
ught y
Ġregret ting
ai res
Ġpal atable
Ġnut rit
Ġome ga
Ġbomb arded
Ġrack et
Ġjoy ful
Ġcollect ive
Ġcollect ors
Ġflag staff
Ġflag ship
Ġprevent ing
Ġadvertise ments
Ġdeb ated
Ġvel ve
Ġrehe at
Ġko fta
Ġrod ney
Ġunp acking
reg ular
Ġdistrib uted
Ġcann olis
Ġcongr ats
Ġfid el
Ġresc ues
Ġmarshmall ows
Ġabsor bed
Ġlul ulemon
Ġaston ishing
Ġbrack ets
Ġsuperv ised
Ġdisli kes
Ġinevit ably
Ġbry ce
Ġmerc ury
tal k
Ġeste em
Ġtepp anyaki
Ġjeun er
Ġmiraculous ly
Ġoutwe igh
Ġphili pp
Ġcori ander
Ġinsuff icient
Ġsnat ched
Ġmetall ic
Ġkiel basa
Ġpneum onia
Ġparall el
Ġcartil age
c ule
s han
t v
v rir
w urst
Ġi q
Ġc ici
or ig
ll ers
ll ies
it able
ac ia
ro ld
ad i
Ġso cially
Ġj k
Ġk bb
Ġam id
Ġam usement
ch t
Ġout line
Ġgo s
Ġmo lasses
Ġwa gy
Ġun iqu
Ġun ruly
te c
Ġcha ll
Ġcha st
Ġri e
Ġsix th
be ca
cha in
Ġrec ital
Ġbur lington
Ġopt ician
Ġbat hed
Ġstre ak
Ġcal vin
Ġdep lo
ex ceptional
Ġboo bs
Ġgas p
Ġsqu ish
Ġmark ers
Ġlat ino
Ġsleep s
Ġlemon y
Ġsmoke house
Ġdisappointment s
Ġprogress ively
Ġreply ing
Ġoven s
Ġbehavior al
loc al
Ġinsult s
Ġsole il
Ġrasp berries
Ġalle z
Ġresist ant
Ġdisab ilities
Ġunin formed
Ġinsert s
Ġinsert ed
Ġclip board
Ġgarn ished
Ġborrow ed
Ġbord ering
Ġhagg le
Ġscra ps
Ġgoof y
Ġsubcontract ors
Ġmoisturi zer
Ġclaw s
uper vised
Ġrp m
Ġbecu ase
writ ing
Ġsyd ney
Ġafric a
Ġineffect ive
Ġrheum ato
Ġsecl uded
Ġglimp se
Ġminnes ota
Ġwagy u
r at
w ant
Ġa ins
re ci
Ġo val
Ġd ous
en ger
ic rous
Ġha ting
at ers
Ġre up
Ġbe cca
oo s
se ver
Ġk ait
Ġfr itt
Ġgo in
Ġca val
op en
Ġle ban
Ġle chon
ig s
Ġpre lim
Ġmin eral
igh ters
Ġdi pl
Ġres ent
Ġrest art
pl aces
rent ed
Ġinc ase
Ġbad ge
Ġpat ri
oy a
Ġgu ad
Ġsk ull
Ġcomm ands
Ġprob able
co pe
ĠĠĠĠĠĠĠĠ ĠĠĠĠĠ
Ġbow s
Ġpotato e
Ġstri ves
Ġskin ned
Ġapolog izes
Ġclub bing
Ġchildren s
Ġver ifying
Ġble nding
Ġnic otine
Ġforget s
Ġmer ch
Ġtrou v
Ġuns upervised
Ġpal ak
Ġtight ness
Ġsmart phone
Ġalex a
Ġtheat res
Ġmur al
Ġdur ham
Ġgm ail
Ġbik ers
Ġhaul ing
Ġlun che
Ġjudgement al
Ġhairstylist s
Ġsanit ize
sim ple
Ġindiffe rence
Ġcolumb ia
Ġmb ps
Ġjag uar
Ġchickpe a
Ġslur pe
Ġpla que
Ġunke mpt
Ġlud icrous
Ġfundrais er
Ġversat ile
Ġchate au
Ġpobl ano
Ġsynd rome
Ġdisar ray
Ġrale igh
Ġchero kee
Ġstratos phere
Ġuniqu eness
Ġleban on
d ou
Ġ xt
Ġt iniest
Ġi dle
Ġw ally
Ġb ha
Ġb inder
ha us
Ġn ets
Ġnot ably
id ad
me at
Ġat rium
Ġpl o
Ġhad nt
Ġor lando
Ġal amo
Ġr oth
Ġam ps
Ġtw ilight
Ġwor m
Ġall ure
Ġus her
Ġab ra
Ġab ound
Ġv ue
Ġle ction
Ġte avana
Ġche ss
Ġun fore
Ġcustom ary
Ġfl ipp
Ġhapp iest
Ġhair y
Ġcont ra
Ġcr inkle
Ġimp rom
Ġmar che
Ġfree bie
Ġawesome ly
Ġav ac
Ġcor ds
Ġfull est
Ġsweet ener
Ġaut ism
Ġmor ris
way ne
Ġinter fe
Ġson oma
iv ating
gr ad
Ġoh h
co ver
do ctor
Ġdist aste
Ġrespect ively
Ġlim b
Ġaccess ibility
Ġstrip es
Ġge off
Ġmel ty
Ġacknowled gment
Ġsca nd
Ġill um
Ġcompliment ing
Ġgolf er
Ġstupid ity
nde z
Ġbooking s
Ġblock b
Ġrob es
Ġdar lene
Ġprof iles
Ġspir al
wal king
Ġrev amped
Ġesca pes
Ġah s
Ġanth rop
hard t
Ġrag s
Ġnavig ation
Ġsuperv ise
Ġrox y
Ġcontam inated
Ġunde rest
Ġtonk atsu
Ġaccus ations
Ġcoy ote
Ġsweats h
Ġrepr int
Ġarbit r
Ġcorrid or
Ġarmand o
Ġflabberg asted
b ooking
j ul
l is
o les
Ġt nt
Ġa hh
Ġo aks
Ġp br
at en
Ġwe ther
ur ally
st ones
Ġat ms
Ġse als
Ġr ails
ch in
Ġsu d
Ġlo at
Ġup hold
red ict
Ġta z
Ġta hoe
Ġcon fort
Ġma ur
Ġsp ike
Ġun res
Ġun fl
Ġun authorized
Ġad ren
Ġsc umb
Ġbet ting
Ġbet hany
Ġbo fa
Ġtri mm
Ġfin ed
Ġret ract
Ġcr ane
if iable
ap h
Ġla it
Ġreal m
Ġexpl ored
pr act
Ġwalk ways
lle ct
Ġsoon est
Ġinform al
Ġear ning
Ġexp resso
co ck
Ġmod ification
Ġorgan izers
Ġcreat ures
li hood
Ġmac kerel
Ġsort ing
Ġadm issions
Ġble h
ang a
Ġmer ingue
Ġmag as
Ġeast side
Ġthri ll
Ġfash ions
Ġking ston
Ġsus ie
Ġdece ased
Ġstom ping
Ġpi ri
Ġnews let
Ġjeff rey
Ġelev ation
Ġlibr arian
rup ulous
Ġesca ped
Ġvine gars
Ġmur als
Ġgig i
Ġcott a
Ġtat aki
Ġflash light
Ġgou ged
Ġtent ative
Ġpant ies
lan ger
Ġjill ian
Ġenro lling
Ġunreal istic
Ġrin sed
Ġviv ian
Ġfas ci
Ġjum per
Ġcolon oscopy
Ġsculpt ure
Ġtaqu eria
Ġstereoty pical
Ġrhy th
Ġsard ines
Ġsear ches
Ġlov ese
Ġchil is
Ġmartine z
Ġfundament als
Ġparano id
Ġsmar ter
Ġepox y
Ġnutrit ious
Ġreup hol
f re
f illed
j enn
l ia
n ar
s chool
w ife
re et
Ġf oyer
Ġb il
Ġn icks
or ns
on om
Ġg ill
Ġe up
Ġin coming
Ġre r
Ġth res
Ġh m
Ġu o
ad vert
Ġus aa
Ġv ite
ine a
Ġcon na
Ġqu oi
Ġco ors
Ġle ches
Ġover loaded
Ġafter thought
Ġpo ll
ien cies
Ġcha at
Ġper ceived
Ġbre nd
Ġel k
Ġel ated
Ġcheck er
Ġla ks
Ġcho ck
Ġgre as
Ġass ump
Ġsk et
Ġed m
Ġpark dale
Ġconvers ing
Ġdra ught
Ġamb ass
Ġpower ing
Ġcro p
Ġpin ned
Ġcand ace
Ġobs erving
Ġprogress ing
Ġprof anity
Ġrecogn izes
Ġrom a
Ġkar ahi
Ġcru iser
Ġviol ence
Ġpam ph
Ġwhis per
Ġpun ishment
Ġvast ly
Ġsed an
Ġrefin ishing
Ġneut ered
Ġbagu ettes
Ġmoj itos
Ġzomb ies
disapp ointing
Ġunse en
dri ve
Ġcrock er
Ġbatt ling
Ġfert il
Ġalp ine
Ġalar ming
Ġreck less
Ġscoff ed
Ġcatar act
Ġwaa ay
Ġuninv iting
Ġparagrap h
Ġphlebotom ist
Ġoss ington
Ġapric ot
employe es
Ġseb ast
Ġlus cious
Ġimprom ptu
g ra
l ich
n ants
r p
s us
t ight
v ine
Ġ ers
Ġt ens
Ġo ve
Ġf end
Ġm vd
Ġn ir
or ay
Ġha cked
Ġth ur
Ġth irst
et ers
Ġme z
Ġj ig
Ġde ed
Ġde ff
Ġk aiser
Ġout lined
Ġca vs
Ġab t
Ġv ons
Ġv amp
Ġfri zz
Ġmo ons
ien ces
Ġcl icking
Ġad hesive
Ġpre cooked
Ġph y
Ġbr ains
Ġhair line
Ġinc ess
Ġret ina
Ġthing y
Ġste ele
Ġsim mons
Ġmat es
Ġest rella
Ġcard inal
Ġgrou chy
Ġbat ches
Ġcur ried
Ġair craft
Ġpost age
Ġeye ing
Ġlear ns
Ġgreet ings
Ġgra ft
Ġsimple ment
Ġblack jack
Ġposit ivity
Ġbuff ing
Ġlab e
Ġmc n
Ġmer maid
Ġkey pad
Ġwood bine
Ġbou langer
Ġblow outs
Ġdepend ed
Ġdisp ose
Ġminor ity
Ġdirt ier
fl ow
Ġvap es
Ġconduct ing
gl ad
Ġoblig ations
Ġrail ing
Ġcaul king
Ġrefin ished
Ġdiscrimin ate
Ġtz u
Ġdomin ican
Ġshaving s
Ġcs r
Ġrango ons
Ġmisin formation
Ġfright ening
Ġinstinct s
Ġnitro gen
Ġnewcom ers
qual ified
Ġbeign ets
Ġshutt les
Ġunic orn
Ġburr ata
Ġhick ory
Ġloiter ing
Ġfatig ue
flo or
Ġdiscer ning
Ġains i
c et
h d
p ie
u pt
Ġw f
Ġf athom
Ġb ount
Ġm out
Ġp ent
Ġp itched
Ġn un
as so
Ġl ard
it ous
om o
Ġe ld
an che
Ġwe althy
Ġnot ion
Ġh c
Ġh t
Ġst ip
ust ers
Ġal add
Ġk as
Ġk rav
qu ette
qu oise
han i
ree ze
Ġv ows
Ġpr ic
Ġta j
Ġcon sol
Ġun sol
Ġen se
act ually
Ġdi alog
Ġjo gging
ile en
Ġfin als
gg gg
Ġpat isserie
Ġav alon
ne ed
Ġswe ars
Ġcheese cakes
Ġbreak age
Ġgen es
sp a
Ġmess enger
Ġstre aky
Ġwind sor
Ġstr ud
man y
Ġtrain ee
Ġcond omin
Ġgy ne
Ġdoll op
Ġear ring
co de
Ġhands hake
Ġz iti
Ġpet erson
Ġmix er
Ġconvers ion
Ġba ha
par able
Ġbutter f
Ġpresent ations
Ġkey ed
Ġtoast y
Ġsalt iness
Ġdu vet
Ġhass led
Ġscen arios
Ġdest inations
ob a
Ġrev amp
Ġkar la
Ġvib r
Ġbust ing
Ġcere als
Ġsno bs
Ġcancell ations
Ġdistract ions
gu ards
Ġprinci ples
Ġindic ative
Ġpitc hes
Ġvacc ination
Ġchal ked
Ġcheeseste aks
Ġslush y
Ġretrie ved
Ġweigh ing
Ġsaf elite
Ġobserv ations
Ġsr p
Ġpert aining
Ġfrapp e
Ġfragr ances
Ġgimm ick
Ġfeather s
Ġpersist ed
Ġtract or
Ġinspir ational
Ġexcurs ion
Ġplast ered
Ġtrag ic
Ġanesthesio logist
Ġcataly tic
Ġunsc rupulous
Ġvolksw agen
Ġmachin ery
Ġmouthwater ing
Ġaam co
Ġtwent ies
Ġunfore seen
Ġassump tions
k ki
n eth
s ushi
Ġa hem
Ġs ien
Ġf um
ha ir
Ġd icks
Ġn ba
Ġg ly
Ġg im
om es
Ġre occ
Ġbe be
Ġst ung
ur ists
ke lly
Ġde arly
Ġsa ks
Ġtime lines
Ġta pped
Ġcon j
Ġle ases
Ġcomp s
Ġun m
Ġdis sol
Ġcustom izable
Ġcl ipper
ure en
Ġbet s
Ġamaz ement
Ġbo bb
Ġbo iler
Ġtri age
Ġho ard
gg le
Ġbre ach
Ġret arded
Ġunder cut
Ġmanag ment
Ġfresh ii
Ġcho co
Ġpic c
uc ci
Ġmed ley
Ġcol umn
Ġmor als
og en
Ġcream ed
Ġinter ven
Ġfac ade
Ġstre wn
Ġstre aming
Ġtrust y
Ġgri m
Ġthin ned
Ġdan k
Ġflow s
Ġfore c
Ġfore see
Ġfab rication
Ġcarpet ed
Ġcrust s
Ġcop ious
Ġtur nt
Ġsocial ization
Ġbooks he
Ġinvest or
Ġlob sters
Ġship ments
Ġbuck le
Ġmicro brew
Ġbump ers
Ġviol ently
Ġearn est
Ġmasse uses
Ġbeard ed
Ġemphas ized
bre aking
Ġhay den
Ġax e
Ġgin ormous
Ġglam our
Ġreact ed
Ġdisney land
Ġvu itton
Ġhagg ling
Ġvert ical
Ġstab il
break fast
Ġpredict able
Ġnouve au
Ġfert ility
Ġmauv ais
Ġdizz y
Ġnash ville
Ġply wood
Ġunst able
Ġboe uf
Ġchub by
Ġunprofess ionally
Ġcondomin ium
l est
l ab
p henomenal
u ition
u rig
Ġc iders
Ġm n
Ġm ls
Ġp he
Ġp se
Ġd l
Ġd ary
Ġg ow
ic ited
ver te
ly sis
Ġme cca
Ġu pped
Ġde met
Ġal es
Ġk ah
Ġr ally
am ics
Ġv oy
Ġback st
Ġch om
Ġch ilies
Ġco log
Ġro aster
Ġcha ise
Ġac ct
Ġke urig
Ġtri pped
Ġret rou
Ġcr ummy
Ġimp ulse
Ġlook in
Ġbu gging
ub ar
Ġreal izes
Ġcra ps
Ġwo d
Ġpot ter
Ġstud s
Ġstreet car
Ġwall eye
Ġstra pped
Ġliter ature
Ġequ ity
Ġpan ko
Ġinf ra
Ġflow ed
Ġmechan ism
Ġra j
Ġvi able
Ġprint out
Ġweird est
Ġtend ency
Ġtur quoise
Ġut i
bed ded
Ġbenef ited
Ġtight ening
Ġinex pl
Ġill usion
Ġpin ched
Ġpier ogis
Ġaug mentation
Ġnap ole
Ġdrug store
Ġlangu ages
Ġship s
pleas antly
Ġpor chetta
Ġmicro soft
Ġbust er
Ġou vert
Ġron ald
Ġvolunte ering
Ġprofit able
Ġshel ters
Ġunp redict
Ġbutcher s
Ġflash y
Ġrum or
Ġrab ies
Ġsucce eded
Ġank les
Ġresource ful
bird s
Ġaffe ction
Ġsust ained
Ġobsc ene
Ġchore ography
Ġpd f
Ġturt les
Ġrox anne
Ġpec os
Ġdesi ree
Ġaustr alia
Ġpriorit ize
Ġpout ines
Ġorch id
Ġsubt ract
Ġflet cher
Ġrefor mer
Ġlma o
a ways
e c
j our
s et
s ie
u k
Ġw k
Ġc erv
ou ch
Ġn uff
it ate
ic ating
Ġha rold
Ġe ug
le g
Ġth ump
Ġbe v
Ġh oop
Ġme ager
Ġdo om
ain ting
Ġpr ada
Ġcomp osed
ks hire
Ġord inaire
Ġsp ills
Ġpe ll
Ġad ored
Ġdel is
Ġac res
Ġway yy
Ġway yyyy
Ġmon ogram
Ġdown er
ason ably
Ġbl ames
Ġshow ered
Ġshow ering
Ġret ention
Ġgi bson
ol ved
Ġcho pping
ash ley
Ġcor olla
Ġdoor man
Ġplan ks
Ġplus es
Ġvar iable
Ġsub d
Ġmom o
Ġdam on
Ġexp ose
Ġsn icker
sh ould
Ġfran ks
Ġcorner stone
Ġpu ri
Ġeff ing
Ġtoast s
Ġwide ly
Ġuns ur
Ġinvest ments
Ġdim sum
cent er
Ġlaund ered
Ġprofess ors
Ġprof esional
Ġcarol ine
Ġunc ont
Ġwitness es
Ġou i
Ġgradu ating
Ġminus cule
Ġcel ui
Ġvalid ated
Ġconfront ation
Ġtransition ing
Ġlex i
Ġtes ter
Ġsoph ie
Ġbound s
Ġcp ap
Ġblunt ly
bul ary
Ġfract ured
Ġfili bertos
Ġstrengthe n
Ġinflamm ation
Ġrook ie
Ġthorn hill
Ġdak ota
Ġaficion ado
Ġunwra pped
Ġcinnab on
Ġvoca bulary
b ol
c us
p u
t ons
he ather
Ġm its
Ġm ik
Ġn g
Ġin her
Ġy ama
ro bert
ro ads
st ration
Ġdo le
Ġse nder
Ġk ansas
Ġli mon
Ġfr ug
Ġshe lley
Ġab dom
Ġtr ough
Ġv ivid
Ġpr ides
Ġany place
ick ley
ick ering
Ġma ha
Ġoff re
Ġkn ights
Ġpe ux
ud er
Ġnever mind
Ġcl i
Ġcl ad
Ġsal ts
ond ition
Ġfl ound
Ġrest ara
Ġdec ked
Ġpa let
Ġcare lessly
Ġcr ud
Ġunder arms
Ġsuper f
Ġpar as
Ġent ers
Ġbur gl
Ġcor ral
Ġhard ship
Ġgr ams
pr it
Ġcost a
get ting
Ġmed io
Ġlight ed
mosp here
ĠĠĠĠĠĠĠĠ ĠĠĠĠĠĠĠ
Ġfre ind
att ended
Ġsad ness
Ġbody work
Ġconst it
sh ort
cre w
Ġden ial
Ġev ac
Ġacknowled ges
Ġbrew ers
Ġplat forms
Ġrac quet
Ġcombin ing
Ġkill ers
Ġunac com
Ġblast ed
Ġpatron ized
Ġach ing
Ġdil uted
Ġidiot ic
Ġsubstit ution
Ġcc w
Ġaunt ie
Ġsubject s
Ġder rick
Ġdise ases
Ġwy nd
Ġaim lessly
Ġpoo rest
Ġdor othy
Ġbind ing
Ġsurpass es
Ġconco ctions
Ġweld ing
dri ver
Ġembro idered
Ġtus c
Ġhein z
Ġbroch ures
Ġfright ened
Ġuncon cer
Ġatom ic
Ġseiz ure
Ġauc un
Ġcoch ran
Ġyogur ts
Ġraisonn able
Ġcompart ment
Ġprejud ice
yel p
Ġplais ir
Ġcrost ini
beca use
Ġlovese at
Ġlabe lled
c li
f ax
j es
p ent
w ild
Ġt ch
Ġa very
Ġw ien
Ġs ack
Ġto pless
Ġe lo
an ing
le wood
Ġy ada
ac ious
Ġhe ars
Ġst atic
ri que
Ġk ors
ul in
Ġta bb
Ġevery ones
Ġcan ister
Ġover board
Ġover run
Ġneed ling
Ġapp rent
Ġcha u
Ġfl esh
we bs
Ġper me
Ġtri vial
Ġins ights
Ġel ena
Ġsec uring
Ġnum bed
Ġcur bs
Ġgener ate
Ġslow ed
Ġpan na
just in
Ġx iao
Ġyum mm
Ġer nest
Ġcat ast
Ġmc ke
Ġsick ening
Ġbudget s
Ġdiagn oses
wood s
Ġflu orescent
Ġmi ff
Ġloving ly
Ġlee k
Ġbent ley
Ġconcl ude
Ġprop re
Ġkrist a
Ġther mal
Ġhers hey
Ġbould ers
Ġcateg or
Ġescal ator
Ġnovel s
Ġbloom field
Ġyouth ful
Ġdelic ately
Ġsculpt ures
Ġevol ution
Ġcors age
Ġcrow foot
Ġreli ably
Ġgrave yard
Ġrefe ren
Ġrecess ion
Ġaustr alian
Ġfier ce
Ġcay enne
Ġgree ce
Ġcompr ised
Ġmosc ow
Ġinfect ious
Ġconsecut ive
Ġprelim inary
Ġlunche on
Ġfasci itis
Ġthres hold
b lo
b ott
f are
k as
k ar
p ace
p ool
w el
Ġw ifes
Ġs as
Ġc ia
Ġm ow
as ked
Ġl onge
at tering
Ġre usable
us a
Ġh q
Ġh il
id ge
Ġwith hold
Ġas pha
ood les
Ġat a
ter rific
Ġk ann
Ġli g
Ġtr aged
Ġservice man
ra it
Ġte ap
Ġmo ly
Ġmo ss
Ġcar ly
ag les
Ġdr umst
Ġbr ady
ry n
Ġwal t
Ġpay er
Ġhot wire
Ġcheck ers
Ġweek nights
for ming
Ġthank you
up ro
Ġfront ier
Ġbas has
Ġeach other
Ġcra bby
Ġunt ill
ib u
Ġhu mp
Ġhu bert
Ġincl ine
Ġaut on
Ġfantastic ally
Ġson ia
Ġsw ag
Ġegg rolls
Ġlear nt
Ġsteak houses
Ġvo c
Ġmis haps
Ġbrown ed
Ġflat ten
che z
Ġpu ke
Ġhighl ands
Ġbright en
Ġdev oid
Ġsens ory
Ġvent i
Ġswim s
Ġund ress
Ġrev oked
Ġcarol inas
Ġfranchise e
Ġlos ers
Ġsin atra
Ġgrac ie
Ġkrist y
Ġpunch ing
Ġpatch y
Ġcoun cil
Ġunp ack
Ġpred atory
Ġobnox iously
Ġstro kes
Ġren amed
Ġbould ering
Ġmcc l
Ġtransl ated
Ġacqu ire
Ġimper fections
Ġconflic ting
Ġmidw ives
Ġnich olas
Ġfract ure
Ġetern ity
Ġrome o
Ġdowngr ade
Ġtestim on
Ġintermitt ent
Ġdisrep air
Ġunnot iced
Ġavac ado
a ver
c ount
Ġt ud
Ġs ill
Ġs ig
Ġs led
Ġo ub
Ġo ste
Ġm isters
on o
Ġl r
at as
Ġre asse
ut er
Ġit ch
al right
Ġne x
ad er
ood oo
Ġat hen
Ġpl ot
Ġli k
ul u
Ġwor ms
Ġwor ding
op ho
Ġlike wise
ra ught
Ġsp raw
Ġche ep
Ġpo sing
Ġdi or
Ġfl op
ish op
Ġmon ot
ach o
Ġins ides
Ġho oray
Ġbl aze
Ġrep rod
Ġreg ain
Ġgl ared
Ġmar vin
Ġrec alled
Ġcor vette
Ġbas ha
Ġwar rants
Ġbat he
sp ort
Ġflo yd
Ġbro iled
Ġlow ering
Ġlas agne
Ġgri ffin
Ġgra vity
Ġped ic
Ġint uition
Ġcorrect ive
Ġz ia
Ġz eal
Ġstri pping
go d
Ġsad ie
Ġdist raught
Ġenviron ments
Ġvan ished
Ġsun k
Ġcomplex ity
Ġbak es
Ġeyes ight
Ġden nys
Ġjud ges
Ġcomment ary
Ġdu per
Ġmob il
ank an
Ġpier ce
Ġtro is
ony mous
Ġdelay ing
Ġsecret ly
loc ity
Ġcate rers
Ġposition ed
Ġgran ny
Ġcertific ations
Ġoutra ged
Ġachie ving
Ġbid ding
Ġsurv ival
Ġexplore r
Ġliber al
Ġrecie pt
Ġgest ures
Ġholl and
isc illa
Ġtwe aks
Ġtransl ates
Ġbreed er
Ġimper ative
Ġdelic ous
Ġlege nds
Ġmerchan ts
Ġbos ses
Ġbelief s
Ġbail ed
Ġsacrif icing
Ġspons ored
Ġdetermin ation
Ġgrie ving
Ġsemin ars
Ġraff le
Ġrept iles
Ġfrances ca
Ġchardon nay
Ġhypn osis
Ġnonchal ant
Ġmosqu ito
Ġwhims ical
Ġfanci est
Ġphilipp ines
Ġinfra red
Ġmits ub
Ġunconcer ned
c ards
g ame
g irls
n ate
p ic
s ure
s ub
s ky
u pe
Ġt mobile
Ġi re
Ġs ass
Ġo dy
Ġo tf
Ġp hen
Ġto iles
as ide
Ġg ents
Ġl ino
it ian
Ġre vel
Ġbe ams
Ġbe nding
Ġbe acon
Ġfor ums
Ġst ou
Ġare pas
Ġso p
Ġex pe
Ġde vin
Ġsa x
Ġsu ing
Ġtr ava
Ġtr acey
Ġv ino
Ġv ita
im an
Ġher d
Ġte ase
Ġmo z
Ġmo jo
Ġag ility
Ġro gue
te e
Ġcha ud
Ġmu nd
Ġrest raint
Ġdec on
Ġve y
Ġbl azing
Ġchan a
Ġbu rial
Ġold ies
Ġpar rot
Ġhand craft
Ġcons iders
Ġim ax
Ġcre ase
Ġgrou pe
Ġstand by
Ġshort bread
Ġcal ci
Ġpool side
Ġstr ut
ns hip
Ġtac oma
Ġbrand i
Ġforward ing
Ġsing h
Ġpet ting
Ġfre t
Ġbab e
Ġinf lex
Ġappe als
br ooke
ph ies
Ġgel atin
Ġir ons
Ġwra ppers
Ġcamp ground
Ġpal mer
Ġinj era
Ġcow ard
Ġaud itor
Ġkno cks
Ġcelebr ations
Ġmal ibu
Ġcomb ines
Ġdar ryl
Ġund o
Ġrev ised
Ġjul ian
Ġsew ickley
vs ki
Ġassess ing
Ġunc ooper
Ġmacar oon
Ġspark les
Ġoak ley
Ġcran berries
Ġeve lyn
Ġoverhe ated
Ġdemon stration
Ġpray ers
Ġoptim um
Ġpolit eness
Ġski ing
po st
Ġrue ben
Ġpir ate
Ġbelg ium
Ġinval id
Ġverd un
Ġoo zing
Ġjag ged
Ġseren a
Ġpy ram
Ġelliptical s
Ġbelitt ling
Ġnag ging
Ġhipp ie
Ġbast ard
sur prisingly
Ġsmir k
Ġtoug her
struct ed
Ġauthent ically
Ġwrest ling
Ġinsec ure
Ġperplex ed
Ġbotan ical
Ġpronou nce
Ġsilic one
Ġdous ed
Ġlaks a
Ġboulanger ie
Ġaspha lt
c ash
d rew
p her
s at
t ag
u ber
v r
y en
Ġi am
Ġs ings
nd es
Ġm ish
Ġp ow
Ġto ri
Ġd oodle
Ġg h
ic ably
Ġe ffe
an os
Ġre per
Ġre ndez
Ġfor fe
al er
Ġme mph
Ġso be
Ġj ed
Ġti led
Ġti ghter
Ġall an
Ġch ive
Ġcon ge
Ġma ureen
Ġte c
iz ona
Ġspe ck
Ġrest u
Ġdefin ed
Ġext ortion
Ġins anity
Ġlong ue
Ġchan t
Ġcr on
Ġhot spot
be lla
Ġgu inea
Ġmat in
Ġcol in
Ġtown er
Ġtown ship
ef in
Ġmiss y
Ġinter vention
Ġcla use
Ġhum ong
Ġadm ired
Ġproject ed
Ġrepe ats
Ġrese ll
Ġbrew er
Ġdev on
Ġdev iled
Ġking dom
Ġsens ed
Ġdig s
Ġlandsca ped
Ġcand ice
Ġjer ked
Ġash t
Ġsi ri
Ġger ms
Ġtout es
Ġow ing
Ġcru ising
Ġdumb bells
tr ack
Ġpoke mon
Ġaim ed
Ġrh ubar
Ġbound aries
Ġell is
Ġsufficient ly
Ġtran ny
Ġincorpor ating
Ġrig id
Ġlump s
Ġnom inal
Ġrant ing
Ġpul p
Ġvague ly
Ġcine plex
Ġexplo ded
Ġwhist le
Ġretourner ai
Ġfoolish ly
Ġdegr ading
Ġcalcul ator
Ġacadem ically
Ġnad ine
Ġcray ons
Ġdern i
Ġdisheart ening
Ġarcher y
Ġophthalmo logist
Ġwann abe
Ġecc ent
Ġunsett ling
Ġclums y
Ġchall ah
Ġsebast ian
Ġfrug al
Ġflound er
Ġtabb ou
a ise
g ly
l ittle
l ap
s al
u ite
v ies
Ġa us
in ter
Ġf ue
Ġb ax
Ġd w
Ġd ix
or ium
Ġl ays
Ġre ven
Ġh ive
id al
ro lling
Ġu l
Ġu pp
Ġso ck
Ġse p
Ġpl u
Ġor chard
ant es
th ouse
Ġam pl
Ġout re
Ġlo gs
Ġlo aves
Ġup most
ate ur
Ġco c
Ġkn ight
Ġcar ving
Ġpo k
Ġro e
fe ction
mo sis
Ġpre ston
Ġcha mb
Ġdi jon
Ġdec king
ish ly
Ġbl ouses
Ġref uge
Ġemp orter
Ġwr it
Ġreal istically
Ġstar ve
Ġpast ors
Ġfel icia
Ġda al
Ġwalk able
Ġrequ is
Ġlife guards
Ġpres cott
Ġteam work
Ġsy nc
Ġsw apping
Ġrem otes
Ġrid dance
Ġorigin als
Ġbir thing
Ġann ually
Ġgreen house
Ġwarrant ee
chan ged
Ġheart broken
Ġrespect ing
Ġcourteous ly
Ġtemp late
Ġdump y
Ġvide ographer
bel t
Ġshell fish
Ġdev our
Ġcig s
Ġpas se
Ġaud ition
Ġna ans
Ġcell ular
Ġspice y
Ġalex andra
Ġmotor home
Ġiron y
Ġquant it
Ġlin ers
Ġhood ie
Ġjac obs
str ong
Ġmagn ets
Ġrail road
Ġharris burg
Ġga ug
Ġwrist band
Ġpens ke
Ġhydr ation
Ġald o
Ġskim ping
Ġlg bt
Ġado be
Ġmanip ul
Ġtwins burg
find ing
Ġfestiv ities
Ġbabys itter
Ġcounsel ors
Ġphysi otherapy
Ġgrie v
Ġdiscol ored
Ġpts d
Ġgaze bo
Ġmanif old
Ġdeodor ant
Ġmanne quin
Ġdogg ies
Ġreprimand ed
Ġsuperst ition
Ġpomp ous
Ġuncooper ative
f old
g ross
h it
m ail
n ous
y ards
Ġt ldr
he rent
he lle
Ġo ps
ou pe
Ġl ager
Ġl aced
Ġre ign
Ġre book
Ġbe agle
Ġnot ifications
Ġy ucca
Ġh ooking
all es
Ġwh iz
Ġr r
Ġv ile
Ġpr un
Ġta pping
ag ain
Ġcl asp
Ġaw ak
Ġph ony
Ġdef ended
Ġfl in
Ġdec als
Ġhome coming
Ġdefin itly
Ġins ulin
ian g
Ġfam ille
Ġpar atha
Ġcomple tes
Ġopt ing
Ġpast el
Ġcompl ied
Ġcre st
Ġcra fty
Ġsign atures
Ġmet ers
Ġpass age
Ġpres que
rest aurant
Ġsw atch
man aged
Ġgar nis
Ġoh hh
Ġfit ch
Ġsn apping
ĠĠĠĠĠĠĠĠ ĠĠĠĠĠĠ
Ġmain e
Ġenc han
Ġheart less
Ġfoot print
Ġfail ures
Ġtor ched
Ġcoo p
che f
Ġrot is
Ġuns y
Ġtooth brush
Ġram on
Ġfrank lin
Ġqual ifications
Ġmal pract
Ġembar ass
Ġom ak
Ġbull ies
Ġinvent ed
Ġamen ity
Ġlin q
Ġreb ates
Ġregist r
Ġos mosis
Ġdanger ously
Ġshock er
ann i
ann ah
Ġparticip ation
Ġgrat in
Ġder by
Ġwound s
Ġshawn a
Ġhero es
Ġward en
known st
Ġbru ise
Ġtang led
Ġpul se
Ġsculpt ing
Ġhyp not
Ġawa ited
Ġtost adas
Ġrecreat e
Ġnause ous
Ġpert inent
Ġconsequ ently
Ġimplement ed
Ġassiet tes
Ġcongest ion
Ġmcm uff
Ġweap ons
Ġunke pt
Ġcondens er
Ġkum on
Ġabord able
Ġassert ive
Ġconfig ur
Ġadap ter
jenn ifer
Ġunsol icited
Ġunpredict able
Ġmitsub ishi
Ġmemph is
Ġrestu arant
j os
Ġt ide
Ġw ang
er ting
Ġc rou
Ġb ings
Ġm itz
Ġp uss
Ġp iqu
Ġto do
Ġg id
an za
Ġin a
le um
Ġre ef
Ġre cap
ut her
Ġme yer
Ġare pa
Ġse ized
Ġj b
Ġj ugs
Ġti ms
Ġti bet
ant hony
Ġk ern
Ġam used
Ġout ings
Ġsa um
Ġshe esh
Ġca ber
Ġlo ps
Ġup sold
Ġgood man
Ġv oodoo
Ġher ni
mp tion
Ġmo cking
Ġag ua
Ġsp out
Ġwa nda
Ġstaff ers
av in
Ġac l
Ġfl aut
Ġfl irt
ater al
Ġimp lies
be yond
ire ct
Ġgl ands
Ġla under
Ġsur real
Ġexcellent ly
Ġmed all
Ġind efin
Ġty len
Ġeasy going
Ġstand off
sp ace
Ġport ray
Ġcream ery
Ġsw ung
Ġped als
Ġdesk top
olog ists
Ġz ig
Ġz ones
Ġstep h
Ġafford ability
Ġenc losure
Ġscott ish
Ġsoft en
Ġsqu irt
Ġir regular
Ġthrow back
Ġunderst ated
Ġexpress ions
Ġded uction
Ġcap ability
Ġdim med
Ġsam uel
Ġtro phies
Ġmal gr
Ġglo b
Ġbul ky
Ġpink berry
Ġletter ing
Ġcarp enter
Ġrele asing
Ġweb page
Ġcapt ures
Ġjour n
hern alia
Ġmint s
Ġstrength s
Ġprop ose
Ġintimid ate
Ġther m
Ġswing ing
Ġmarc os
Ġhen ri
Ġargu ments
Ġsusp icion
otch y
Ġbloom ing
Ġcer amics
Ġextend s
Ġapprais er
Ġsteven s
Ġneut er
Ġdelic acies
Ġcontrib uting
Ġmanic ured
step hanie
Ġbern ard
Ġalt ima
jam as
Ġdouche bag
Ġcalc ulate
Ġecl ip
Ġresurf aced
Ġaccum ulated
Ġseiz ures
Ġvandal ized
Ġtabou li
Ġlicie use
Ġtablecl oths
Ġparap hernalia
Ġpave ment
Ġobed ience
Ġphysiotherap ist
Ġbenn ett
Ġblockb uster
Ġlonge vity
Ġhumong ous
Ġeccent ric
Ġlops ided
Ġtylen ol
e ly
g otta
k ok
l estone
m d
m om
n ik
v oli
w er
Ġt n
Ġt ul
Ġa e
Ġw w
Ġf ou
Ġf erg
Ġc uss
Ġd ion
ver ted
Ġh ides
st en
Ġne al
Ġdo lp
Ġas c
Ġpl ag
se vel
Ġal ittle
Ġal ison
th s
Ġk ona
Ġk ang
Ġk leen
Ġsa go
qu iles
Ġall ig
Ġpro act
Ġab e
am an
Ġv os
Ġqu itting
Ġle ashes
ight ly
Ġsta bbed
Ġmo cked
Ġag ony
Ġsp y
Ġsp itting
Ġpe ars
Ġro lex
Ġro asters
Ġcl are
Ġpre sto
Ġbus boy
Ġfl ushing
Ġres igned
Ġhome fries
Ġbr ue
Ġtri ath
Ġmay a
Ġsl ate
iss ons
Ġcho ked
Ġrec onne
Ġav i
Ġsim ul
Ġind ucing
Ġwalk through
Ġshort cake
og ue
Ġwife y
Ġhead liner
Ġbro ck
Ġtables poon
olog ie
Ġpan or
Ġcreat ure
ret urned
Ġtan ger
Ġbra gging
Ġfore arm
Ġcondition ers
Ġlay man
Ġtick s
Ġnorth lake
Ġprefer ably
Ġbell ies
Ġcir ca
Ġburn ers
Ġcraft ing
Ġtips y
Ġfu zz
Ġesp n
Ġbull s
Ġnut ri
Ġsque aking
Ġscar red
Ġapprox imate
Ġchem istry
Ġpit bull
Ġradio logy
vet tes
some one
Ġovers had
Ġoutfit ters
Ġpred omin
Ġdiscour aging
Ġindul ged
isc os
Ġtwe aking
Ġbru ising
Ġdomin ique
ilit ating
Ġunbe knownst
Ġkoh ls
Ġswall owed
Ġyol anda
Ġalberts on
Ġunk now
whe el
Ġreinst alled
Ġstu art
nas ium
Ġarchitect ural
Ġpapri ka
Ġderma plan
Ġib upro
Ġtoothp aste
Ġrestor ative
Ġdefinitive ly
Ġcrum bles
Ġcanop y
Ġomak ase
j ar
l uck
m atic
p op
s cheduled
t am
y ay
he alth
Ġw u
Ġf izz
Ġc uit
Ġm umbling
Ġp ines
Ġp ores
Ġn ifty
ic ult
Ġof c
Ġre att
Ġh sa
et ti
Ġme i
Ġat water
Ġal oe
Ġfr inge
Ġcomp ass
Ġcan v
Ġloo ps
Ġmo sa
Ġmo ksha
Ġdis par
Ġcle arer
Ġcl umpy
and ez
Ġjo lly
Ġjo jo
ile e
Ġbet hel
Ġfl am
Ġmon aco
Ġvis ions
Ġpay off
Ġclo cks
Ġcr ude
Ġent ice
Ġsl iver
Ġcra pp
Ġmed al
sw orth
Ġcomfort ed
und ra
Ġcur ves
Ġteam buy
Ġmil estones
Ġsn ails
bur st
Ġgreen field
Ġpop ulated
wor m
Ġhum us
Ġaccept ance
Ġbother some
Ġge ograp
Ġmer it
Ġgold s
Ġtap ing
Ġcart oon
Ġcross roads
Ġprem ature
Ġtail gate
Ġtight s
Ġcell s
Ġkno bs
Ġbum ble
Ġintegr ated
Ġrack ing
Ġconv ien
Ġspir ited
Ġteaching s
Ġoverl ooks
Ġroyal ton
Ġunion ville
Ġwhis ky
Ġyo gh
Ġbitter ness
Ġexcl uding
keep ers
Ġgam er
Ġpatch ing
Ġod ors
Ġexped ient
Ġpred ic
Ġnation ally
Ġtwe aked
Ġkiss es
Ġroy ale
Ġlump ia
Ġthy me
Ġmeille ure
Ġskim ped
Ġshuff led
Ġdefe ats
Ġsued e
Ġunk ind
Ġyak is
Ġsis ig
Ġetern ally
Ġfili berto
Ġuno bt
Ġsadd est
Ġemb assy
Ġendodont ist
Ġashtr ay
Ġnewslet ter
Ġrhyth m
Ġdary l
Ġcatast rop
Ġinflex ible
sevel t
c un
d j
d or
g ien
m uch
p ike
w oo
Ġs v
in it
Ġf ighter
Ġc id
Ġm ie
Ġto by
Ġl ina
Ġe lla
Ġin oper
ar ia
Ġbe ading
Ġhe mp
Ġdo sas
Ġas pir
ill on
Ġse in
Ġde em
Ġti voli
Ġal oud
Ġr ican
Ġr ational
Ġser um
Ġsa uv
Ġab ide
res se
Ġback side
Ġch ila
Ġma e
Ġoff end
Ġher nia
Ġman uel
mp athetic
Ġun ions
Ġpo et
iz en
Ġdr one
Ġjo g
Ġri ff
Ġsc ant
Ġbet sy
ak opita
Ġper used
Ġact or
Ġref rain
Ġunder gone
Ġsha kers
Ġbit ches
Ġcho c
Ġrec he
Ġav g
Ġbur bs
Ġrel ive
Ġrel ies
Ġcompl iance
Ġcre ole
Ġsk id
Ġwo ot
Ġdisc ern
Ġcard inals
Ġdent ure
Ġmust ache
Ġplan k
Ġmus s
Ġinter mission
Ġspr ung
Ġrem nants
Ġwall ace
Ġcup boards
Ġz um
Ġdon n
Ġocc ass
Ġfurn ish
Ġcompet ency
Ġworld wide
Ġtha wed
Ġfire places
Ġlen gu
Ġindust ries
mar ks
Ġentr ust
Ġtar n
Ġmes mer
Ġken neth
Ġdece ption
Ġrob ots
Ġlit re
any one
Ġheaven s
Ġanx iously
Ġurg ently
Ġblind ly
Ġunne eded
Ġshar ks
Ġfranch ised
Ġber ating
Ġthr ott
Ġsew ed
Ġflaw ed
ox ide
Ġresto cked
Ġcast ing
Ġblank ly
Ġbarb ie
Ġcontemp lated
Ġmath nasium
Ġinstit utions
top ia
Ġstro lled
Ġlocksmith s
Ġfer ry
Ġchile an
cr ack
Ġjoking ly
Ġlimp ing
Ġresid ency
Ġcm u
cor p
Ġdefe ated
Ġinfin ite
Ġlect ured
Ġreinst all
Ġmound s
Ġrept ile
Ġbutters c
Ġpard on
Ġsyl via
Ġcroquet tes
Ġcale b
Ġunemplo yed
Ġaladd in
Ġgenes is
Ġnapole on
Ġtraged y
Ġrhubar b
Ġmalpract ice
Ġsaum on
Ġibupro fen
Ġyakis oba
c ars
p oss
r ams
v ue
he ro
Ġi ii
Ġw ir
Ġf uming
Ġc x
Ġb ung
Ġp ense
Ġd ac
Ġd otted
Ġd ummy
Ġn ed
Ġn ay
Ġn ak
Ġg unk
Ġg ains
Ġha us
Ġe ine
Ġin line
Ġre key
Ġh unk
Ġfor bes
Ġst ash
Ġme ment
st ri
st ruction
Ġu e
Ġne ap
th or
Ġk oob
Ġser mons
Ġsa k
Ġpro jection
Ġv ida
im ated
Ġpr iscilla
Ġco ded
Ġle vin
Ġcomp ote
Ġmo is
Ġsp ade
own ess
Ġsc ree
Ġsc aring
Ġspe ars
to ir
Ġext r
Ġtri als
Ġpa used
Ġins ign
Ġchar ities
Ġfound ed
Ġel ote
Ġend oc
Ġimp aired
Ġlet har
Ġreg ent
Ġsl ivers
Ġmar yan
ary n
Ġbas in
Ġsand ing
Ġarri vals
ib an
Ġcream iness
Ġinte llect
Ġstr ains
Ġson y
Ġred dish
Ġnear ing
Ġdam per
Ġed c
Ġeng ages
Ġfil t
Ġcook ware
Ġmult ig
Ġz est
Ġdon airs
Ġinformation al
Ġsale m
Ġhum ming
Ġfur the
Ġcrisp ier
Ġgrand mas
Ġmaj estic
Ġra ita
Ġhy de
Ġur ged
Ġrock er
Ġnic ked
Ġdark ness
Ġven ison
Ġsuc kered
Ġcant al
Ġrich ness
Ġactiv ation
Ġremod els
Ġsav age
Ġoffic iant
Ġbless ings
Ġnick y
Ġber ate
itor i
Ġhighlight ing
Ġcub a
Ġnov oc
Ġrap ini
Ġbang kok
Ġdy no
Ġpun ches
Ġinject or
Ġsurv iv
isha ble
Ġroo sevelt
Ġsup ers
Ġpuff ed
Ġchim ich
Ġrag ged
Ġhust led
Ġstrate g
Ġdill ard
Ġcowboy s
Ġleon ard
Ġnas al
Ġfriendship s
Ġvick ie
Ġtuck er
Ġsequ ence
Ġasp ire
Ġkend ra
Ġgrid dle
Ġwend ys
Ġhumili ating
Ġspont aneous
Ġjale pen
Ġdefic iencies
Ġhygen ist
Ġspong y
Ġenf ants
Ġgos pel
Ġbrend an
Ġwynd ham
Ġhandcraft ed
Ġsobe ys
Ġcaber net
Ġlengu a
Ġbuttersc otch
b g
b ish
b ank
d ia
i very
i end
k t
m ill
m ust
p icked
u be
Ġa hhh
Ġi cky
Ġs ipped
[...]
